<unk>	0
<s>	0
</s>	0
<|beginoftext|>	0
<|endoftext|>	0
<|endofprompt|>	0
<|im_start|>	0
<|im_end|>	0
<|UNK|>	0
<|PAD|>	0
<|CLS|>	0
<|SEP|>	0
<|MASK|>	0
<|BOS|>	0
<|EOS|>	0
<0x00>	0
<0x01>	0
<0x02>	0
<0x03>	0
<0x04>	0
<0x05>	0
<0x06>	0
<0x07>	0
<0x08>	0
<0x09>	0
<0x0A>	0
<0x0B>	0
<0x0C>	0
<0x0D>	0
<0x0E>	0
<0x0F>	0
<0x10>	0
<0x11>	0
<0x12>	0
<0x13>	0
<0x14>	0
<0x15>	0
<0x16>	0
<0x17>	0
<0x18>	0
<0x19>	0
<0x1A>	0
<0x1B>	0
<0x1C>	0
<0x1D>	0
<0x1E>	0
<0x1F>	0
<0x20>	0
<0x21>	0
<0x22>	0
<0x23>	0
<0x24>	0
<0x25>	0
<0x26>	0
<0x27>	0
<0x28>	0
<0x29>	0
<0x2A>	0
<0x2B>	0
<0x2C>	0
<0x2D>	0
<0x2E>	0
<0x2F>	0
<0x30>	0
<0x31>	0
<0x32>	0
<0x33>	0
<0x34>	0
<0x35>	0
<0x36>	0
<0x37>	0
<0x38>	0
<0x39>	0
<0x3A>	0
<0x3B>	0
<0x3C>	0
<0x3D>	0
<0x3E>	0
<0x3F>	0
<0x40>	0
<0x41>	0
<0x42>	0
<0x43>	0
<0x44>	0
<0x45>	0
<0x46>	0
<0x47>	0
<0x48>	0
<0x49>	0
<0x4A>	0
<0x4B>	0
<0x4C>	0
<0x4D>	0
<0x4E>	0
<0x4F>	0
<0x50>	0
<0x51>	0
<0x52>	0
<0x53>	0
<0x54>	0
<0x55>	0
<0x56>	0
<0x57>	0
<0x58>	0
<0x59>	0
<0x5A>	0
<0x5B>	0
<0x5C>	0
<0x5D>	0
<0x5E>	0
<0x5F>	0
<0x60>	0
<0x61>	0
<0x62>	0
<0x63>	0
<0x64>	0
<0x65>	0
<0x66>	0
<0x67>	0
<0x68>	0
<0x69>	0
<0x6A>	0
<0x6B>	0
<0x6C>	0
<0x6D>	0
<0x6E>	0
<0x6F>	0
<0x70>	0
<0x71>	0
<0x72>	0
<0x73>	0
<0x74>	0
<0x75>	0
<0x76>	0
<0x77>	0
<0x78>	0
<0x79>	0
<0x7A>	0
<0x7B>	0
<0x7C>	0
<0x7D>	0
<0x7E>	0
<0x7F>	0
<0x80>	0
<0x81>	0
<0x82>	0
<0x83>	0
<0x84>	0
<0x85>	0
<0x86>	0
<0x87>	0
<0x88>	0
<0x89>	0
<0x8A>	0
<0x8B>	0
<0x8C>	0
<0x8D>	0
<0x8E>	0
<0x8F>	0
<0x90>	0
<0x91>	0
<0x92>	0
<0x93>	0
<0x94>	0
<0x95>	0
<0x96>	0
<0x97>	0
<0x98>	0
<0x99>	0
<0x9A>	0
<0x9B>	0
<0x9C>	0
<0x9D>	0
<0x9E>	0
<0x9F>	0
<0xA0>	0
<0xA1>	0
<0xA2>	0
<0xA3>	0
<0xA4>	0
<0xA5>	0
<0xA6>	0
<0xA7>	0
<0xA8>	0
<0xA9>	0
<0xAA>	0
<0xAB>	0
<0xAC>	0
<0xAD>	0
<0xAE>	0
<0xAF>	0
<0xB0>	0
<0xB1>	0
<0xB2>	0
<0xB3>	0
<0xB4>	0
<0xB5>	0
<0xB6>	0
<0xB7>	0
<0xB8>	0
<0xB9>	0
<0xBA>	0
<0xBB>	0
<0xBC>	0
<0xBD>	0
<0xBE>	0
<0xBF>	0
<0xC0>	0
<0xC1>	0
<0xC2>	0
<0xC3>	0
<0xC4>	0
<0xC5>	0
<0xC6>	0
<0xC7>	0
<0xC8>	0
<0xC9>	0
<0xCA>	0
<0xCB>	0
<0xCC>	0
<0xCD>	0
<0xCE>	0
<0xCF>	0
<0xD0>	0
<0xD1>	0
<0xD2>	0
<0xD3>	0
<0xD4>	0
<0xD5>	0
<0xD6>	0
<0xD7>	0
<0xD8>	0
<0xD9>	0
<0xDA>	0
<0xDB>	0
<0xDC>	0
<0xDD>	0
<0xDE>	0
<0xDF>	0
<0xE0>	0
<0xE1>	0
<0xE2>	0
<0xE3>	0
<0xE4>	0
<0xE5>	0
<0xE6>	0
<0xE7>	0
<0xE8>	0
<0xE9>	0
<0xEA>	0
<0xEB>	0
<0xEC>	0
<0xED>	0
<0xEE>	0
<0xEF>	0
<0xF0>	0
<0xF1>	0
<0xF2>	0
<0xF3>	0
<0xF4>	0
<0xF5>	0
<0xF6>	0
<0xF7>	0
<0xF8>	0
<0xF9>	0
<0xFA>	0
<0xFB>	0
<0xFC>	0
<0xFD>	0
<0xFE>	0
<0xFF>	0
in	-0
er	-1
▁t	-2
▁a	-3
on	-4
he	-5
or	-6
es	-7
en	-8
at	-9
an	-10
▁s	-11
is	-12
al	-13
▁the	-14
ar	-15
ed	-16
el	-17
it	-18
▁o	-19
▁f	-20
re	-21
▁c	-22
as	-23
▁in	-24
▁w	-25
ic	-26
ion	-27
▁of	-28
▁p	-29
ro	-30
nd	-31
▁d	-32
le	-33
ing	-34
▁b	-35
▁S	-36
am	-37
▁C	-38
et	-39
ur	-40
▁A	-41
▁T	-42
il	-43
▁m	-44
▁and	-45
st	-46
ent	-47
▁=	-48
ct	-49
ou	-50
▁M	-51
om	-52
ol	-53
elf	-54
--	-55
▁to	-56
▁P	-57
▁n	-58
ad	-59
▁l	-60
▁R	-61
▁h	-62
▁B	-63
id	-64
th	-65
▁'	-66
ac	-67
im	-68
▁I	-69
ers	-70
▁re	-71
ist	-72
▁H	-73
ef	-74
ot	-75
▁L	-76
od	-77
ut	-78
se	-79
▁is	-80
ation	-81
iv	-82
est	-83
▁F	-84
▁N	-85
ir	-86
ig	-87
em	-88
▁D	-89
if	-90
ch	-91
br	-92
ag	-93
▁r	-94
ay	-95
un	-96
▁for	-97
ul	-98
us	-99
ex	-100
▁#	-101
▁self	-102
▁G	-103
▁E	-104
um	-105
ce	-106
op	-107
▁was	-108
▁The	-109
ter	-110
▁"	-111
一个	-112
▁g	-113
▁W	-114
什么	-115
ate	-116
pe	-117
ow	-118
and	-119
',	-120
):	-121
all	-122
oc	-123
ame	-124
rom	-125
▁th	-126
ue	-127
▁as	-128
▁on	-129
▁st	-130
ap	-131
ab	-132
----	-133
ort	-134
ri	-135
▁v	-136
ith	-137
▁O	-138
ess	-139
▁J	-140
ass	-141
▁from	-142
##	-143
up	-144
),	-145
可以	-146
▁al	-147
qu	-148
self	-149
ect	-150
自己	-151
ev	-152
▁def	-153
ec	-154
os	-155
▁con	-156
urn	-157
▁by	-158
▁with	-159
ain	-160
▁U	-161
ian	-162
没有	-163
▁K	-164
▁at	-165
pt	-166
ly	-167
port	-168
▁(	-169
art	-170
ov	-171
ert	-172
ub	-173
ia	-174
ip	-175
▁if	-176
▁an	-177
av	-178
ke	-179
og	-180
enc	-181
end	-182
ity	-183
()	-184
▁wh	-185
ew	-186
""	-187
ies	-188
问题	-189
nt	-190
==	-191
▁St	-192
▁pl	-193
one	-194
ill	-195
▁com	-196
ath	-197
ber	-198
▁V	-199
这个	-200
age	-201
▁ret	-202
▁In	-203
▁be	-204
ang	-205
就是	-206
▁pro	-207
ht	-208
pl	-209
▁he	-210
ere	-211
ult	-212
▁ex	-213
':	-214
ine	-215
▁or	-216
▁[	-217
('	-218
不是	-219
ard	-220
ud	-221
中国	-222
__	-223
our	-224
ks	-225
▁it	-226
ra	-227
▁return	-228
cl	-229
ated	-230
▁Ch	-231
ile	-232
▁cl	-233
▁im	-234
我们	-235
ary	-236
ish	-237
ions	-238
时候	-239
ord	-240
ep	-241
怎么	-242
如果	-243
ear	-244
。=	-245
ment	-246
ack	-247
--------	-248
mer	-249
ug	-250
name	-251
ong	-252
res	-253
ences	-254
int	-255
con	-256
ant	-257
iz	-258
因为	-259
现在	-260
><	-261
get	-262
ict	-263
ast	-264
ld	-265
▁not	-266
ry	-267
ore	-268
ype	-269
ive	-270
efer	-271
ount	-272
')	-273
ust	-274
####	-275
▁that	-276
的人	-277
▁ch	-278
但是	-279
▁Refer	-280
ial	-281
知道	-282
▁References	-283
ob	-284
ich	-285
还是	-286
",	-287
▁"""	-288
▁el	-289
iel	-290
tern	-291
ost	-292
ata	-293
▁Un	-294
如何	-295
▁He	-296
。<	-297
rit	-298
▁y	-299
ext	-300
erv	-301
und	-302
ak	-303
ge	-304
orm	-305
▁play	-306
ran	-307
▁res	-308
▁are	-309
eg	-310
ode	-311
so	-312
▁import	-313
ell	-314
ens	-315
ield	-316
ther	-317
觉得	-318
ure	-319
ight	-320
很多	-321
ime	-322
ction	-323
uc	-324
时间	-325
ail	-326
out	-327
公司	-328
']	-329
工作	-330
ok	-331
ice	-332
ace	-333
▁It	-334
▁his	-335
ff	-336
▁ar	-337
com	-338
所以	-339
able	-340
._	-341
这样	-342
ase	-343
都是	-344
ign	-345
ire	-346
ind	-347
▁Th	-348
▁Y	-349
的时候	-350
ory	-351
ork	-352
▁sh	-353
可能	-354
rue	-355
朋友	-356
ib	-357
str	-358
▁comp	-359
ican	-360
▁also	-361
大家	-362
))	-363
sh	-364
::	-365
▁de	-366
alue	-367
▁-	-368
ball	-369
他们	-370
ject	-371
mod	-372
ror	-373
orn	-374
），	-375
ool	-376
rib	-377
ember	-378
▁Ex	-379
▁cont	-380
为什么	-381
ild	-382
ee	-383
par	-384
▁k	-385
own	-386
▁+	-387
).	-388
ople	-389
che	-390
▁un	-391
amp	-392
pr	-393
key	-394
喜欢	-395
▁%	-396
▁Al	-397
pro	-398
ule	-399
▁le	-400
我的	-401
per	-402
ock	-403
['	-404
大学	-405
已经	-406
arg	-407
▁Ar	-408
oot	-409
一下	-410
ational	-411
are	-412
开始	-413
irst	-414
ide	-415
man	-416
▁has	-417
],	-418
参考	-419
▁{	-420
ach	-421
▁fil	-422
▁us	-423
to	-424
▁e	-425
一些	-426
ical	-427
▁ro	-428
("	-429
form	-430
▁_	-431
需要	-432
ng	-433
eople	-434
的是	-435
ver	-436
ance	-437
ree	-438
▁were	-439
ound	-440
第一	-441
▁which	-442
比较	-443
▁lin	-444
▁Amer	-445
ond	-446
▁j	-447
=*	-448
ubl	-449
assert	-450
land	-451
pec	-452
ates	-453
感觉	-454
low	-455
ents	-456
eth	-457
ations	-458
lo	-459
▁None	-460
tr	-461
▁–	-462
▁u	-463
或者	-464
个人	-465
生活	-466
ix	-467
put	-468
还有	-469
ern	-470
act	-471
应该	-472
ings	-473
ms	-474
iss	-475
eas	-476
不能	-477
ns	-478
的一	-479
ie	-480
ition	-481
old	-482
▁test	-483
孩子	-484
ite	-485
add	-486
ave	-487
cept	-488
esc	-489
rap	-490
▁ad	-491
那么	-492
也是	-493
ivers	-494
美国	-495
不会	-496
les	-497
▁name	-498
ally	-499
ames	-500
io	-501
ous	-502
这种	-503
▁this	-504
ootball	-505
▁==	-506
set	-507
然后	-508
hed	-509
type	-510
自己的	-511
▁ap	-512
ax	-513
ternal	-514
aw	-515
ence	-516
▁class	-517
哪些	-518
好的	-519
qual	-520
▁American	-521
看到	-522
▁pr	-523
ener	-524
世界	-525
ft	-526
path	-527
//	-528
ited	-529
▁par	-530
▁first	-531
人的	-532
不要	-533
..	-534
▁As	-535
roup	-536
cess	-537
ied	-538
uct	-539
▁mod	-540
app	-541
ics	-542
▁Com	-543
ors	-544
########	-545
情况	-546
发现	-547
ress	-548
fer	-549
▁part	-550
ont	-551
▁New	-552
进行	-553
ER	-554
eb	-555
====	-556
真的	-557
▁str	-558
----------------	-559
是一	-560
clud	-561
istr	-562
")	-563
▁Mar	-564
▁links	-565
其实	-566
ick	-567
这些	-568
wo	-569
ribut	-570
ery	-571
ey	-572
国家	-573
IN	-574
ater	-575
fter	-576
▁External	-577
els	-578
alse	-579
回答	-580
**	-581
▁ass	-582
部分	-583
▁out	-584
ize	-585
使用	-586
▁:	-587
一直	-588
True	-589
你的	-590
ome	-591
其他	-592
？<	-593
Er	-594
ph	-595
tt	-596
eng	-597
hen	-598
▁players	-599
▁people	-600
als	-601
▁ev	-602
”，	-603
ake	-604
ys	-605
rans	-606
样的	-607
ward	-608
发展	-609
▁Pro	-610
ault	-611
专业	-612
出来	-613
而且	-614
游戏	-615
outh	-616
Error	-617
li	-618
ise	-619
au	-620
▁who	-621
▁rel	-622
test	-623
▁loc	-624
▁ac	-625
▁set	-626
非常	-627
▁tr	-628
选择	-629
ah	-630
ck	-631
▁comm	-632
▁serv	-633
chool	-634
file	-635
▁football	-636
▁<	-637
te	-638
的话	-639
这么	-640
▁one	-641
一定	-642
igh	-643
不知道	-644
希望	-645
etw	-646
='	-647
▁te	-648
方面	-649
ale	-650
作为	-651
之后	-652
主要	-653
▁sc	-654
wn	-655
一般	-656
▁Univers	-657
raph	-658
▁per	-659
ists	-660
▁Sh	-661
mp	-662
市场	-663
ll	-664
一起	-665
ark	-666
▁Jo	-667
atch	-668
▁如何	-669
学习	-670
上的	-671
只是	-672
日本	-673
olle	-674
大的	-675
▁year	-676
])	-677
了一	-678
▁Count	-679
ann	-680
不过	-681
▁ab	-682
认为	-683
ision	-684
通过	-685
▁had	-686
对于	-687
是什么	-688
ished	-689
目前	-690
东西	-691
▁bo	-692
any	-693
uild	-694
amil	-695
▁Le	-696
ral	-697
ethod	-698
way	-699
影响	-700
不同	-701
ade	-702
AT	-703
社区	-704
▁rec	-705
ths	-706
▁includ	-707
▁bir	-708
irect	-709
min	-710
设计	-711
son	-712
中的	-713
ould	-714
quest	-715
▁its	-716
▁new	-717
▁spec	-718
到了	-719
ury	-720
电影	-721
▁University	-722
fo	-723
▁Z	-724
系统	-725
ersion	-726
▁else	-727
▁list	-728
ript	-729
ON	-730
这是	-731
pon	-732
istrict	-733
fig	-734
bo	-735
ram	-736
az	-737
资料	-738
▁but	-739
服务	-740
▁up	-741
为了	-742
iving	-743
学校	-744
▁und	-745
以及	-746
ection	-747
▁United	-748
":	-749
url	-750
oint	-751
args	-752
eat	-753
社会	-754
▁Ind	-755
研究	-756
你们	-757
data	-758
北京	-759
▁我	-760
field	-761
module	-762
是否	-763
▁Q	-764
cont	-765
IT	-766
urr	-767
比如	-768
重要	-769
技术	-770
▁two	-771
▁County	-772
="	-773
ask	-774
Equal	-775
特别	-776
▁ob	-777
orth	-778
ari	-779
ator	-780
出现	-781
基本	-782
学生	-783
ouse	-784
▁__	-785
ans	-786
abl	-787
最后	-788
起来	-789
orld	-790
所有	-791
经济	-792
▁all	-793
param	-794
▁data	-795
产品	-796
ww	-797
ik	-798
▁have	-799
一样	-800
ren	-801
att	-802
▁ag	-803
anc	-804
关注	-805
有一	-806
ina	-807
▁act	-808
val	-809
▁dis	-810
▁her	-811
虽然	-812
企业	-813
第二	-814
有哪些	-815
▁This	-816
手机	-817
AR	-818
ash	-819
None	-820
▁num	-821
也不	-822
bum	-823
相关	-824
的事	-825
▁sub	-826
date	-827
关系	-828
ange	-829
by	-830
oin	-831
▁Cl	-832
▁x	-833
成为	-834
ton	-835
管理	-836
ES	-837
同时	-838
ier	-839
ublic	-840
ative	-841
ince	-842
▁Pl	-843
red	-844
▁*	-845
人民	-846
uring	-847
nc	-848
了解	-849
lin	-850
cent	-851
问答	-852
▁Eng	-853
地方	-854
原因	-855
olog	-856
▁get	-857
resent	-858
ual	-859
▁ind	-860
▁under	-861
sc	-862
▁time	-863
▁On	-864
iew	-865
opul	-866
▁result	-867
▁bec	-868
▁pre	-869
▁other	-870
之前	-871
两个	-872
▁desc	-873
ense	-874
oci	-875
inal	-876
▁op	-877
。”	-878
▁See	-879
有什么	-880
eason	-881
▁Con	-882
ose	-883
他的	-884
ues	-885
问答社区	-886
一点	-887
ific	-888
read	-889
城市	-890
unction	-891
oy	-892
ts	-893
ograph	-894
来说	-895
▁Sc	-896
▁pol	-897
ient	-898
assertEqual	-899
ource	-900
活动	-901
方法	-902
▁reg	-903
投资	-904
各种	-905
▁off	-906
历史	-907
ple	-908
教育	-909
▁after	-910
▁team	-911
我是	-912
In	-913
hip	-914
发生	-915
inn	-916
ague	-917
list	-918
有人	-919
der	-920
谢谢	-921
ement	-922
▁their	-923
建议	-924
yp	-925
▁can	-926
▁value	-927
▁births	-928
ss	-929
ull	-930
只有	-931
老师	-932
ession	-933
fr	-934
▁est	-935
当时	-936
▁work	-937
stance	-938
ove	-939
▁co	-940
位于	-941
▁An	-942
▁form	-943
uary	-944
value	-945
nown	-946
olum	-947
ever	-948
▁been	-949
以后	-950
▁('	-951
ugh	-952
▁She	-953
ars	-954
今天	-955
评价	-956
py	-957
gan	-958
运动	-959
'),	-960
ae	-961
pect	-962
ister	-963
包括	-964
能力	-965
▁famil	-966
▁album	-967
直接	-968
ret	-969
▁writ	-970
▁States	-971
要求	-972
een	-973
ica	-974
信息	-975
▁she	-976
▁season	-977
▁National	-978
ely	-979
题主	-980
St	-981
▁int	-982
▁ns	-983
▁>	-984
表示	-985
记者	-986
▁add	-987
后来	-988
安全	-989
▁sup	-990
▁found	-991
air	-992
方式	-993
毕业	-994
usic	-995
▁over	-996
这样的	-997
人口	-998
▁att	-999
class	-1000
▁ra	-1001
▁`	-1002
其中	-1003
arr	-1004
iver	-1005
OR	-1006
ank	-1007
”。	-1008
▁sec	-1009
▁Par	-1010
ife	-1011
推荐	-1012
数据	-1013
体验	-1014
）。	-1015
error	-1016
文化	-1017
yst	-1018
▁Hist	-1019
的一个	-1020
def	-1021
当然	-1022
▁Br	-1023
born	-1024
ml	-1025
eries	-1026
别人	-1027
bl	-1028
答案	-1029
ute	-1030
政府	-1031
▁assert	-1032
▁@	-1033
aj	-1034
来的	-1035
▁file	-1036
▁prod	-1037
国际	-1038
▁except	-1039
结果	-1040
line	-1041
ident	-1042
关于	-1043
ins	-1044
地区	-1045
年的	-1046
▁sp	-1047
ages	-1048
ood	-1049
let	-1050
一次	-1051
▁Aust	-1052
是不是	-1053
reate	-1054
多少	-1055
fil	-1056
甚至	-1057
最近	-1058
由于	-1059
不好	-1060
注意	-1061
ps	-1062
文献	-1063
▁call	-1064
EN	-1065
ities	-1066
its	-1067
arn	-1068
AL	-1069
有些	-1070
的问题	-1071
ired	-1072
容易	-1073
价格	-1074
ai	-1075
微信	-1076
我想	-1077
▁sing	-1078
oug	-1079
db	-1080
ollow	-1081
round	-1082
▁end	-1083
▁True	-1084
aces	-1085
几个	-1086
▁arg	-1087
▁ed	-1088
▁into	-1089
那个	-1090
ures	-1091
opy	-1092
urrent	-1093
▁en	-1094
：“	-1095
每天	-1096
▁when	-1097
▁Joh	-1098
电视	-1099
▁do	-1100
项目	-1101
▁med	-1102
中心	-1103
__(	-1104
▁so	-1105
公里	-1106
完全	-1107
eter	-1108
存在	-1109
▁pass	-1110
▁direct	-1111
ache	-1112
上海	-1113
init	-1114
▁Se	-1115
▁Ad	-1116
emb	-1117
row	-1118
▁film	-1119
ym	-1120
▁we	-1121
▁used	-1122
不到	-1123
怎样	-1124
sp	-1125
▁World	-1126
行业	-1127
count	-1128
▁will	-1129
▁Ge	-1130
itt	-1131
uch	-1132
'):	-1133
根据	-1134
omen	-1135
ST	-1136
erman	-1137
dir	-1138
▁Is	-1139
ET	-1140
ader	-1141
▁type	-1142
▁Can	-1143
▁)	-1144
ument	-1145
▁For	-1146
提供	-1147
参考文献	-1148
▁South	-1149
▁may	-1150
pos	-1151
▁date	-1152
ponse	-1153
故事	-1154
国内	-1155
女生	-1156
医院	-1157
简单	-1158
enn	-1159
▁Pr	-1160
▁popul	-1161
append	-1162
▁where	-1163
内容	-1164
可是	-1165
▁line	-1166
erson	-1167
ampions	-1168
这个问题	-1169
这里	-1170
▁os	-1171
获得	-1172
▁Comm	-1173
参考资料	-1174
▁establ	-1175
icense	-1176
首先	-1177
▁Ph	-1178
▁key	-1179
那些	-1180
▁Ed	-1181
areer	-1182
代表	-1183
▁i	-1184
▁years	-1185
▁Tr	-1186
ments	-1187
"""	-1188
ape	-1189
▁man	-1190
que	-1191
▁field	-1192
以下	-1193
▁你	-1194
今年	-1195
分析	-1196
的小	-1197
▁only	-1198
。*	-1199
▁School	-1200
进入	-1201
治疗	-1202
父母	-1203
ser	-1204
▁record	-1205
任何	-1206
▁Or	-1207
才能	-1208
▁gr	-1209
台湾	-1210
ote	-1211
▁print	-1212
银行	-1213
cc	-1214
========	-1215
▁}	-1216
更多	-1217
▁Fran	-1218
ystem	-1219
method	-1220
▁X	-1221
。。	-1222
▁ent	-1223
writ	-1224
serv	-1225
▁False	-1226
amed	-1227
▁no	-1228
ased	-1229
经常	-1230
ived	-1231
▁opt	-1232
fl	-1233
也有	-1234
小时	-1235
人员	-1236
▁val	-1237
▁cent	-1238
除了	-1239
ected	-1240
log	-1241
SE	-1242
UT	-1243
AN	-1244
属于	-1245
▁Pol	-1246
左右	-1247
eneral	-1248
无法	-1249
▁trans	-1250
▁raise	-1251
同学	-1252
uff	-1253
▁const	-1254
org	-1255
################	-1256
▁death	-1257
atus	-1258
▁family	-1259
告诉	-1260
都有	-1261
ating	-1262
▁group	-1263
amb	-1264
essage	-1265
我觉得	-1266
([	-1267
都不	-1268
reg	-1269
▁Brit	-1270
一种	-1271
正常	-1272
overn	-1273
eed	-1274
▁known	-1275
user	-1276
▁Car	-1277
香港	-1278
ices	-1279
ered	-1280
time	-1281
各位	-1282
音乐	-1283
的大	-1284
以前	-1285
单位	-1286
经历	-1287
▁build	-1288
Test	-1289
比赛	-1290
▁{'	-1291
成功	-1292
▁run	-1293
rc	-1294
▁follow	-1295
atic	-1296
uss	-1297
Ch	-1298
ref	-1299
ango	-1300
▁more	-1301
object	-1302
能够	-1303
▁inter	-1304
▁stud	-1305
网络	-1306
▁Sp	-1307
etween	-1308
opt	-1309
▁rem	-1310
▁try	-1311
▁Bo	-1312
过程	-1313
环境	-1314
century	-1315
）*	-1316
请问	-1317
."	-1318
thon	-1319
▁song	-1320
uth	-1321
意思	-1322
htt	-1323
▁District	-1324
oss	-1325
ternational	-1326
这一	-1327
解决	-1328
▁start	-1329
只能	-1330
Field	-1331
ports	-1332
ible	-1333
▁function	-1334
ural	-1335
my	-1336
ract	-1337
我就	-1338
ese	-1339
用户	-1340
有点	-1341
▁Austral	-1342
理解	-1343
看看	-1344
▁art	-1345
ID	-1346
aint	-1347
作品	-1348
里面	-1349
back	-1350
ley	-1351
▁des	-1352
面积	-1353
co	-1354
有没有	-1355
功能	-1356
之间	-1357
efore	-1358
▁League	-1359
效果	-1360
yn	-1361
▁Living	-1362
准备	-1363
▁prov	-1364
une	-1365
▁you	-1366
AC	-1367
ampionship	-1368
False	-1369
继续	-1370
jango	-1371
▁number	-1372
info	-1373
▁use	-1374
unic	-1375
▁fl	-1376
到底	-1377
▁Gr	-1378
只要	-1379
▁films	-1380
以上	-1381
ription	-1382
▁second	-1383
参加	-1384
平方	-1385
因此	-1386
▁List	-1387
支持	-1388
▁cls	-1389
▁West	-1390
▁dev	-1391
▁Jan	-1392
最好	-1393
arget	-1394
就会	-1395
angu	-1396
网站	-1397
IC	-1398
知识	-1399
pert	-1400
汽车	-1401
ography	-1402
▁played	-1403
util	-1404
▁then	-1405
另外	-1406
普通	-1407
政治	-1408
▁state	-1409
▁dist	-1410
dict	-1411
说的	-1412
▁vill	-1413
heck	-1414
▁during	-1415
▁min	-1416
一个人	-1417
LE	-1418
▁German	-1419
uro	-1420
新闻	-1421
▁John	-1422
yl	-1423
行为	-1424
▁bl	-1425
▁Reg	-1426
():	-1427
▁dec	-1428
看待	-1429
▁qu	-1430
个月	-1431
▁Re	-1432
都会	-1433
etwork	-1434
ott	-1435
rel	-1436
▁between	-1437
▁ext	-1438
urch	-1439
Type	-1440
Pro	-1441
▁polit	-1442
ship	-1443
导致	-1444
▁##	-1445
itle	-1446
▁May	-1447
全国	-1448
sk	-1449
水平	-1450
怎么办	-1451
ream	-1452
af	-1453
基础	-1454
rough	-1455
▁At	-1456
".	-1457
ales	-1458
发布	-1459
▁school	-1460
▁['	-1461
lish	-1462
▁version	-1463
有的	-1464
empl	-1465
电话	-1466
自然	-1467
是一个	-1468
iter	-1469
平台	-1470
▁they	-1471
ron	-1472
我也	-1473
ollege	-1474
▁log	-1475
必须	-1476
里的	-1477
是在	-1478
me	-1479
ains	-1480
科学	-1481
▁Bl	-1482
经验	-1483
igned	-1484
gram	-1485
组织	-1486
分钟	-1487
▁为什么	-1488
▁there	-1489
第三	-1490
.__	-1491
本人	-1492
▁default	-1493
▁oper	-1494
▁People	-1495
外部	-1496
身体	-1497
心理	-1498
RE	-1499
▁open	-1500
▁made	-1501
工程	-1502
▁North	-1503
ne	-1504
▁All	-1505
帮助	-1506
▁Nov	-1507
Ex	-1508
▁License	-1509
▁count	-1510
▁later	-1511
embers	-1512
▁Ass	-1513
iam	-1514
家庭	-1515
ma	-1516
til	-1517
▁about	-1518
▁again	-1519
▁Canad	-1520
▁ph	-1521
具体	-1522
用的	-1523
并且	-1524
for	-1525
▁rep	-1526
ized	-1527
女性	-1528
ounc	-1529
▁object	-1530
ians	-1531
哈哈	-1532
ribute	-1533
▁Oly	-1534
struct	-1535
处理	-1536
品牌	-1537
介绍	-1538
不错	-1539
ength	-1540
考虑	-1541
努力	-1542
，“	-1543
▁Man	-1544
看了	-1545
▁series	-1546
▁three	-1547
img	-1548
▁British	-1549
▁Cent	-1550
▁Olymp	-1551
▁col	-1552
ular	-1553
ional	-1554
ner	-1555
▁Dec	-1556
ebr	-1557
instance	-1558
之一	-1559
other	-1560
▁+=	-1561
ats	-1562
▁English	-1563
▁Sw	-1564
医生	-1565
▁Co	-1566
ten	-1567
uction	-1568
▁War	-1569
ler	-1570
load	-1571
▁York	-1572
视频	-1573
得到	-1574
显示	-1575
适合	-1576
▁ear	-1577
use	-1578
dd	-1579
inc	-1580
▁cr	-1581
ays	-1582
电脑	-1583
标准	-1584
vir	-1585
健康	-1586
▁met	-1587
▁dep	-1588
elop	-1589
微博	-1590
text	-1591
▁located	-1592
▁del	-1593
决定	-1594
ilt	-1595
ology	-1596
▁Cal	-1597
▁State	-1598
▁Jul	-1599
▁path	-1600
▁population	-1601
ough	-1602
造成	-1603
行政	-1604
作用	-1605
接受	-1606
▁module	-1607
AS	-1608
group	-1609
ament	-1610
comm	-1611
▁cre	-1612
男人	-1613
ium	-1614
item	-1615
ify	-1616
不了	-1617
oo	-1618
产生	-1619
▁cons	-1620
state	-1621
▁became	-1622
▁Wh	-1623
让我	-1624
wards	-1625
ants	-1626
▁param	-1627
elev	-1628
下来	-1629
ric	-1630
等等	-1631
ware	-1632
ets	-1633
ious	-1634
por	-1635
车站	-1636
学院	-1637
▁orig	-1638
vel	-1639
ename	-1640
AP	-1641
ower	-1642
oad	-1643
default	-1644
▁len	-1645
开发	-1646
表现	-1647
事情	-1648
oman	-1649
config	-1650
eased	-1651
软件	-1652
empt	-1653
▁me	-1654
负责	-1655
ze	-1656
word	-1657
实际	-1658
▁hist	-1659
▁Res	-1660
交易	-1661
▁town	-1662
ger	-1663
。（	-1664
大概	-1665
▁village	-1666
ives	-1667
▁Gu	-1668
▁age	-1669
控制	-1670
▁History	-1671
▁won	-1672
▁any	-1673
The	-1674
ons	-1675
ugust	-1676
dis	-1677
ior	-1678
view	-1679
完成	-1680
ception	-1681
提高	-1682
▁through	-1683
条件	-1684
anguage	-1685
ified	-1686
ows	-1687
://	-1688
ni	-1689
▁elif	-1690
▁career	-1691
▁fin	-1692
▁mar	-1693
有限	-1694
▁bro	-1695
▁\	-1696
http	-1697
▁current	-1698
▁Championship	-1699
那种	-1700
string	-1701
▁music	-1702
突然	-1703
////	-1704
增加	-1705
▁publ	-1706
▁char	-1707
abel	-1708
▁refer	-1709
保护	-1710
ission	-1711
mb	-1712
真正	-1713
计划	-1714
point	-1715
uf	-1716
英语	-1717
num	-1718
并不	-1719
AM	-1720
elevision	-1721
▁most	-1722
ather	-1723
lor	-1724
一年	-1725
就可以	-1726
▁house	-1727
▁long	-1728
宝宝	-1729
oid	-1730
▁如何评价	-1731
ung	-1732
apan	-1733
right	-1734
▁If	-1735
出了	-1736
)(	-1737
建设	-1738
▁Rep	-1739
▁inv	-1740
给我	-1741
操作	-1742
价值	-1743
会有	-1744
urg	-1745
。“	-1746
职业	-1747
▁Fil	-1748
我不	-1749
肯定	-1750
文章	-1751
我在	-1752
▁area	-1753
Id	-1754
▁inst	-1755
出的	-1756
建筑	-1757
▁mov	-1758
fields	-1759
''	-1760
join	-1761
orks	-1762
系列	-1763
是一种	-1764
很好	-1765
▁August	-1766
▁Will	-1767
▁ter	-1768
▁before	-1769
ypes	-1770
rop	-1771
第一次	-1772
女人	-1773
start	-1774
遇到	-1775
▁some	-1776
▁named	-1777
size	-1778
▁City	-1779
分享	-1780
uilt	-1781
earch	-1782
ces	-1783
▁district	-1784
主义	-1785
法国	-1786
sub	-1787
考试	-1788
▁back	-1789
▁[]	-1790
ample	-1791
reat	-1792
yle	-1793
quired	-1794
大多	-1795
结婚	-1796
▁[],	-1797
ody	-1798
机会	-1799
▁four	-1800
unc	-1801
ve	-1802
对方	-1803
▁while	-1804
期间	-1805
'}	-1806
▁until	-1807
Con	-1808
▁feat	-1809
▁rece	-1810
▁Euro	-1811
照片	-1812
▁Not	-1813
金融	-1814
▁z	-1815
说明	-1816
▁De	-1817
的情况	-1818
play	-1819
▁including	-1820
with	-1821
odes	-1822
ipal	-1823
去了	-1824
reen	-1825
▁Te	-1826
format	-1827
妈妈	-1828
认识	-1829
▁head	-1830
thern	-1831
▁request	-1832
we	-1833
write	-1834
rem	-1835
ike	-1836
▁born	-1837
▁child	-1838
ober	-1839
来自	-1840
▁Rec	-1841
网上	-1842
wargs	-1843
▁compet	-1844
["	-1845
▁Med	-1846
ches	-1847
相信	-1848
▁describ	-1849
男生	-1850
类的	-1851
艺术	-1852
▁member	-1853
uk	-1854
▁former	-1855
类似	-1856
code	-1857
IS	-1858
▁user	-1859
rist	-1860
更新	-1861
的事情	-1862
▁htt	-1863
ana	-1864
▁high	-1865
plic	-1866
ociation	-1867
面的	-1868
▁species	-1869
生产	-1870
uit	-1871
ency	-1872
联系	-1873
ched	-1874
models	-1875
attr	-1876
如果你	-1877
是个	-1878
媒体	-1879
her	-1880
▁station	-1881
以为	-1882
办法	-1883
hold	-1884
▁Part	-1885
补充	-1886
怎样的	-1887
市镇	-1888
曾经	-1889
事件	-1890
实现	-1891
▁released	-1892
▁should	-1893
▁Oct	-1894
改变	-1895
晚上	-1896
是因为	-1897
▁Be	-1898
未来	-1899
▁January	-1900
很多人	-1901
精神	-1902
严重	-1903
不少	-1904
'],	-1905
▁Japan	-1906
aster	-1907
明显	-1908
家里	-1909
合作	-1910
].	-1911
ptember	-1912
消费	-1913
▁club	-1914
www	-1915
旅游	-1916
▁appe	-1917
越来	-1918
"(	-1919
arch	-1920
方向	-1921
就不	-1922
想要	-1923
在一起	-1924
时代	-1925
科技	-1926
▁vari	-1927
ham	-1928
计算	-1929
多的	-1930
质量	-1931
over	-1932
性的	-1933
评论	-1934
pected	-1935
过的	-1936
越来越	-1937
(),	-1938
RO	-1939
▁context	-1940
no	-1941
状态	-1942
▁Col	-1943
▁College	-1944
ino	-1945
▁Bar	-1946
确实	-1947
▁You	-1948
▁March	-1949
高中	-1950
▁than	-1951
icial	-1952
▁go	-1953
ried	-1954
▁cap	-1955
美元	-1956
哪里	-1957
好像	-1958
▁np	-1959
总是	-1960
联网	-1961
▁following	-1962
达到	-1963
空间	-1964
让你	-1965
成绩	-1966
子的	-1967
imes	-1968
英国	-1969
ital	-1970
部门	-1971
uck	-1972
ble	-1973
Get	-1974
▁local	-1975
▁event	-1976
ross	-1977
▁gener	-1978
pat	-1979
了一个	-1980
于是	-1981
▁him	-1982
▁arr	-1983
lp	-1984
如此	-1985
gr	-1986
len	-1987
▁After	-1988
▁And	-1989
▁October	-1990
超过	-1991
阅读	-1992
中华	-1993
rec	-1994
the	-1995
eters	-1996
每次	-1997
让人	-1998
raw	-1999
ivision	-2000
语言	-2001
感谢	-2002
交通	-2003
▁deaths	-2004
▁September	-2005
最高	-2006
ops	-2007
loc	-2008
机构	-2009
vent	-2010
▁old	-2011
▁His	-2012
▁Min	-2013
iven	-2014
AB	-2015
off	-2016
▁June	-2017
())	-2018
from	-2019
▁served	-2020
新的	-2021
▁High	-2022
句话	-2023
她的	-2024
▁established	-2025
bin	-2026
pril	-2027
▁July	-2028
传统	-2029
▁program	-2030
的地方	-2031
▁**	-2032
消息	-2033
ED	-2034
▁November	-2035
▁pos	-2036
ille	-2037
ummer	-2038
max	-2039
ids	-2040
eturn	-2041
变化	-2042
▁produc	-2043
▁se	-2044
▁dr	-2045
▁II	-2046
不可	-2047
▁Ac	-2048
根本	-2049
aining	-2050
找到	-2051
▁Am	-2052
plit	-2053
▁same	-2054
▁在	-2055
委员	-2056
有个	-2057
基金	-2058
▁Afr	-2059
ook	-2060
▁Bro	-2061
模式	-2062
md	-2063
意义	-2064
▁src	-2065
▁being	-2066
许多	-2067
met	-2068
人物	-2069
▁dict	-2070
▁Her	-2071
ird	-2072
▁->	-2073
感受	-2074
检查	-2075
▁well	-2076
▁women	-2077
of	-2078
inter	-2079
urs	-2080
Re	-2081
来源	-2082
site	-2083
▁main	-2084
年轻	-2085
正式	-2086
idd	-2087
ION	-2088
host	-2089
的东西	-2090
run	-2091
▁string	-2092
▁El	-2093
version	-2094
ideo	-2095
▁prof	-2096
▁mat	-2097
▁sm	-2098
rench	-2099
▁Nor	-2100
有关	-2101
所谓	-2102
▁Cup	-2103
一步	-2104
想到	-2105
▁December	-2106
▁am	-2107
▁based	-2108
点击	-2109
程度	-2110
来了	-2111
CT	-2112
也可以	-2113
▁own	-2114
▁King	-2115
哪个	-2116
▁method	-2117
uccess	-2118
▁output	-2119
ained	-2120
ags	-2121
request	-2122
▁April	-2123
▁would	-2124
具有	-2125
互联网	-2126
销售	-2127
几乎	-2128
最终	-2129
▁deb	-2130
多了	-2131
报道	-2132
然而	-2133
▁web	-2134
下的	-2135
节目	-2136
▁General	-2137
col	-2138
ene	-2139
好了	-2140
经过	-2141
政策	-2142
ailway	-2143
保持	-2144
.,	-2145
▁Europe	-2146
ett	-2147
vert	-2148
call	-2149
OS	-2150
目标	-2151
lex	-2152
▁Ital	-2153
资源	-2154
▁{}	-2155
任务	-2156
过去	-2157
链接	-2158
itions	-2159
坚持	-2160
▁mon	-2161
ism	-2162
."""	-2163
而是	-2164
dom	-2165
▁described	-2166
收入	-2167
清楚	-2168
▁life	-2169
▁config	-2170
DE	-2171
不仅	-2172
韩国	-2173
▁dif	-2174
▁Mo	-2175
▁such	-2176
▁La	-2177
现场	-2178
valid	-2179
"]	-2180
ution	-2181
成了	-2182
unicipal	-2183
一定要	-2184
客户	-2185
eff	-2186
▁Ab	-2187
index	-2188
大部分	-2189
是我	-2190
ords	-2191
值得	-2192
ared	-2193
▁city	-2194
▁sys	-2195
context	-2196
不用	-2197
有一个	-2198
▁against	-2199
▁published	-2200
▁read	-2201
ights	-2202
▁conn	-2203
制作	-2204
▁politic	-2205
下面	-2206
：<	-2207
▁French	-2208
有效	-2209
程序	-2210
▁contin	-2211
加入	-2212
Add	-2213
ink	-2214
ington	-2215
尤其	-2216
create	-2217
自由	-2218
de	-2219
业务	-2220
领导	-2221
ager	-2222
arm	-2223
▁International	-2224
习惯	-2225
▁called	-2226
da	-2227
▁Town	-2228
▁Ap	-2229
官方	-2230
ility	-2231
▁television	-2232
正在	-2233
不得	-2234
申请	-2235
图片	-2236
文件	-2237
ebruary	-2238
▁govern	-2239
ature	-2240
ford	-2241
▁Rob	-2242
▁Indian	-2243
不断	-2244
皮肤	-2245
lob	-2246
▁William	-2247
ines	-2248
▁each	-2249
▁single	-2250
ster	-2251
▁hand	-2252
ensus	-2253
ause	-2254
▁Association	-2255
中央	-2256
adem	-2257
ended	-2258
obj	-2259
ises	-2260
感情	-2261
▁如何看待	-2262
▁Off	-2263
毕竟	-2264
速度	-2265
▁br	-2266
ajor	-2267
▁represent	-2268
▁footballers	-2269
讨论	-2270
集团	-2271
无论	-2272
▁host	-2273
兴趣	-2274
stit	-2275
▁text	-2276
▁them	-2277
▁error	-2278
也会	-2279
ope	-2280
电子	-2281
perty	-2282
idge	-2283
实在	-2284
德国	-2285
ftware	-2286
▁There	-2287
'])	-2288
▁Air	-2289
result	-2290
都在	-2291
我说	-2292
▁Char	-2293
▁perform	-2294
名字	-2295
身边	-2296
lement	-2297
位置	-2298
▁system	-2299
重点	-2300
平方公里	-2301
▁House	-2302
Name	-2303
本身	-2304
▁near	-2305
ety	-2306
压力	-2307
▁organ	-2308
平时	-2309
▁held	-2310
ourse	-2311
▁Art	-2312
参与	-2313
女孩	-2314
▁match	-2315
▁place	-2316
需求	-2317
▁both	-2318
▁US	-2319
oric	-2320
▁doc	-2321
acks	-2322
return	-2323
ara	-2324
▁Russ	-2325
有多	-2326
▁February	-2327
愿意	-2328
▁fr	-2329
分别	-2330
!=	-2331
引起	-2332
全部	-2333
▁built	-2334
▁sett	-2335
ourn	-2336
▁Public	-2337
ete	-2338
ateg	-2339
成立	-2340
emplate	-2341
ython	-2342
utils	-2343
ane	-2344
idth	-2345
▁River	-2346
是不	-2347
▁Prov	-2348
new	-2349
ored	-2350
足球	-2351
resident	-2352
创业	-2353
来看	-2354
****	-2355
▁male	-2356
IL	-2357
▁last	-2358
▁colle	-2359
整个	-2360
med	-2361
规定	-2362
TER	-2363
▁develop	-2364
ival	-2365
自动	-2366
▁point	-2367
▁since	-2368
一天	-2369
▁sur	-2370
check	-2371
广告	-2372
人生	-2373
很难	-2374
iness	-2375
万元	-2376
conn	-2377
反应	-2378
解释	-2379
▁auth	-2380
免费	-2381
not	-2382
del	-2383
后的	-2384
ush	-2385
提升	-2386
交流	-2387
全球	-2388
ta	-2389
技能	-2390
▁received	-2391
的好	-2392
▁join	-2393
▁along	-2394
也没	-2395
IP	-2396
资金	-2397
▁arch	-2398
oding	-2399
▁sim	-2400
利用	-2401
拥有	-2402
按照	-2403
结构	-2404
OT	-2405
member	-2406
err	-2407
先生	-2408
...	-2409
领域	-2410
产业	-2411
rol	-2412
ided	-2413
▁Christ	-2414
ole	-2415
▁given	-2416
不想	-2417
现代	-2418
olic	-2419
▁public	-2420
face	-2421
Value	-2422
▁many	-2423
raft	-2424
Mod	-2425
人们	-2426
形成	-2427
▁bel	-2428
django	-2429
▁model	-2430
▁response	-2431
公众	-2432
UR	-2433
ured	-2434
▁port	-2435
ondon	-2436
parse	-2437
购买	-2438
▁Mc	-2439
CH	-2440
▁red	-2441
▁size	-2442
▁non	-2443
▁base	-2444
▁sk	-2445
法律	-2446
ience	-2447
增长	-2448
now	-2449
还要	-2450
idae	-2451
ries	-2452
▁Per	-2453
时期	-2454
▁!=	-2455
绝对	-2456
给你	-2457
ender	-2458
▁command	-2459
everal	-2460
▁la	-2461
node	-2462
衣服	-2463
core	-2464
▁include	-2465
连结	-2466
现在的	-2467
▁check	-2468
ING	-2469
``	-2470
ector	-2471
男朋友	-2472
结束	-2473
▁sign	-2474
应用	-2475
确定	-2476
auth	-2477
数学	-2478
不多	-2479
aut	-2480
ipp	-2481
关键	-2482
▁Comp	-2483
综合	-2484
▁dat	-2485
女朋友	-2486
ization	-2487
▁top	-2488
打开	-2489
几天	-2490
家的	-2491
有限公司	-2492
▁Har	-2493
▁>>	-2494
led	-2495
随着	-2496
be	-2497
part	-2498
患者	-2499
▁lead	-2500
▁fem	-2501
CO	-2502
责任	-2503
心里	-2504
sg	-2505
▁/	-2506
▁em	-2507
ibr	-2508
罗斯	-2509
cle	-2510
array	-2511
▁player	-2512
▁support	-2513
▁band	-2514
▁av	-2515
▁No	-2516
行的	-2517
html	-2518
Com	-2519
现实	-2520
下载	-2521
oph	-2522
▁Sec	-2523
当地	-2524
AD	-2525
▁gen	-2526
▁died	-2527
aul	-2528
区别	-2529
欢迎	-2530
IG	-2531
段时间	-2532
更加	-2533
Str	-2534
▁order	-2535
vers	-2536
▁AN	-2537
上了	-2538
▁commun	-2539
想法	-2540
ually	-2541
也就是	-2542
▁Test	-2543
我们的	-2544
体育	-2545
usiness	-2546
PS	-2547
采用	-2548
Cont	-2549
至于	-2550
就能	-2551
动物	-2552
至少	-2553
明白	-2554
▁game	-2555
设置	-2556
▁ann	-2557
▁http	-2558
▁Island	-2559
▁London	-2560
角度	-2561
现象	-2562
演员	-2563
▁Dav	-2564
相对	-2565
▁north	-2566
viron	-2567
长期	-2568
面对	-2569
他们的	-2570
ox	-2571
root	-2572
▁enc	-2573
▁make	-2574
yd	-2575
▁Roman	-2576
▁title	-2577
什么的	-2578
▁Dem	-2579
iforn	-2580
心的	-2581
最大	-2582
▁members	-2583
范围	-2584
itor	-2585
记得	-2586
大量	-2587
ha	-2588
▁help	-2589
tal	-2590
不管	-2591
▁Ant	-2592
独立	-2593
ources	-2594
出去	-2595
andom	-2596
umni	-2597
anged	-2598
loat	-2599
▁url	-2600
附近	-2601
▁range	-2602
▁eng	-2603
▁show	-2604
alt	-2605
外部连结	-2606
model	-2607
▁inc	-2608
作者	-2609
男子	-2610
▁item	-2611
▁company	-2612
formation	-2613
issing	-2614
成本	-2615
材料	-2616
params	-2617
ifornia	-2618
ling	-2619
接触	-2620
kwargs	-2621
▁distribut	-2622
是怎么	-2623
》，	-2624
色的	-2625
essional	-2626
ouncil	-2627
联合	-2628
network	-2629
阶段	-2630
%，	-2631
爱情	-2632
做的	-2633
去年	-2634
ones	-2635
ico	-2636
▁Party	-2637
▁present	-2638
风险	-2639
正确	-2640
▁law	-2641
na	-2642
ides	-2643
AG	-2644
▁Club	-2645
ucation	-2646
▁Football	-2647
▁project	-2648
建立	-2649
head	-2650
ald	-2651
ctions	-2652
Ar	-2653
本来	-2654
保险	-2655
出生	-2656
aced	-2657
▁cor	-2658
持续	-2659
▁id	-2660
▁several	-2661
利亚	-2662
Un	-2663
ison	-2664
ait	-2665
▁post	-2666
▁San	-2667
IM	-2668
大陆	-2669
▁Park	-2670
▁national	-2671
到的	-2672
reak	-2673
▁California	-2674
▁node	-2675
ised	-2676
rew	-2677
三个	-2678
以来	-2679
▁air	-2680
的时间	-2681
优秀	-2682
status	-2683
▁Sup	-2684
▁small	-2685
几年	-2686
LO	-2687
iet	-2688
spec	-2689
▁Mich	-2690
▁Year	-2691
▁prom	-2692
update	-2693
十分	-2694
Set	-2695
并没有	-2696
▁有哪些	-2697
▁south	-2698
().	-2699
会议	-2700
dat	-2701
调整	-2702
output	-2703
ota	-2704
▁car	-2705
)*	-2706
稳定	-2707
chn	-2708
观点	-2709
必要	-2710
asket	-2711
gs	-2712
wh	-2713
重新	-2714
并不是	-2715
▁now	-2716
二十	-2717
食物	-2718
也许	-2719
▁Bel	-2720
昨天	-2721
ux	-2722
Cl	-2723
▁Australia	-2724
trans	-2725
民族	-2726
列表	-2727
ensor	-2728
▁They	-2729
input	-2730
证明	-2731
▁&	-2732
etime	-2733
▁isinstance	-2734
”“	-2735
rip	-2736
高的	-2737
有了	-2738
place	-2739
▁Ang	-2740
即使	-2741
▁Australian	-2742
▁short	-2743
press	-2744
大多数	-2745
lib	-2746
Res	-2747
很大	-2748
empty	-2749
api	-2750
ering	-2751
背景	-2752
alk	-2753
eek	-2754
怎么样	-2755
UL	-2756
应该是	-2757
ules	-2758
不同的	-2759
epend	-2760
▁``	-2761
年代	-2762
▁code	-2763
▁Olympics	-2764
side	-2765
▁copy	-2766
alth	-2767
▁albums	-2768
▁games	-2769
▁args	-2770
欧洲	-2771
dev	-2772
也没有	-2773
理论	-2774
ilit	-2775
共和	-2776
好多	-2777
▁Summer	-2778
父亲	-2779
工资	-2780
isc	-2781
▁struct	-2782
print	-2783
恋爱	-2784
的不	-2785
,"	-2786
▁Ear	-2787
pen	-2788
称为	-2789
adio	-2790
幸福	-2791
▁Me	-2792
▁Phil	-2793
▁England	-2794
风格	-2795
设备	-2796
很有	-2797
aid	-2798
每个	-2799
高考	-2800
真实	-2801
咨询	-2802
专家	-2803
net	-2804
铁路	-2805
olumn	-2806
base	-2807
调查	-2808
client	-2809
小说	-2810
length	-2811
意识	-2812
▁Port	-2813
在我	-2814
burg	-2815
etail	-2816
方便	-2817
商业	-2818
平均	-2819
▁Games	-2820
不知	-2821
▁created	-2822
苹果	-2823
本科	-2824
hand	-2825
▁names	-2826
高度	-2827
冠军	-2828
▁Ag	-2829
json	-2830
目的	-2831
▁household	-2832
▁Sch	-2833
受到	-2834
战争	-2835
duct	-2836
广州	-2837
ift	-2838
hes	-2839
儿子	-2840
保证	-2841
"),	-2842
的朋友	-2843
针对	-2844
▁description	-2845
共同	-2846
▁charact	-2847
▁We	-2848
ero	-2849
comp	-2850
List	-2851
人家	-2852
说是	-2853
▁target	-2854
split	-2855
不太	-2856
▁>>>	-2857
================	-2858
有很多	-2859
▁men	-2860
roll	-2861
世纪	-2862
▁Canadian	-2863
▁|	-2864
▁Dr	-2865
▁mark	-2866
▁establish	-2867
相当	-2868
▁must	-2869
描述	-2870
ables	-2871
下去	-2872
▁Qu	-2873
▁debut	-2874
'\	-2875
arian	-2876
US	-2877
真是	-2878
回家	-2879
▁'''	-2880
apt	-2881
身份	-2882
因素	-2883
hem	-2884
adu	-2885
ances	-2886
▁Cor	-2887
akes	-2888
map	-2889
距离	-2890
安装	-2891
orge	-2892
工业	-2893
别的	-2894
▁Val	-2895
人类	-2896
omet	-2897
▁sel	-2898
oken	-2899
day	-2900
BA	-2901
▁How	-2902
iod	-2903
▁sl	-2904
小学	-2905
▁init	-2906
▁land	-2907
zh	-2908
gin	-2909
ENT	-2910
分手	-2911
▁differ	-2912
都没有	-2913
▁six	-2914
意见	-2915
▁election	-2916
action	-2917
▁home	-2918
artment	-2919
生命	-2920
▁success	-2921
▁service	-2922
ij	-2923
ama	-2924
网友	-2925
优势	-2926
▁person	-2927
即可	-2928
'.	-2929
▁Im	-2930
yr	-2931
的回答	-2932
vious	-2933
▁max	-2934
手术	-2935
说了	-2936
深圳	-2937
女儿	-2938
▁rest	-2939
erg	-2940
▁source	-2941
event	-2942
这么多	-2943
避免	-2944
三年	-2945
房子	-2946
▁returned	-2947
的原因	-2948
可能是	-2949
ony	-2950
▁So	-2951
▁final	-2952
ider	-2953
太多	-2954
FA	-2955
ful	-2956
asketball	-2957
▁Roy	-2958
sec	-2959
▁elect	-2960
era	-2961
训练	-2962
reet	-2963
▁children	-2964
▁need	-2965
itional	-2966
▁	-2967
▁early	-2968
▁partic	-2969
再次	-2970
俄罗斯	-2971
▁input	-2972
useum	-2973
过程中	-2974
ania	-2975
▁.	-2976
names	-2977
一家	-2978
▁Dep	-2979
ification	-2980
出来的	-2981
最大的	-2982
▁using	-2983
order	-2984
hel	-2985
宣传	-2986
回复	-2987
eder	-2988
ards	-2989
性格	-2990
uments	-2991
印度	-2992
'))	-2993
ka	-2994
iff	-2995
加上	-2996
▁values	-2997
▁Mal	-2998
igr	-2999
粉丝	-3000
生物	-3001
减少	-3002
参见	-3003
这次	-3004
）、	-3005
OP	-3006
就要	-3007
ken	-3008
oks	-3009
ias	-3010
▁Mon	-3011
成员	-3012
不起	-3013
两年	-3014
▁total	-3015
▁aut	-3016
下午	-3017
▁En	-3018
Ph	-3019
的感觉	-3020
担任	-3021
const	-3022
吃饭	-3023
智能	-3024
▁round	-3025
▁occ	-3026
▁East	-3027
▁left	-3028
名的	-3029
慢慢	-3030
tes	-3031
伤害	-3032
oth	-3033
▁required	-3034
例如	-3035
▁complet	-3036
都可以	-3037
▁exp	-3038
▁Str	-3039
就像	-3040
才是	-3041
Th	-3042
数量	-3043
File	-3044
百度	-3045
▁process	-3046
▁谢	-3047
▁results	-3048
亿元	-3049
:/	-3050
它的	-3051
▁does	-3052
omin	-3053
就算	-3054
创新	-3055
MP	-3056
上面	-3057
doc	-3058
▁design	-3059
培训	-3060
▁married	-3061
快速	-3062
▁Province	-3063
ya	-3064
ayer	-3065
ording	-3066
ither	-3067
▁disc	-3068
mark	-3069
主任	-3070
▁Flor	-3071
ially	-3072
BC	-3073
anish	-3074
TT	-3075
▁Cr	-3076
▁Music	-3077
▁Women	-3078
都能	-3079
玩家	-3080
▁nov	-3081
不如	-3082
▁Que	-3083
同样	-3084
▁building	-3085
变成	-3086
ends	-3087
表达	-3088
west	-3089
一切	-3090
为主	-3091
▁census	-3092
aff	-3093
移动	-3094
▁began	-3095
通常	-3096
AA	-3097
ours	-3098
中国的	-3099
经营	-3100
iev	-3101
似乎	-3102
爸爸	-3103
说话	-3104
支付	-3105
msg	-3106
▁ep	-3107
说我	-3108
oll	-3109
build	-3110
ning	-3111
不够	-3112
▁son	-3113
)，	-3114
▁India	-3115
ecut	-3116
态度	-3117
structor	-3118
pass	-3119
委员会	-3120
老公	-3121
▁Vir	-3122
((	-3123
unk	-3124
block	-3125
ogle	-3126
▁allow	-3127
概念	-3128
报告	-3129
ief	-3130
▁instance	-3131
有时候	-3132
离开	-3133
pace	-3134
▁written	-3135
过了	-3136
▁po	-3137
ump	-3138
▁ref	-3139
erb	-3140
！！	-3141
回来	-3142
aking	-3143
▁mult	-3144
indows	-3145
人士	-3146
角色	-3147
▁alumni	-3148
▁places	-3149
方案	-3150
annel	-3151
还能	-3152
ators	-3153
open	-3154
ease	-3155
之类的	-3156
规划	-3157
国外	-3158
主动	-3159
▁took	-3160
▁expected	-3161
提出	-3162
▁Mount	-3163
uel	-3164
结合	-3165
半年	-3166
message	-3167
另一	-3168
XX	-3169
会不会	-3170
▁history	-3171
sl	-3172
满足	-3173
response	-3174
ued	-3175
最佳	-3176
▁message	-3177
版本	-3178
ius	-3179
▁Canada	-3180
团队	-3181
长的	-3182
▁Mor	-3183
desc	-3184
详细	-3185
▁Govern	-3186
好好	-3187
做了	-3188
ourt	-3189
编辑	-3190
reek	-3191
han	-3192
动力	-3193
母亲	-3194
▁《	-3195
思想	-3196
▁Bi	-3197
imit	-3198
ension	-3199
共和国	-3200
还在	-3201
都要	-3202
▁website	-3203
攻击	-3204
tag	-3205
球队	-3206
▁Award	-3207
types	-3208
年龄	-3209
▁Division	-3210
</	-3211
▁Return	-3212
▁site	-3213
唯一	-3214
▁fail	-3215
女子	-3216
olv	-3217
恢复	-3218
声音	-3219
最好的	-3220
连续	-3221
工具	-3222
ttribute	-3223
ples	-3224
事实	-3225
ements	-3226
▁super	-3227
olume	-3228
娱乐	-3229
arge	-3230
装备	-3231
看着	-3232
看的	-3233
担心	-3234
进一步	-3235
▁Red	-3236
osed	-3237
也很	-3238
ala	-3239
pre	-3240
▁create	-3241
▁aver	-3242
眼睛	-3243
用于	-3244
英雄	-3245
永远	-3246
南京	-3247
公布	-3248
▁Trans	-3249
实验	-3250
HO	-3251
▁within	-3252
aving	-3253
放在	-3254
不上	-3255
都没	-3256
》（	-3257
型的	-3258
icle	-3259
cast	-3260
积极	-3261
onom	-3262
者的	-3263
)"	-3264
target	-3265
东北	-3266
开心	-3267
出版	-3268
dec	-3269
放弃	-3270
ference	-3271
超级	-3272
▁west	-3273
近日	-3274
uation	-3275
mar	-3276
▁stand	-3277
▁appro	-3278
和我	-3279
▁without	-3280
制造	-3281
是有	-3282
终于	-3283
▁Group	-3284
食品	-3285
▁Church	-3286
老板	-3287
的工作	-3288
NU	-3289
)-	-3290
ministr	-3291
▁century	-3292
经典	-3293
▁Robert	-3294
合适	-3295
▁Sm	-3296
▁da	-3297
ML	-3298
区域	-3299
fix	-3300
ANT	-3301
▁Film	-3302
▁missing	-3303
ida	-3304
process	-3305
办公	-3306
▁app	-3307
umb	-3308
认真	-3309
pack	-3310
▁Italian	-3311
▁fields	-3312
形式	-3313
疾病	-3314
tx	-3315
▁just	-3316
注册	-3317
erial	-3318
▁next	-3319
▁original	-3320
▁book	-3321
件事	-3322
HE	-3323
esh	-3324
▁Thom	-3325
健身	-3326
为何	-3327
gy	-3328
▁access	-3329
xx	-3330
▁fac	-3331
PO	-3332
ville	-3333
儿童	-3334
男友	-3335
▁best	-3336
ael	-3337
▁action	-3338
他说	-3339
中文	-3340
估计	-3341
▁Academ	-3342
一名	-3343
物理	-3344
▁Sing	-3345
内的	-3346
table	-3347
费用	-3348
过来	-3349
分布	-3350
▁author	-3351
测试	-3352
▁vis	-3353
记录	-3354
Address	-3355
你可以	-3356
男性	-3357
事业	-3358
运营	-3359
▁professional	-3360
▁Em	-3361
大神	-3362
content	-3363
ories	-3364
▁video	-3365
往往	-3366
Key	-3367
吸引	-3368
举行	-3369
的高	-3370
错误	-3371
从来	-3372
▁George	-3373
▁down	-3374
文学	-3375
▁James	-3376
上市	-3377
情绪	-3378
ocket	-3379
原来	-3380
▁moved	-3381
排名	-3382
ilitary	-3383
▁Cont	-3384
力量	-3385
tem	-3386
广东	-3387
▁side	-3388
升级	-3389
▁winn	-3390
她们	-3391
mon	-3392
家长	-3393
ailable	-3394
制度	-3395
如果是	-3396
▁municipal	-3397
股票	-3398
相比	-3399
][	-3400
ately	-3401
植物	-3402
改革	-3403
丰富	-3404
ips	-3405
ociety	-3406
ls	-3407
妹子	-3408
如下	-3409
一样的	-3410
尤其是	-3411
ique	-3412
思考	-3413
▁world	-3414
EX	-3415
规模	-3416
ocr	-3417
▁acc	-3418
难道	-3419
依然	-3420
▁Historic	-3421
eal	-3422
▁works	-3423
ging	-3424
Ob	-3425
▁common	-3426
▁Tur	-3427
▁these	-3428
力的	-3429
▁Sen	-3430
▁every	-3431
▁Ele	-3432
▁around	-3433
没什么	-3434
动作	-3435
riate	-3436
取得	-3437
读书	-3438
▁international	-3439
处于	-3440
cat	-3441
行动	-3442
uid	-3443
不懂	-3444
▁IN	-3445
▁squ	-3446
rix	-3447
shape	-3448
公众号	-3449
带来	-3450
▁Rev	-3451
eger	-3452
▁'\	-3453
英文	-3454
ivate	-3455
爱的	-3456
▁medal	-3457
运行	-3458
▁France	-3459
ached	-3460
atform	-3461
样子	-3462
raz	-3463
理由	-3464
飞机	-3465
▁major	-3466
▁like	-3467
▁Lou	-3468
电视剧	-3469
公开	-3470
刚刚	-3471
▁included	-3472
▁index	-3473
itch	-3474
▁Pen	-3475
fail	-3476
对我	-3477
oogle	-3478
asc	-3479
▁Championships	-3480
uration	-3481
▁European	-3482
邀请	-3483
执行	-3484
▁birth	-3485
cr	-3486
明星	-3487
liament	-3488
山东	-3489
漂亮	-3490
而言	-3491
全面	-3492
符合	-3493
thlet	-3494
公园	-3495
酒店	-3496
印象	-3497
主要是	-3498
姑娘	-3499
▁options	-3500
的新	-3501
月份	-3502
CC	-3503
la	-3504
▁dest	-3505
people	-3506
细节	-3507
▁pat	-3508
而已	-3509
ago	-3510
而不是	-3511
自身	-3512
教授	-3513
▁Arch	-3514
▁First	-3515
▁Mont	-3516
////////	-3517
▁award	-3518
就在	-3519
iddle	-3520
ocial	-3521
拒绝	-3522
双方	-3523
很少	-3524
还没	-3525
itect	-3526
ason	-3527
重要的	-3528
lobal	-3529
竞争	-3530
修改	-3531
▁Cast	-3532
▁full	-3533
▁谢邀	-3534
oice	-3535
▁Act	-3536
▁]	-3537
▁Nav	-3538
ead	-3539
▁average	-3540
了我	-3541
资产	-3542
ently	-3543
uture	-3544
toc	-3545
▁format	-3546
▁Council	-3547
一位	-3548
do	-3549
semb	-3550
▁Mex	-3551
used	-3552
十年	-3553
第四	-3554
Ip	-3555
▁Royal	-3556
ots	-3557
lines	-3558
物质	-3559
▁Paul	-3560
urther	-3561
▁African	-3562
变得	-3563
left	-3564
▁manag	-3565
▁msg	-3566
▁mag	-3567
合理	-3568
equal	-3569
ani	-3570
FF	-3571
▁Gl	-3572
卫生	-3573
联盟	-3574
▁appear	-3575
▁Alb	-3576
address	-3577
▁One	-3578
▁My	-3579
整体	-3580
喜欢的	-3581
医疗	-3582
eta	-3583
追求	-3584
▁America	-3585
提问	-3586
olution	-3587
什么样的	-3588
▁Rich	-3589
时的	-3590
动画	-3591
▁produced	-3592
你要	-3593
uffer	-3594
▁did	-3595
它们	-3596
ites	-3597
▁stat	-3598
Par	-3599
men	-3600
算是	-3601
.(	-3602
▁Ber	-3603
▁OR	-3604
▁songs	-3605
营养	-3606
cp	-3607
明确	-3608
家人	-3609
颜色	-3610
▁Sports	-3611
▁FC	-3612
ven	-3613
搭配	-3614
▁politician	-3615
options	-3616
▁language	-3617
▁models	-3618
开展	-3619
▁establishments	-3620
配置	-3621
说法	-3622
▁Records	-3623
tual	-3624
},	-3625
身上	-3626
核心	-3627
岁的	-3628
某些	-3629
link	-3630
股份	-3631
....	-3632
▁business	-3633
看法	-3634
中学	-3635
联赛	-3636
指导	-3637
▁bas	-3638
ground	-3639
adata	-3640
统计	-3641
▁either	-3642
▁Serv	-3643
Time	-3644
▁Instit	-3645
▁leg	-3646
ibrary	-3647
听说	-3648
▁five	-3649
有时	-3650
聊天	-3651
▁origin	-3652
itu	-3653
▁tem	-3654
症状	-3655
感到	-3656
MA	-3657
我现在	-3658
▁level	-3659
做到	-3660
▁third	-3661
机器	-3662
▁events	-3663
less	-3664
objects	-3665
omb	-3666
看过	-3667
imary	-3668
▁voc	-3669
▁Vill	-3670
UN	-3671
失败	-3672
开放	-3673
我要	-3674
看见	-3675
▁worked	-3676
当年	-3677
女友	-3678
小米	-3679
▁Mag	-3680
umm	-3681
摄影	-3682
太阳	-3683
%。	-3684
icens	-3685
都很	-3686
▁elected	-3687
DI	-3688
车辆	-3689
▁joined	-3690
▁engine	-3691
▁Ne	-3692
地的	-3693
▁table	-3694
更好	-3695
ston	-3696
ii	-3697
▁--	-3698
▁files	-3699
▁Dev	-3700
地址	-3701
▁living	-3702
win	-3703
发动	-3704
实施	-3705
▁appoint	-3706
例子	-3707
▁style	-3708
不住	-3709
反对	-3710
中医	-3711
▁journ	-3712
生的	-3713
直到	-3714
他在	-3715
成长	-3716
▁Sk	-3717
▁pack	-3718
items	-3719
不足	-3720
imal	-3721
▁different	-3722
ges	-3723
Al	-3724
aly	-3725
oper	-3726
▁government	-3727
▁David	-3728
▁Germany	-3729
std	-3730
▁exist	-3731
▁Central	-3732
▁Road	-3733
高速	-3734
那么多	-3735
买了	-3736
道路	-3737
title	-3738
▁Leg	-3739
▁django	-3740
plied	-3741
python	-3742
iles	-3743
iction	-3744
利益	-3745
我很	-3746
驾驶	-3747
也就	-3748
▁Cam	-3749
快乐	-3750
flow	-3751
values	-3752
员工	-3753
学会	-3754
alf	-3755
▁because	-3756
abr	-3757
▁due	-3758
▁Railway	-3759
歌曲	-3760
uint	-3761
ouble	-3762
启动	-3763
▁teams	-3764
outhern	-3765
在中国	-3766
作为一个	-3767
美的	-3768
astern	-3769
宣布	-3770
▁previous	-3771
ustom	-3772
▁Miss	-3773
xy	-3774
日常	-3775
uz	-3776
课程	-3777
发行	-3778
uple	-3779
此外	-3780
Int	-3781
便宜	-3782
那里	-3783
filename	-3784
帮忙	-3785
filter	-3786
死亡	-3787
一张	-3788
▁how	-3789
[:	-3790
少年	-3791
的主	-3792
Data	-3793
String	-3794
▁Awards	-3795
func	-3796
▁Virgin	-3797
这两	-3798
判断	-3799
还可以	-3800
server	-3801
sel	-3802
PE	-3803
小的	-3804
自我	-3805
actory	-3806
证券	-3807
▁Sl	-3808
ql	-3809
基本上	-3810
=[	-3811
▁row	-3812
work	-3813
▁Japanese	-3814
决赛	-3815
ming	-3816
▁water	-3817
老婆	-3818
▁Pal	-3819
做好	-3820
人民币	-3821
To	-3822
不在	-3823
▁Def	-3824
Ap	-3825
Case	-3826
化学	-3827
ockey	-3828
▁From	-3829
、《	-3830
看来	-3831
come	-3832
▁those	-3833
报名	-3834
▁Popul	-3835
降低	-3836
计算机	-3837
▁Stud	-3838
Base	-3839
一条	-3840
黄金	-3841
▁genus	-3842
书记	-3843
地铁	-3844
▁ne	-3845
ped	-3846
如今	-3847
sembly	-3848
▁China	-3849
CE	-3850
▁IS	-3851
ava	-3852
▁Hol	-3853
空气	-3854
uns	-3855
▁stations	-3856
！<	-3857
青年	-3858
▁Del	-3859
每个人	-3860
foo	-3861
year	-3862
▁position	-3863
▁general	-3864
下降	-3865
细胞	-3866
copy	-3867
方面的	-3868
搜索	-3869
(_	-3870
ui	-3871
tocol	-3872
▁see	-3873
▁Scott	-3874
▁sw	-3875
▁'%	-3876
我和	-3877
utf	-3878
居民	-3879
▁Career	-3880
今日	-3881
▁guit	-3882
农村	-3883
istry	-3884
天津	-3885
道理	-3886
化的	-3887
▁Found	-3888
ambda	-3889
▁document	-3890
▁body	-3891
▁Che	-3892
berg	-3893
最新	-3894
ugby	-3895
见过	-3896
▁OF	-3897
一个月	-3898
▁Mary	-3899
十二	-3900
▁Union	-3901
web	-3902
ending	-3903
language	-3904
比例	-3905
find	-3906
的情况下	-3907
资格	-3908
▁ip	-3909
ds	-3910
plication	-3911
资本	-3912
外国	-3913
拍摄	-3914
天天	-3915
人在	-3916
四川	-3917
▁Swed	-3918
▁By	-3919
ESS	-3920
▁Hen	-3921
▁started	-3922
sy	-3923
bar	-3924
▁page	-3925
▁Mart	-3926
的前	-3927
尼亚	-3928
ETTER	-3929
协会	-3930
周围	-3931
level	-3932
心情	-3933
▁case	-3934
每年	-3935
main	-3936
地产	-3937
▁Acc	-3938
淘宝	-3939
翻译	-3940
亚洲	-3941
密度	-3942
答主	-3943
rest	-3944
thers	-3945
oh	-3946
经理	-3947
▁community	-3948
aim	-3949
'}),	-3950
aur	-3951
怀孕	-3952
常见	-3953
▁software	-3954
▁LETTER	-3955
▁eff	-3956
source	-3957
▁directed	-3958
▁Olympic	-3959
从小	-3960
command	-3961
及时	-3962
地理	-3963
同事	-3964
麻烦	-3965
▁Er	-3966
安排	-3967
isl	-3968
▁coach	-3969
既然	-3970
ainer	-3971
商品	-3972
时尚	-3973
打算	-3974
Ipv	-3975
▁find	-3976
导演	-3977
osp	-3978
居然	-3979
Sh	-3980
struction	-3981
Char	-3982
那样	-3983
▁et	-3984
np	-3985
学的	-3986
▁("	-3987
第一个	-3988
▁Army	-3989
refix	-3990
*-	-3991
机场	-3992
II	-3993
▁WIT	-3994
法院	-3995
▁"\	-3996
ini	-3997
不喜欢	-3998
浙江	-3999
▁Zeal	-4000
stream	-4001
ormal	-4002
实习	-4003
▁qual	-4004
你会	-4005
真的是	-4006
重庆	-4007
的方法	-4008
▁league	-4009
box	-4010
DO	-4011
▁Zealand	-4012
})	-4013
中国人	-4014
对象	-4015
ught	-4016
acy	-4017
▁Spec	-4018
sett	-4019
特点	-4020
提示	-4021
vironment	-4022
ena	-4023
▁period	-4024
ams	-4025
ellow	-4026
公司的	-4027
尽量	-4028
▁Des	-4029
▁',	-4030
之外	-4031
代码	-4032
Not	-4033
名为	-4034
▁church	-4035
▁valid	-4036
文明	-4037
享受	-4038
文字	-4039
CP	-4040
▁km	-4041
还会	-4042
patriate	-4043
arning	-4044
装修	-4045
公共	-4046
ctor	-4047
option	-4048
▁role	-4049
睡觉	-4050
航空	-4051
ula	-4052
千万	-4053
说说	-4054
▁Carol	-4055
▁Ir	-4056
体系	-4057
abase	-4058
▁Register	-4059
▁During	-4060
▁Fl	-4061
但我	-4062
~~	-4063
CL	-4064
也不是	-4065
▁Township	-4066
bor	-4067
ney	-4068
可能会	-4069
Attribute	-4070
成熟	-4071
考研	-4072
▁distributed	-4073
▁pri	-4074
ola	-4075
TR	-4076
TV	-4077
的生活	-4078
▁camp	-4079
▁founded	-4080
etails	-4081
定义	-4082
nel	-4083
▁content	-4084
分为	-4085
简直	-4086
公安	-4087
博士	-4088
上班	-4089
球员	-4090
env	-4091
）<	-4092
ily	-4093
观察	-4094
▁Street	-4095
▁GNU	-4096
band	-4097
▁obj	-4098
总统	-4099
外部链接	-4100
▁father	-4101
思维	-4102
▁day	-4103
差不多	-4104
lands	-4105
▁status	-4106
区的	-4107
▁special	-4108
entry	-4109
Model	-4110
▁Mac	-4111
▁Pat	-4112
旅行	-4113
之间的	-4114
▁array	-4115
厉害	-4116
复杂	-4117
label	-4118
och	-4119
就有	-4120
的一种	-4121
也要	-4122
统一	-4123
▁offic	-4124
组成	-4125
痛苦	-4126
▁opened	-4127
ycl	-4128
▁country	-4129
不出	-4130
▁Sal	-4131
ivid	-4132
▁mock	-4133
▁Academy	-4134
面试	-4135
呵呵	-4136
困难	-4137
逐渐	-4138
▁right	-4139
SS	-4140
头发	-4141
▁Official	-4142
▁large	-4143
▁Tex	-4144
Object	-4145
观众	-4146
▁Members	-4147
izer	-4148
▁information	-4149
仍然	-4150
▁Met	-4151
ada	-4152
▁Value	-4153
close	-4154
ategory	-4155
研究生	-4156
ivil	-4157
下辖	-4158
▁Best	-4159
ively	-4160
ymb	-4161
even	-4162
files	-4163
▁pe	-4164
page	-4165
▁ec	-4166
▁py	-4167
特殊	-4168
anies	-4169
大利	-4170
rd	-4171
uce	-4172
年前	-4173
aper	-4174
会计	-4175
itz	-4176
有所	-4177
▁gradu	-4178
ona	-4179
的故事	-4180
办理	-4181
ebug	-4182
{'	-4183
随便	-4184
▁completed	-4185
▁Society	-4186
iers	-4187
ributes	-4188
不再	-4189
▁Hall	-4190
FL	-4191
年度	-4192
▁register	-4193
▁Democr	-4194
buf	-4195
Sc	-4196
▁view	-4197
aries	-4198
从事	-4199
技巧	-4200
▁unit	-4201
▁official	-4202
match	-4203
小编	-4204
大家都	-4205
▁larg	-4206
▁Fr	-4207
武器	-4208
指数	-4209
群众	-4210
趋势	-4211
▁mill	-4212
告诉我	-4213
ado	-4214
▁repl	-4215
实力	-4216
地位	-4217
shire	-4218
▁Open	-4219
▁parent	-4220
高手	-4221
特别是	-4222
▁Russian	-4223
▁如果	-4224
瞬间	-4225
▁Person	-4226
发表	-4227
sequ	-4228
贷款	-4229
▁break	-4230
所在	-4231
▁Notes	-4232
▁director	-4233
essor	-4234
▁CON	-4235
▁Places	-4236
给他	-4237
▁Wash	-4238
▁Li	-4239
inary	-4240
▁families	-4241
回事	-4242
公路	-4243
▁Franc	-4244
看起来	-4245
▁Law	-4246
就业	-4247
ases	-4248
abs	-4249
uan	-4250
或许	-4251
警察	-4252
举办	-4253
▁cond	-4254
赛季	-4255
▁root	-4256
一句	-4257
相同	-4258
▁Song	-4259
▁report	-4260
主席	-4261
▁Kingdom	-4262
ials	-4263
aises	-4264
海拔	-4265
限制	-4266
QQ	-4267
在于	-4268
ined	-4269
▁Fin	-4270
▁lo	-4271
exp	-4272
▁Don	-4273
project	-4274
▁Sam	-4275
cache	-4276
▁my	-4277
大众	-4278
▁-*-	-4279
▁Grand	-4280
child	-4281
▁even	-4282
▁guitar	-4283
了吗	-4284
▁basketball	-4285
所有的	-4286
ness	-4287
早上	-4288
逻辑	-4289
hi	-4290
心态	-4291
状况	-4292
keys	-4293
在这	-4294
减肥	-4295
加强	-4296
定位	-4297
首次	-4298
兄弟	-4299
▁Lat	-4300
或是	-4301
▁Hill	-4302
▁gu	-4303
在此	-4304
▁sports	-4305
ariable	-4306
down	-4307
▁Thomas	-4308
▁tw	-4309
ita	-4310
保障	-4311
成都	-4312
我国	-4313
▁region	-4314
MS	-4315
期的	-4316
vis	-4317
？”	-4318
amples	-4319
oto	-4320
▁Cath	-4321
▁Mod	-4322
token	-4323
urity	-4324
ictor	-4325
▁Republic	-4326
运动员	-4327
ca	-4328
马上	-4329
ander	-4330
添加	-4331
但是我	-4332
题目	-4333
营销	-4334
▁iss	-4335
▁character	-4336
▁Mad	-4337
大学生	-4338
rod	-4339
神经	-4340
ested	-4341
cons	-4342
xml	-4343
wood	-4344
中间	-4345
▁real	-4346
EST	-4347
▁available	-4348
Is	-4349
输入	-4350
定的	-4351
▁appointed	-4352
anges	-4353
教师	-4354
uman	-4355
ón	-4356
▁paint	-4357
cert	-4358
刺激	-4359
用了	-4360
▁flow	-4361
▁Copy	-4362
);	-4363
▁Virginia	-4364
南部	-4365
rian	-4366
query	-4367
▁product	-4368
mat	-4369
var	-4370
形象	-4371
▁When	-4372
▁Arg	-4373
数字	-4374
连接	-4375
▁der	-4376
专辑	-4377
饮食	-4378
session	-4379
河南	-4380
》、《	-4381
普遍	-4382
▁activ	-4383
image	-4384
▁TV	-4385
人民共和国	-4386
会在	-4387
爱好	-4388
▁track	-4389
怎样的体验	-4390
记忆	-4391
专业的	-4392
内部	-4393
▁Inter	-4394
▁Other	-4395
战略	-4396
dr	-4397
日子	-4398
▁Washington	-4399
▁footballer	-4400
婚姻	-4401
歌手	-4402
令人	-4403
集中	-4404
▁Lake	-4405
收益	-4406
市民	-4407
民国	-4408
▁q	-4409
▁Kar	-4410
培养	-4411
▁crick	-4412
▁Texas	-4413
写的	-4414
▁label	-4415
abor	-4416
▁Men	-4417
回到	-4418
▁Museum	-4419
的方式	-4420
化妆	-4421
内心	-4422
反正	-4423
至今	-4424
：*	-4425
▁Institute	-4426
推出	-4427
ways	-4428
你是	-4429
▁Sim	-4430
▁mid	-4431
▁Pan	-4432
▁Africa	-4433
parent	-4434
ella	-4435
ALL	-4436
ylv	-4437
mode	-4438
生平	-4439
知友	-4440
看完	-4441
▁could	-4442
战斗	-4443
book	-4444
keep	-4445
尝试	-4446
星期	-4447
▁ident	-4448
提醒	-4449
▁Mark	-4450
了个	-4451
ude	-4452
伙伴	-4453
reed	-4454
初中	-4455
他是	-4456
aine	-4457
aps	-4458
top	-4459
不行	-4460
Up	-4461
▁another	-4462
路上	-4463
ty	-4464
:`	-4465
▁railway	-4466
ulture	-4467
most	-4468
▁free	-4469
▁deg	-4470
带着	-4471
上午	-4472
）=	-4473
也能	-4474
提前	-4475
BS	-4476
sw	-4477
ean	-4478
iment	-4479
问题的	-4480
▁server	-4481
▁Charles	-4482
车型	-4483
eh	-4484
直播	-4485
dist	-4486
▁still	-4487
竟然	-4488
天气	-4489
▁uid	-4490
实际上	-4491
inst	-4492
了很多	-4493
消费者	-4494
CD	-4495
掌握	-4496
idget	-4497
known	-4498
想知道	-4499
▁Louis	-4500
人体	-4501
高级	-4502
ris	-4503
▁Base	-4504
病毒	-4505
▁ValueError	-4506
umber	-4507
如题	-4508
▁road	-4509
atives	-4510
board	-4511
mission	-4512
国民	-4513
在线	-4514
足够	-4515
老人	-4516
▁“	-4517
垃圾	-4518
上涨	-4519
昨日	-4520
▁times	-4521
蛋白	-4522
FI	-4523
PC	-4524
纪念	-4525
▁cou	-4526
▁sold	-4527
▁Di	-4528
pool	-4529
朝鲜	-4530
inese	-4531
▁option	-4532
后面	-4533
学名	-4534
自行	-4535
精彩	-4536
不对	-4537
不敢	-4538
难以	-4539
上去	-4540
ano	-4541
uri	-4542
促进	-4543
bit	-4544
ughter	-4545
▁currently	-4546
▁groups	-4547
小孩	-4548
改善	-4549
一边	-4550
▁your	-4551
|-	-4552
司机	-4553
ifier	-4554
行星	-4555
▁image	-4556
▁race	-4557
▁Company	-4558
estival	-4559
▁ge	-4560
▁announc	-4561
unt	-4562
理想	-4563
小时候	-4564
▁block	-4565
性能	-4566
街道	-4567
tain	-4568
究竟	-4569
▁To	-4570
ura	-4571
▁sol	-4572
合同	-4573
药物	-4574
)	-4575
赚钱	-4576
期待	-4577
▁中国	-4578
总结	-4579
行情	-4580
想问	-4581
occ	-4582
▁Copyright	-4583
char	-4584
ua	-4585
▁Kh	-4586
！”	-4587
更是	-4588
▁specific	-4589
▁Mass	-4590
大会	-4591
比较好	-4592
▁female	-4593
▁Black	-4594
▁However	-4595
df	-4596
istics	-4597
▁Inc	-4598
ja	-4599
承认	-4600
斯特	-4601
进去	-4602
的影响	-4603
类型	-4604
还没有	-4605
涉及	-4606
组合	-4607
▁length	-4608
▁listed	-4609
江苏	-4610
的那	-4611
剧情	-4612
中华人民共和国	-4613
用来	-4614
原油	-4615
▁With	-4616
gress	-4617
TestCase	-4618
razil	-4619
cmd	-4620
▁compos	-4621
search	-4622
▁Bay	-4623
话题	-4624
要是	-4625
▁Spanish	-4626
广场	-4627
▁signed	-4628
iple	-4629
此次	-4630
创造	-4631
andid	-4632
▁Georg	-4633
function	-4634
▁here	-4635
主题	-4636
OL	-4637
能量	-4638
mm	-4639
mock	-4640
能不能	-4641
▁Alex	-4642
aker	-4643
了吧	-4644
通知	-4645
民主	-4646
lean	-4647
▁Green	-4648
帮我	-4649
Tag	-4650
▁buildings	-4651
在这里	-4652
ki	-4653
ny	-4654
▁Cong	-4655
投入	-4656
▁seat	-4657
perties	-4658
▁President	-4659
两人	-4660
论坛	-4661
杭州	-4662
▁Ben	-4663
▁recorded	-4664
舒服	-4665
听到	-4666
两种	-4667
icles	-4668
▁Land	-4669
一开始	-4670
机关	-4671
葡萄	-4672
ological	-4673
rama	-4674
)))	-4675
公交	-4676
assertR	-4677
▁Western	-4678
公务	-4679
相关问题	-4680
encies	-4681
吃的	-4682
▁},	-4683
▁Assembly	-4684
▁Pe	-4685
我知道	-4686
从而	-4687
rect	-4688
cs	-4689
沟通	-4690
.*	-4691
▁parser	-4692
gen	-4693
constructor	-4694
SU	-4695
▁query	-4696
post	-4697
acing	-4698
规则	-4699
发动机	-4700
itive	-4701
让他	-4702
ora	-4703
▁Returns	-4704
不错的	-4705
也不会	-4706
ittee	-4707
犯罪	-4708
▁Kore	-4709
打造	-4710
pons	-4711
▁east	-4712
简单的	-4713
锻炼	-4714
airs	-4715
即将	-4716
has	-4717
▁token	-4718
)]	-4719
宿舍	-4720
see	-4721
oma	-4722
ilar	-4723
HT	-4724
Tr	-4725
float	-4726
▁tourn	-4727
密码	-4728
▁Foundation	-4729
current	-4730
轻松	-4731
debug	-4732
西班	-4733
▁di	-4734
sys	-4735
真正的	-4736
对比	-4737
协议	-4738
▁ANY	-4739
▁Build	-4740
▁Parliament	-4741
▁continue	-4742
▁Tour	-4743
分类	-4744
attle	-4745
医学	-4746
▁dom	-4747
▁db	-4748
▁Sant	-4749
▁Ill	-4750
ults	-4751
icro	-4752
年来	-4753
▁architect	-4754
patch	-4755
专门	-4756
离婚	-4757
za	-4758
Exception	-4759
突破	-4760
跟我	-4761
▁win	-4762
事故	-4763
ymbol	-4764
▁Ver	-4765
▁Asian	-4766
西班牙	-4767
恐怖	-4768
▁Early	-4769
意大利	-4770
▁lines	-4771
▁research	-4772
是指	-4773
▁young	-4774
********	-4775
▁poss	-4776
武汉	-4777
好看	-4778
朋友圈	-4779
urb	-4780
▁sep	-4781
车的	-4782
我自己	-4783
该怎么办	-4784
requ	-4785
情况下	-4786
▁Ter	-4787
▁mem	-4788
▁Brazil	-4789
▁Mel	-4790
▁Do	-4791
settings	-4792
▁went	-4793
▁address	-4794
ittle	-4795
名称	-4796
abled	-4797
其它	-4798
生活中	-4799
ogn	-4800
edy	-4801
▁various	-4802
irc	-4803
EC	-4804
想象	-4805
饰演	-4806
▁very	-4807
ically	-4808
发的	-4809
有趣	-4810
▁Commun	-4811
▁Mer	-4812
▁tag	-4813
劳动	-4814
教学	-4815
ios	-4816
Pl	-4817
留学	-4818
天的	-4819
青春	-4820
湖南	-4821
分割	-4822
地球	-4823
property	-4824
iga	-4825
▁Victor	-4826
农业	-4827
▁Gold	-4828
▁ins	-4829
孩子的	-4830
▁spe	-4831
indow	-4832
世界上	-4833
点的	-4834
级的	-4835
▁White	-4836
▁Department	-4837
▁Saint	-4838
▁Play	-4839
▁journal	-4840
▁Life	-4841
漫画	-4842
楼主	-4843
▁Hon	-4844
▁Great	-4845
▁Mat	-4846
▁According	-4847
别人的	-4848
DP	-4849
ced	-4850
味道	-4851
设施	-4852
我会	-4853
东方	-4854
。。。	-4855
Return	-4856
rey	-4857
FT	-4858
投资者	-4859
▁median	-4860
人都	-4861
▁load	-4862
▁Iran	-4863
▁filename	-4864
▁bar	-4865
是很	-4866
olf	-4867
干净	-4868
军事	-4869
void	-4870
预计	-4871
各个	-4872
ready	-4873
clude	-4874
▁president	-4875
教练	-4876
igan	-4877
▁Carolina	-4878
▁Sub	-4879
公告	-4880
指出	-4881
完美	-4882
delete	-4883
机械	-4884
一旦	-4885
▁Catholic	-4886
▁Its	-4887
assertTrue	-4888
▁hous	-4889
对你	-4890
gether	-4891
我都	-4892
aves	-4893
oted	-4894
▁income	-4895
▁together	-4896
▁points	-4897
▁Michael	-4898
梦想	-4899
不需要	-4900
ambig	-4901
▁conf	-4902
istan	-4903
配合	-4904
革命	-4905
▁Center	-4906
assertRaises	-4907
ATE	-4908
大师	-4909
家族	-4910
▁Tom	-4911
到现在	-4912
一场	-4913
笔记	-4914
▁administr	-4915
oud	-4916
header	-4917
咖啡	-4918
优惠	-4919
reland	-4920
Check	-4921
▁Cro	-4922
▁dem	-4923
意味	-4924
路线	-4925
北部	-4926
四年	-4927
利润	-4928
ought	-4929
utch	-4930
辈子	-4931
发挥	-4932
▁Prof	-4933
oreign	-4934
、“	-4935
▁Wil	-4936
uced	-4937
反而	-4938
unit	-4939
▁Web	-4940
▁vocals	-4941
的发展	-4942
你就	-4943
▁matches	-4944
▁aff	-4945
ili	-4946
▁transl	-4947
▁pres	-4948
报讯	-4949
▁Pri	-4950
深入	-4951
害怕	-4952
▁Mus	-4953
▁novel	-4954
though	-4955
▁Tor	-4956
阿尔	-4957
问答社区上	-4958
我家	-4959
没想到	-4960
prefix	-4961
ools	-4962
template	-4963
主持	-4964
orpor	-4965
质的	-4966
ores	-4967
adcast	-4968
plement	-4969
▁Polit	-4970
▁params	-4971
感染	-4972
FC	-4973
▁sy	-4974
主角	-4975
推进	-4976
ylvania	-4977
矛盾	-4978
想想	-4979
overed	-4980
本书	-4981
前的	-4982
创作	-4983
意的	-4984
ATIN	-4985
▁【	-4986
奥运	-4987
▁late	-4988
sup	-4989
真的很	-4990
了一下	-4991
▁client	-4992
肌肉	-4993
ARR	-4994
▁what	-4995
被人	-4996
▁trad	-4997
十一	-4998
▁Add	-4999
▁hon	-5000
美丽	-5001
所谓的	-5002
fin	-5003
▁Dan	-5004
▁features	-5005
▁office	-5006
特色	-5007
▁sil	-5008
Im	-5009
▁Chinese	-5010
更多的	-5011
▁led	-5012
pop	-5013
▁rock	-5014
ambiguation	-5015
▁怎么	-5016
thing	-5017
▁Education	-5018
▁yield	-5019
尊重	-5020
prov	-5021
一直在	-5022
尽管	-5023
azine	-5024
▁network	-5025
仅仅	-5026
▁particip	-5027
生态	-5028
▁wife	-5029
▁crit	-5030
挑战	-5031
▁changed	-5032
)),	-5033
ITY	-5034
▁Oh	-5035
很久	-5036
▁contains	-5037
和他	-5038
不算	-5039
▁playing	-5040
▁Up	-5041
推广	-5042
Node	-5043
什么时候	-5044
All	-5045
▁party	-5046
▁Angel	-5047
atal	-5048
死了	-5049
▁div	-5050
lock	-5051
▁power	-5052
orage	-5053
▁municipality	-5054
做法	-5055
▁chart	-5056
原则	-5057
最多	-5058
▁provided	-5059
ishing	-5060
ube	-5061
ination	-5062
没人	-5063
人口密度	-5064
偶尔	-5065
ether	-5066
董事	-5067
▁Frank	-5068
充分	-5069
rote	-5070
最低	-5071
ba	-5072
公务员	-5073
▁Ev	-5074
▁Rel	-5075
▁Medal	-5076
很快	-5077
▁Press	-5078
做出	-5079
行政区	-5080
local	-5081
差距	-5082
一只	-5083
道德	-5084
另一个	-5085
▁Super	-5086
oul	-5087
▁actress	-5088
大小	-5089
否则	-5090
▁Second	-5091
▁Out	-5092
接近	-5093
strip	-5094
PP	-5095
▁war	-5096
招聘	-5097
▁UK	-5098
\\	-5099
》*	-5100
▁politicians	-5101
该怎么	-5102
itted	-5103
▁example	-5104
强的	-5105
▁Key	-5106
纪录	-5107
▁Bill	-5108
ario	-5109
▁execut	-5110
▁education	-5111
危险	-5112
线的	-5113
度的	-5114
[-	-5115
五年	-5116
change	-5117
Amer	-5118
TH	-5119
▁course	-5120
Qu	-5121
▁companies	-5122
▁Bur	-5123
Call	-5124
人才	-5125
打电话	-5126
流行	-5127
▁ax	-5128
▁singles	-5129
云南	-5130
镜像	-5131
▁LATIN	-5132
▁Order	-5133
▁households	-5134
hib	-5135
ixed	-5136
▁Films	-5137
表演	-5138
大了	-5139
几次	-5140
图书	-5141
▁ren	-5142
import	-5143
body	-5144
mt	-5145
迅速	-5146
nsylvania	-5147
大家的	-5148
▁Peter	-5149
生素	-5150
长时间	-5151
▁entry	-5152
last	-5153
其次	-5154
玻璃	-5155
强烈	-5156
cel	-5157
多次	-5158
▁Francis	-5159
那就	-5160
随后	-5161
充满	-5162
蒙古	-5163
avel	-5164
赛事	-5165
小心	-5166
ye	-5167
queue	-5168
吐槽	-5169
日前	-5170
▁Populated	-5171
天然	-5172
不可能	-5173
▁Python	-5174
IO	-5175
男女	-5176
▁这	-5177
IB	-5178
▁associ	-5179
大约	-5180
▁above	-5181
部队	-5182
▁announced	-5183
An	-5184
▁Scot	-5185
两个人	-5186
▁mode	-5187
土地	-5188
▁daughter	-5189
chnology	-5190
▁abs	-5191
AME	-5192
▁artist	-5193
▁install	-5194
出国	-5195
icode	-5196
Phone	-5197
ranch	-5198
▁Paris	-5199
真心	-5200
留下	-5201
replace	-5202
aged	-5203
rial	-5204
ependent	-5205
▁political	-5206
收到	-5207
:"	-5208
完整	-5209
utes	-5210
Ind	-5211
▁Pennsylvania	-5212
▁seasons	-5213
多个	-5214
▁Int	-5215
disambiguation	-5216
紧张	-5217
▁Christian	-5218
▁writer	-5219
ih	-5220
感动	-5221
')])	-5222
是最	-5223
▁sent	-5224
▁ver	-5225
▁Track	-5226
related	-5227
练习	-5228
近期	-5229
熟悉	-5230
range	-5231
整理	-5232
自治	-5233
aud	-5234
iro	-5235
」，	-5236
体的	-5237
▁production	-5238
Text	-5239
▁Class	-5240
▁adv	-5241
▁Feder	-5242
▁Sur	-5243
在哪里	-5244
措施	-5245
元素	-5246
ires	-5247
▁Jose	-5248
He	-5249
宗教	-5250
▁Direct	-5251
ishop	-5252
').	-5253
▁mount	-5254
▁came	-5255
二维	-5256
▁release	-5257
支撑	-5258
SM	-5259
天下	-5260
编码	-5261
▁don	-5262
▁大	-5263
资讯	-5264
▁among	-5265
买的	-5266
▁Richard	-5267
virtual	-5268
▁Wales	-5269
Form	-5270
roid	-5271
▁有	-5272
妻子	-5273
▁stream	-5274
列车	-5275
ray	-5276
▁connection	-5277
ceed	-5278
miss	-5279
▁link	-5280
static	-5281
西亚	-5282
能源	-5283
atural	-5284
td	-5285
移民	-5286
atter	-5287
准确	-5288
▁location	-5289
▁Loc	-5290
imum	-5291
维护	-5292
也在	-5293
▁Court	-5294
▁小	-5295
Idx	-5296
▁equ	-5297
效率	-5298
省份	-5299
iding	-5300
休息	-5301
强调	-5302
不大	-5303
怀疑	-5304
包含	-5305
conf	-5306
讨厌	-5307
选手	-5308
','	-5309
斯坦	-5310
一定的	-5311
商务	-5312
pk	-5313
arter	-5314
女士	-5315
少女	-5316
▁added	-5317
abels	-5318
▁Athlet	-5319
开了	-5320
UTC	-5321
And	-5322
olved	-5323
▁individ	-5324
▁Lu	-5325
▁fun	-5326
EL	-5327
女孩子	-5328
金属	-5329
问我	-5330
ti	-5331
▁attr	-5332
▁working	-5333
po	-5334
周边	-5335
ARRANT	-5336
OK	-5337
▁'/	-5338
缺乏	-5339
一段	-5340
允许	-5341
硕士	-5342
▁WARRANT	-5343
解答	-5344
▁development	-5345
）：	-5346
exec	-5347
这就是	-5348
▁Henry	-5349
西方	-5350
▁turn	-5351
维持	-5352
▁element	-5353
来到	-5354
严格	-5355
水果	-5356
.)	-5357
▁popular	-5358
不然	-5359
▁'.	-5360
展示	-5361
▁account	-5362
▁ten	-5363
三十	-5364
关心	-5365
afe	-5366
采取	-5367
管辖	-5368
面前	-5369
▁section	-5370
asy	-5371
学历	-5372
客观	-5373
什么是	-5374
ansas	-5375
理财	-5376
amily	-5377
毫无	-5378
oz	-5379
城区	-5380
ria	-5381
position	-5382
▁way	-5383
两次	-5384
▁epis	-5385
素质	-5386
▁hold	-5387
四个	-5388
红色	-5389
▁writers	-5390
eck	-5391
posed	-5392
account	-5393
iana	-5394
aches	-5395
▁schools	-5396
▁Mexico	-5397
▁Free	-5398
在家	-5399
ribution	-5400
PL	-5401
当初	-5402
only	-5403
▁map	-5404
ients	-5405
上升	-5406
不一样	-5407
手段	-5408
▁includes	-5409
▁Municipal	-5410
▁having	-5411
▁Ireland	-5412
地图	-5413
罗马	-5414
nter	-5415
▁finished	-5416
我认为	-5417
？（	-5418
ulty	-5419
▁Mill	-5420
No	-5421
有着	-5422
mit	-5423
我妈	-5424
是由	-5425
width	-5426
▁division	-5427
觉得自己	-5428
多年	-5429
▁radio	-5430
▁appeared	-5431
▁Represent	-5432
识别	-5433
显得	-5434
▁Ol	-5435
rea	-5436
演唱	-5437
ennis	-5438
▁tournament	-5439
Serv	-5440
roy	-5441
才会	-5442
就行	-5443
email	-5444
▁educ	-5445
很好的	-5446
▁fact	-5447
alc	-5448
能否	-5449
意外	-5450
长得	-5451
▁logging	-5452
微信号	-5453
wan	-5454
对手	-5455
GB	-5456
新浪	-5457
同意	-5458
传播	-5459
西安	-5460
表面	-5461
通讯	-5462
▁ca	-5463
的我	-5464
指标	-5465
平衡	-5466
办公室	-5467
lear	-5468
彻底	-5469
ultural	-5470
atre	-5471
▁Navy	-5472
umer	-5473
简称	-5474
Config	-5475
TTP	-5476
km	-5477
▁candid	-5478
幼儿	-5479
ospital	-5480
ells	-5481
▁beh	-5482
Ptr	-5483
ged	-5484
上下	-5485
博物	-5486
出口	-5487
新华	-5488
美食	-5489
RA	-5490
rot	-5491
原文	-5492
推动	-5493
▁kwargs	-5494
cls	-5495
更好的	-5496
单纯	-5497
分子	-5498
ros	-5499
▁histor	-5500
▁Software	-5501
tim	-5502
▁plays	-5503
▁books	-5504
进行了	-5505
riend	-5506
CON	-5507
请教	-5508
▁specified	-5509
▁These	-5510
▁cert	-5511
osh	-5512
User	-5513
▁json	-5514
annot	-5515
istant	-5516
的答案	-5517
西部	-5518
▁control	-5519
">	-5520
oved	-5521
体现	-5522
ugin	-5523
民警	-5524
古代	-5525
镜像问题	-5526
color	-5527
pc	-5528
like	-5529
跑步	-5530
因为我	-5531
▁liter	-5532
奇怪	-5533
年间	-5534
ato	-5535
heast	-5536
uy	-5537
chema	-5538
kr	-5539
▁plant	-5540
信用	-5541
温度	-5542
inois	-5543
地点	-5544
pha	-5545
▁Smith	-5546
▁services	-5547
身材	-5548
国的	-5549
▁Sir	-5550
▁separ	-5551
Def	-5552
，<	-5553
一段时间	-5554
是怎样	-5555
量的	-5556
oe	-5557
essages	-5558
站在	-5559
不去	-5560
▁Camp	-5561
device	-5562
description	-5563
alls	-5564
▁reading	-5565
大型	-5566
男孩	-5567
▁Minister	-5568
feat	-5569
▁half	-5570
▁Biography	-5571
olumb	-5572
▁Florida	-5573
▁vers	-5574
你在	-5575
▁cmd	-5576
夏天	-5577
尴尬	-5578
Hand	-5579
track	-5580
要么	-5581
ention	-5582
福建	-5583
内存	-5584
bridge	-5585
自信	-5586
▁一	-5587
cm	-5588
屏幕	-5589
▁Arts	-5590
▁represented	-5591
该如何	-5592
▁want	-5593
▁Rh	-5594
电动	-5595
rail	-5596
，《	-5597
uster	-5598
知名	-5599
篮球	-5600
number	-5601
删除	-5602
前面	-5603
收费	-5604
这部	-5605
olk	-5606
选举	-5607
MM	-5608
expected	-5609
▁details	-5610
差异	-5611
转载	-5612
是如何	-5613
青岛	-5614
▁look	-5615
文物	-5616
看出	-5617
日在	-5618
警方	-5619
学家	-5620
▁),	-5621
first	-5622
重大	-5623
▁shape	-5624
二维码	-5625
校园	-5626
前往	-5627
人数	-5628
美女	-5629
解放	-5630
▁directory	-5631
▁nor	-5632
做过	-5633
▁requ	-5634
提到	-5635
aria	-5636
▁military	-5637
VER	-5638
ky	-5639
▁term	-5640
高校	-5641
real	-5642
▁write	-5643
▁Government	-5644
▁competed	-5645
▁Ma	-5646
▁laun	-5647
CS	-5648
▁Pak	-5649
▁stage	-5650
resh	-5651
iger	-5652
这类	-5653
▁''	-5654
▁units	-5655
rev	-5656
▁singer	-5657
在这个	-5658
eful	-5659
复制	-5660
州市	-5661
catIdx	-5662
第五	-5663
每日	-5664
course	-5665
规范	-5666
房地产	-5667
sign	-5668
寻找	-5669
▁sen	-5670
By	-5671
▁怎样	-5672
▁update	-5673
社交	-5674
▁competition	-5675
Request	-5676
▁take	-5677
律师	-5678
▁older	-5679
▁Go	-5680
▁Mil	-5681
姐姐	-5682
Man	-5683
看不	-5684
▁Illinois	-5685
本次	-5686
确认	-5687
属的	-5688
fg	-5689
子里	-5690
---	-5691
长按	-5692
▁tow	-5693
意味着	-5694
飞行	-5695
固定	-5696
成的	-5697
▁Science	-5698
学术	-5699
▁terms	-5700
俱乐	-5701
试试	-5702
▁review	-5703
iol	-5704
的就是	-5705
有人说	-5706
使得	-5707
上有	-5708
▁often	-5709
▁change	-5710
American	-5711
frame	-5712
admin	-5713
很容易	-5714
xim	-5715
拿到	-5716
污染	-5717
:	-5718
bas	-5719
干部	-5720
黑色	-5721
▁Atl	-5722
illed	-5723
▁cast	-5724
周末	-5725
gener	-5726
▁Irish	-5727
aa	-5728
mail	-5729
oute	-5730
相处	-5731
▁beg	-5732
vey	-5733
▁awarded	-5734
▁degree	-5735
▁sn	-5736
不久	-5737
的时	-5738
电池	-5739
就好	-5740
pg	-5741
▁million	-5742
查看	-5743
无人	-5744
Item	-5745
▁become	-5746
不说	-5747
▁story	-5748
▁few	-5749
ette	-5750
俱乐部	-5751
den	-5752
dep	-5753
pression	-5754
工作的	-5755
▁limit	-5756
ART	-5757
▁reserv	-5758
我对	-5759
▁SM	-5760
▁live	-5761
▁formed	-5762
resp	-5763
cond	-5764
防止	-5765
找不到	-5766
▁objects	-5767
living	-5768
感兴趣	-5769
很高	-5770
▁Italy	-5771
atory	-5772
gn	-5773
旁边	-5774
datetime	-5775
▁session	-5776
共产	-5777
基于	-5778
verse	-5779
pol	-5780
▁rev	-5781
基因	-5782
craft	-5783
▁Bul	-5784
▁"%	-5785
ising	-5786
都说	-5787
当中	-5788
▁said	-5789
身高	-5790
绿色	-5791
task	-5792
▁wrote	-5793
大一	-5794
Or	-5795
▁Line	-5796
属性	-5797
orporated	-5798
▁Ohio	-5799
active	-5800
▁Love	-5801
RL	-5802
策略	-5803
▁Rock	-5804
Class	-5805
▁teach	-5806
quote	-5807
案件	-5808
著名	-5809
lete	-5810
Out	-5811
河北	-5812
某个	-5813
ensity	-5814
考生	-5815
▁["	-5816
aken	-5817
三星	-5818
房价	-5819
ability	-5820
▁iter	-5821
▁regular	-5822
那时候	-5823
▁hockey	-5824
做什么	-5825
部长	-5826
并非	-5827
▁rank	-5828
ady	-5829
脂肪	-5830
东南	-5831
进士	-5832
▁Gall	-5833
▁property	-5834
是怎样的	-5835
script	-5836
▁Scottish	-5837
指点	-5838
Count	-5839
▁platform	-5840
unior	-5841
的重要	-5842
▁Station	-5843
▁consid	-5844
▁already	-5845
▁convert	-5846
是为了	-5847
▁Argent	-5848
▁initial	-5849
上课	-5850
志愿	-5851
(*	-5852
是对	-5853
少数	-5854
反映	-5855
国产	-5856
进步	-5857
生长	-5858
▁Chic	-5859
上一	-5860
机制	-5861
▁writing	-5862
走了	-5863
聪明	-5864
重视	-5865
▁pred	-5866
可爱	-5867
▁phys	-5868
气质	-5869
▁lost	-5870
互相	-5871
货币	-5872
▁exc	-5873
MO	-5874
ugg	-5875
▁Den	-5876
eel	-5877
原理	-5878
环保	-5879
房间	-5880
▁similar	-5881
▁Day	-5882
千米	-5883
▁Columb	-5884
白色	-5885
next	-5886
阳光	-5887
uter	-5888
▁exception	-5889
sing	-5890
她说	-5891
两天	-5892
敏感	-5893
frac	-5894
▁originally	-5895
▁gold	-5896
深刻	-5897
▁cover	-5898
bot	-5899
台北	-5900
iy	-5901
▁random	-5902
杂志	-5903
olumns	-5904
▁Prem	-5905
erry	-5906
Del	-5907
影视	-5908
有可能	-5909
▁whe	-5910
acket	-5911
otal	-5912
cre	-5913
▁pract	-5914
▁But	-5915
季度	-5916
▁indust	-5917
weight	-5918
登陆	-5919
make	-5920
体重	-5921
ests	-5922
▁incre	-5923
▁che	-5924
这款	-5925
▁header	-5926
▁areas	-5927
位于该	-5928
CharField	-5929
▁Los	-5930
信号	-5931
▁argument	-5932
▁eight	-5933
苏联	-5934
▁template	-5935
纠结	-5936
▁college	-5937
rad	-5938
▁cross	-5939
▁females	-5940
ensis	-5941
▁artists	-5942
取消	-5943
失去	-5944
论文	-5945
▁instead	-5946
服务器	-5947
违法	-5948
IV	-5949
apping	-5950
IA	-5951
▁river	-5952
一路	-5953
▁sort	-5954
施工	-5955
画面	-5956
send	-5957
阿里	-5958
等级	-5959
▁请问	-5960
▁settings	-5961
常常	-5962
设立	-5963
▁phot	-5964
▁drama	-5965
品质	-5966
华为	-5967
▁Sil	-5968
腾讯	-5969
你说	-5970
TY	-5971
▁union	-5972
Path	-5973
的确	-5974
得了	-5975
abric	-5976
博物馆	-5977
▁extra	-5978
inning	-5979
日电	-5980
这件事	-5981
▁black	-5982
wise	-5983
cho	-5984
在外	-5985
照顾	-5986
▁constitu	-5987
ocks	-5988
ao	-5989
▁sequ	-5990
▁surn	-5991
海军	-5992
password	-5993
月经	-5994
给予	-5995
ums	-5996
upt	-5997
▁Greek	-5998
▁bool	-5999
src	-6000
据说	-6001
azz	-6002
我个人	-6003
特征	-6004
单身	-6005
靠谱	-6006
加拿	-6007
浪费	-6008
循环	-6009
我有	-6010
connect	-6011
rypt	-6012
tests	-6013
智商	-6014
当天	-6015
一份	-6016
书籍	-6017
可以在	-6018
原本	-6019
检测	-6020
▁collection	-6021
维生素	-6022
service	-6023
▁不	-6024
▁Get	-6025
▁students	-6026
▁Conn	-6027
▁below	-6028
呼吸	-6029
▁contract	-6030
▁Northern	-6031
ternet	-6032
是要	-6033
其他的	-6034
海拔高度	-6035
pan	-6036
▁THE	-6037
”、“	-6038
不是很	-6039
otes	-6040
顺利	-6041
▁Run	-6042
营业	-6043
etch	-6044
太平	-6045
▁Festival	-6046
完善	-6047
地下	-6048
null	-6049
▁much	-6050
iance	-6051
▁Hel	-6052
▁bi	-6053
sm	-6054
▁Dutch	-6055
▁tim	-6056
对此	-6057
Log	-6058
▁void	-6059
适应	-6060
oviet	-6061
▁Geography	-6062
ein	-6063
▁step	-6064
oney	-6065
作业	-6066
相似	-6067
For	-6068
生涯	-6069
▁tests	-6070
暂时	-6071
▁Poland	-6072
ador	-6073
emic	-6074
新疆	-6075
▁expl	-6076
东京	-6077
智慧	-6078
共有	-6079
演出	-6080
将在	-6081
清华	-6082
权利	-6083
标题	-6084
依旧	-6085
▁feature	-6086
▁Further	-6087
仔细	-6088
▁Wis	-6089
政治人物	-6090
lower	-6091
工作人员	-6092
headers	-6093
NO	-6094
▁python	-6095
ership	-6096
▁active	-6097
登记	-6098
出身	-6099
▁],	-6100
exit	-6101
山西	-6102
女神	-6103
▁TO	-6104
上方	-6105
他人	-6106
▁Jew	-6107
给了	-6108
xb	-6109
▁Sel	-6110
同性	-6111
true	-6112
游客	-6113
▁dtype	-6114
ali	-6115
打击	-6116
损失	-6117
▁Vol	-6118
UP	-6119
具备	-6120
▁Oper	-6121
回去	-6122
声明	-6123
ably	-6124
是你	-6125
▁Type	-6126
播放	-6127
年轻人	-6128
而不	-6129
KE	-6130
▁datetime	-6131
财务	-6132
▁Democratic	-6133
是否有	-6134
icy	-6135
承担	-6136
成就	-6137
aign	-6138
吸收	-6139
ential	-6140
▁Service	-6141
xc	-6142
多数	-6143
▁Michigan	-6144
awa	-6145
rael	-6146
etts	-6147
▁Just	-6148
abit	-6149
▁close	-6150
DS	-6151
无数	-6152
▁Pre	-6153
的行为	-6154
▁du	-6155
Dev	-6156
show	-6157
▁introd	-6158
save	-6159
成交	-6160
名单	-6161
PI	-6162
▁Du	-6163
stand	-6164
▁Kn	-6165
一大	-6166
▁Sol	-6167
后期	-6168
▁Committee	-6169
渠道	-6170
]:	-6171
https	-6172
病人	-6173
会上	-6174
去世	-6175
截至	-6176
广泛	-6177
oon	-6178
后悔	-6179
就没	-6180
更有	-6181
第十	-6182
occer	-6183
ULT	-6184
▁gl	-6185
▁Minn	-6186
很大的	-6187
▁effect	-6188
▁filter	-6189
illa	-6190
▁color	-6191
ova	-6192
CA	-6193
回忆	-6194
iano	-6195
监督	-6196
南方	-6197
和你	-6198
▁coll	-6199
以上的	-6200
▁Av	-6201
▁parts	-6202
▁Rural	-6203
鼓励	-6204
unct	-6205
新加	-6206
▁shows	-6207
海外	-6208
场景	-6209
style	-6210
Reg	-6211
Opt	-6212
就没有	-6213
ersey	-6214
这句话	-6215
wait	-6216
如果有	-6217
众多	-6218
是中国	-6219
▁brother	-6220
抑郁	-6221
会被	-6222
睡眠	-6223
过于	-6224
设有	-6225
▁successful	-6226
▁expatriate	-6227
吃了	-6228
ply	-6229
之处	-6230
▁Und	-6231
面临	-6232
▁true	-6233
imple	-6234
贡献	-6235
预期	-6236
Ad	-6237
▁exper	-6238
future	-6239
store	-6240
上网	-6241
common	-6242
har	-6243
基地	-6244
群体	-6245
xf	-6246
▁attribute	-6247
ping	-6248
pring	-6249
▁private	-6250
）。=	-6251
▁Spain	-6252
分割线	-6253
生日	-6254
这位	-6255
▁structures	-6256
▁display	-6257
irm	-6258
▁square	-6259
委会	-6260
ima	-6261
▁designed	-6262
哈哈哈哈	-6263
▁Belg	-6264
▁Az	-6265
进口	-6266
achus	-6267
岗位	-6268
▁elections	-6269
▁Russia	-6270
eno	-6271
▁attended	-6272
有一天	-6273
▁mer	-6274
▁err	-6275
夫妻	-6276
的主要	-6277
▁End	-6278
▁Ur	-6279
线路	-6280
负责人	-6281
▁Ann	-6282
▁week	-6283
▁box	-6284
明天	-6285
一件	-6286
▁Since	-6287
▁via	-6288
idents	-6289
玩的	-6290
▁Joseph	-6291
▁Dist	-6292
同比	-6293
告诉你	-6294
广大	-6295
消失	-6296
mult	-6297
▁passed	-6298
▁Swedish	-6299
安徽	-6300
奶奶	-6301
anda	-6302
一线	-6303
bose	-6304
go	-6305
的一个市镇	-6306
▁script	-6307
行政区划	-6308
难度	-6309
▁Top	-6310
这种情况	-6311
在一个	-6312
▁Team	-6313
的学生	-6314
▁compil	-6315
req	-6316
成分	-6317
eve	-6318
▁low	-6319
。《	-6320
well	-6321
▁Sun	-6322
人工	-6323
ummary	-6324
Ac	-6325
哥哥	-6326
完了	-6327
▁listing	-6328
bool	-6329
在美国	-6330
ilities	-6331
▁good	-6332
▁Final	-6333
▁device	-6334
icenses	-6335
▁Sar	-6336
remove	-6337
▁running	-6338
巴西	-6339
一周	-6340
反复	-6341
ati	-6342
▁implement	-6343
▁task	-6344
代理	-6345
您的	-6346
采访	-6347
▁mus	-6348
我不知道	-6349
▁Chicago	-6350
出门	-6351
引发	-6352
eting	-6353
▁Congress	-6354
历史上	-6355
Dict	-6356
实践	-6357
日报	-6358
▁prot	-6359
应当	-6360
的作用	-6361
Message	-6362
新加坡	-6363
有些人	-6364
▁Back	-6365
parser	-6366
▁..	-6367
区为	-6368
▁Aff	-6369
▁Radio	-6370
▁Disc	-6371
▁days	-6372
▁flo	-6373
):	-6374
中共	-6375
▁mot	-6376
▁considered	-6377
▁vol	-6378
的意思	-6379
销量	-6380
ira	-6381
hash	-6382
镜头	-6383
fn	-6384
供应	-6385
▁connect	-6386
预防	-6387
主教	-6388
走势	-6389
监管	-6390
nb	-6391
lad	-6392
mac	-6393
交往	-6394
小区	-6395
)=	-6396
author	-6397
▁Hot	-6398
我还	-6399
以外	-6400
空调	-6401
rid	-6402
有钱	-6403
纽约	-6404
▁info	-6405
第二天	-6406
▁performed	-6407
▁mean	-6408
▁System	-6409
将军	-6410
ko	-6411
oder	-6412
穆斯	-6413
等待	-6414
指挥	-6415
▁headers	-6416
"|	-6417
▁manager	-6418
encode	-6419
情感	-6420
将会	-6421
广播	-6422
合并	-6423
step	-6424
▁Ham	-6425
▁suff	-6426
气的	-6427
流程	-6428
▁Exception	-6429
ILITY	-6430
▁rights	-6431
▁Research	-6432
生存	-6433
achusetts	-6434
学位	-6435
ensions	-6436
阿拉	-6437
porary	-6438
▁jud	-6439
农民	-6440
▁indic	-6441
"))	-6442
相应	-6443
短期	-6444
演技	-6445
MB	-6446
▁tit	-6447
long	-6448
为什么要	-6449
Conn	-6450
下了	-6451
的心	-6452
▁championship	-6453
夏季	-6454
节奏	-6455
我去	-6456
▁Norw	-6457
稍微	-6458
ufact	-6459
▁parse	-6460
▁developed	-6461
物种	-6462
▁grow	-6463
QU	-6464
▁center	-6465
我还是	-6466
aya	-6467
ursor	-6468
让我们	-6469
设计师	-6470
周期	-6471
APP	-6472
Ns	-6473
孤独	-6474
▁Results	-6475
增强	-6476
帝国	-6477
Group	-6478
跟着	-6479
式的	-6480
破坏	-6481
积分	-6482
rt	-6483
▁Ser	-6484
有一种	-6485
爸妈	-6486
想起	-6487
美术	-6488
ims	-6489
女的	-6490
明明	-6491
块钱	-6492
出现了	-6493
缺点	-6494
▁Mos	-6495
height	-6496
connection	-6497
▁Ans	-6498
▁Kent	-6499
见到	-6500
是谁	-6501
NA	-6502
location	-6503
CR	-6504
股市	-6505
▁Polish	-6506
没有任何	-6507
▁tuple	-6508
▁float	-6509
召开	-6510
必然	-6511
每一个	-6512
▁FOR	-6513
▁Commission	-6514
▁首先	-6515
ME	-6516
▁Tim	-6517
会员	-6518
▁tree	-6519
克兰	-6520
希望能	-6521
Info	-6522
错了	-6523
yes	-6524
▁var	-6525
urt	-6526
flu	-6527
▁studied	-6528
江西	-6529
下方	-6530
SP	-6531
ibility	-6532
▁Massachusetts	-6533
曝光	-6534
硬件	-6535
▁once	-6536
忘记	-6537
▁resource	-6538
▁stop	-6539
居住	-6540
混合	-6541
▁Fort	-6542
下跌	-6543
▁Dis	-6544
舒适	-6545
氧化	-6546
们的	-6547
▁...	-6548
说不	-6549
present	-6550
▁selected	-6551
原创	-6552
好吗	-6553
▁column	-6554
驱动	-6555
成年	-6556
好友	-6557
missions	-6558
发展的	-6559
▁returns	-6560
给她	-6561
贸易	-6562
在北京	-6563
hood	-6564
相互	-6565
▁Old	-6566
▁thread	-6567
停止	-6568
▁ship	-6569
▁bound	-6570
的外	-6571
加拿大	-6572
sv	-6573
▁media	-6574
上学	-6575
格兰	-6576
utton	-6577
compile	-6578
▁fig	-6579
imited	-6580
Pr	-6581
短信	-6582
物品	-6583
('/	-6584
▁contribut	-6585
一部	-6586
造型	-6587
▁edition	-6588
胜利	-6589
基督	-6590
服装	-6591
▁>=	-6592
prot	-6593
Mac	-6594
VS	-6595
。-	-6596
规律	-6597
road	-6598
掉了	-6599
▁Region	-6600
ampion	-6601
▁addition	-6602
相关的	-6603
就开始	-6604
一款	-6605
`.	-6606
eline	-6607
▁Albert	-6608
oming	-6609
dest	-6610
本质	-6611
始终	-6612
鸡蛋	-6613
▁Soviet	-6614
kw	-6615
▁goal	-6616
▁belong	-6617
▁recogn	-6618
无论是	-6619
cy	-6620
日起	-6621
文艺	-6622
stop	-6623
flags	-6624
电视台	-6625
▁medalists	-6626
对待	-6627
▁Mah	-6628
研发	-6629
编码为	-6630
穆斯林	-6631
iate	-6632
入门	-6633
repr	-6634
带来的	-6635
让自己	-6636
▁univers	-6637
▁Form	-6638
军队	-6639
▁,	-6640
▁Gir	-6641
最初	-6642
的水	-6643
奇葩	-6644
","	-6645
城镇	-6646
)):	-6647
uty	-6648
▁cho	-6649
▁light	-6650
eval	-6651
一句话	-6652
NAME	-6653
▁Fred	-6654
{}	-6655
escription	-6656
HOUT	-6657
▁transfer	-6658
▁Wood	-6659
etter	-6660
深度	-6661
此时	-6662
多少钱	-6663
▁Israel	-6664
万人	-6665
'].	-6666
思路	-6667
▁studio	-6668
没有什么	-6669
上述	-6670
微信公众号	-6671
重复	-6672
ila	-6673
受伤	-6674
多久	-6675
"],	-6676
▁prefix	-6677
▁great	-6678
▁关于	-6679
传说	-6680
越南	-6681
▁Time	-6682
▁clubs	-6683
作家	-6684
一本	-6685
employ	-6686
▁sem	-6687
Dec	-6688
▁native	-6689
gt	-6690
▁density	-6691
▁Carl	-6692
东部	-6693
浏览	-6694
福利	-6695
分数	-6696
实话	-6697
=(	-6698
▁actors	-6699
metadata	-6700
ji	-6701
好处	-6702
和平	-6703
去看	-6704
▁Engine	-6705
比亚	-6706
▁Field	-6707
agement	-6708
建于	-6709
ipl	-6710
▁WITHOUT	-6711
看到了	-6712
理念	-6713
正常的	-6714
停车	-6715
不开	-6716
▁cur	-6717
的中	-6718
▁uses	-6719
cn	-6720
▁Two	-6721
En	-6722
merc	-6723
在大	-6724
▁lambda	-6725
▁arguments	-6726
▁types	-6727
▁cred	-6728
)/	-6729
▁search	-6730
运输	-6731
txt	-6732
▁ground	-6733
ring	-6734
▁tensor	-6735
ades	-6736
号线	-6737
va	-6738
▁Series	-6739
consin	-6740
▁Step	-6741
hest	-6742
bert	-6743
idence	-6744
▁Pac	-6745
热情	-6746
iPhone	-6747
▁township	-6748
生活的	-6749
财政	-6750
含有	-6751
或者说	-6752
门口	-6753
▁MP	-6754
▁Portug	-6755
▁Sy	-6756
表情	-6757
random	-6758
及其	-6759
uts	-6760
▁related	-6761
皇帝	-6762
搜狐	-6763
融资	-6764
中有	-6765
发达	-6766
展开	-6767
kl	-6768
▁Major	-6769
爆炸	-6770
]]	-6771
▁{"	-6772
▁Rem	-6773
还不	-6774
ionary	-6775
年人口	-6776
轨道	-6777
iences	-6778
信仰	-6779
满意	-6780
;":	-6781
颜值	-6782
收藏	-6783
本地	-6784
▁job	-6785
仪式	-6786
based	-6787
▁primary	-6788
▁AND	-6789
▁Bas	-6790
can	-6791
▁producer	-6792
usband	-6793
电商	-6794
我只	-6795
▁rugby	-6796
图书馆	-6797
methods	-6798
会的	-6799
system	-6800
Val	-6801
uto	-6802
获取	-6803
▁actor	-6804
结论	-6805
预测	-6806
▁Ox	-6807
确保	-6808
丈夫	-6809
▁Tel	-6810
▁study	-6811
ometry	-6812
明朝	-6813
一代	-6814
很不	-6815
Fl	-6816
一致	-6817
derr	-6818
▁draw	-6819
▁Georgia	-6820
▁featured	-6821
貌似	-6822
的一部分	-6823
的那种	-6824
stack	-6825
立即	-6826
▁implied	-6827
column	-6828
湖北	-6829
一生	-6830
但在	-6831
retary	-6832
▁dig	-6833
▁ID	-6834
orse	-6835
博客	-6836
▁Ob	-6837
imate	-6838
的关系	-6839
不动	-6840
emet	-6841
▁Brown	-6842
则是	-6843
▁Martin	-6844
▁attempt	-6845
▁consist	-6846
西北	-6847
meta	-6848
▁making	-6849
去做	-6850
▁closed	-6851
▁across	-6852
▁ran	-6853
事务	-6854
身份证	-6855
谢谢大家	-6856
看到的	-6857
当你	-6858
▁env	-6859
▁Wisconsin	-6860
当前	-6861
三角	-6862
把我	-6863
rapper	-6864
usr	-6865
(,	-6866
石油	-6867
小组	-6868
raww	-6869
给大家	-6870
▁https	-6871
State	-6872
▁typ	-6873
▁Post	-6874
为人	-6875
New	-6876
▁Big	-6877
▁nomin	-6878
▁CD	-6879
影片	-6880
想着	-6881
▁training	-6882
▁mother	-6883
▁Jersey	-6884
▁Personal	-6885
rawwidth	-6886
分布于	-6887
Inter	-6888
之下	-6889
改为	-6890
TO	-6891
antic	-6892
血管	-6893
▁express	-6894
亲戚	-6895
Element	-6896
▁Cross	-6897
access	-6898
cks	-6899
人大	-6900
hr	-6901
在哪	-6902
▁Tax	-6903
ublican	-6904
网页	-6905
aceae	-6906
(-	-6907
▁space	-6908
starts	-6909
▁Mem	-6910
之中	-6911
▁dir	-6912
大学的	-6913
▁Develop	-6914
佛教	-6915
忘了	-6916
▁Ros	-6917
rees	-6918
啊啊	-6919
现金	-6920
伊斯	-6921
各地	-6922
异常	-6923
并在	-6924
扩展	-6925
▁less	-6926
言论	-6927
edia	-6928
▁ir	-6929
礼物	-6930
egr	-6931
▁Edward	-6932
▁approxim	-6933
关闭	-6934
▁custom	-6935
分泌	-6936
工厂	-6937
克斯	-6938
宇宙	-6939
▁Scotland	-6940
▁Set	-6941
职位	-6942
▁Over	-6943
▁proble	-6944
尔省	-6945
假设	-6946
domain	-6947
▁Islands	-6948
fs	-6949
障碍	-6950
writer	-6951
的人生	-6952
开启	-6953
学者	-6954
▁accept	-6955
display	-6956
▁bass	-6957
('\	-6958
ned	-6959
▁std	-6960
house	-6961
机的	-6962
▁central	-6963
▁Ep	-6964
可怕	-6965
▁Bor	-6966
时刻	-6967
ume	-6968
感冒	-6969
riptor	-6970
▁Note	-6971
licenses	-6972
宠物	-6973
▁Long	-6974
学科	-6975
▁failed	-6976
NS	-6977
留言	-6978
▁Hung	-6979
改造	-6980
人是	-6981
案例	-6982
greg	-6983
的老	-6984
部位	-6985
▁category	-6986
ouch	-6987
购物	-6988
禁止	-6989
辛苦	-6990
歧视	-6991
▁Wal	-6992
正确的	-6993
▁Valley	-6994
股东	-6995
des	-6996
爷爷	-6997
sort	-6998
▁Cap	-6999
先后	-7000
弟弟	-7001
uite	-7002
▁Writ	-7003
onia	-7004
▁multiple	-7005
lan	-7006
▁Social	-7007
陕西	-7008
一看	-7009
▁performance	-7010
▁runs	-7011
来讲	-7012
itan	-7013
=%	-7014
独特	-7015
▁Bang	-7016
▁Emp	-7017
▁Squ	-7018
ker	-7019
blank	-7020
mond	-7021
▁continued	-7022
▁structure	-7023
餐厅	-7024
▁board	-7025
▁environment	-7026
▁retired	-7027
室友	-7028
exists	-7029
我没	-7030
强大	-7031
新手	-7032
▁construction	-7033
妹妹	-7034
保留	-7035
凌晨	-7036
彼此	-7037
不良	-7038
orig	-7039
icket	-7040
对话	-7041
的样子	-7042
egian	-7043
▁editor	-7044
di	-7045
Fr	-7046
打印	-7047
product	-7048
ensive	-7049
火车	-7050
是这样的	-7051
zech	-7052
▁rule	-7053
自主	-7054
▁however	-7055
span	-7056
▁important	-7057
可以用	-7058
的有	-7059
resource	-7060
▁Bal	-7061
见面	-7062
gor	-7063
世界杯	-7064
▁Ro	-7065
▁replaced	-7066
在网上	-7067
ić	-7068
▁Journ	-7069
From	-7070
(?	-7071
▁Tro	-7072
年纪	-7073
oring	-7074
面上	-7075
百分	-7076
istic	-7077
ayout	-7078
▁Tw	-7079
orial	-7080
▁Ukr	-7081
▁neigh	-7082
牛奶	-7083
》？	-7084
多种	-7085
差别	-7086
achine	-7087
北方	-7088
adium	-7089
本文	-7090
▁Star	-7091
或者是	-7092
工艺	-7093
食用	-7094
频道	-7095
TypeId	-7096
▁Att	-7097
修复	-7098
▁Route	-7099
Run	-7100
的同时	-7101
▁characters	-7102
▁Television	-7103
百万	-7104
▁coding	-7105
Size	-7106
▁southern	-7107
esota	-7108
收购	-7109
▁northern	-7110
接壤	-7111
▁mater	-7112
oded	-7113
编程	-7114
nodes	-7115
反弹	-7116
▁social	-7117
标志	-7118
利于	-7119
的美	-7120
西南	-7121
互动	-7122
队伍	-7123
不高	-7124
了解到	-7125
▁containing	-7126
▁Representatives	-7127
ands	-7128
▁global	-7129
也好	-7130
▁Southern	-7131
中午	-7132
BU	-7133
ski	-7134
▁Sportspeople	-7135
▁pay	-7136
生气	-7137
pute	-7138
▁Angeles	-7139
direct	-7140
依据	-7141
▁Board	-7142
不爱	-7143
▁largest	-7144
又是	-7145
▁Bank	-7146
流量	-7147
▁Columbia	-7148
▁Place	-7149
▁poet	-7150
▁tour	-7151
lient	-7152
▁scored	-7153
▁FI	-7154
人和	-7155
ien	-7156
冬天	-7157
overs	-7158
总之	-7159
疑问	-7160
请大家	-7161
▁frame	-7162
覆盖	-7163
的可能	-7164
清晰	-7165
▁Gar	-7166
第二次	-7167
IES	-7168
oston	-7169
情节	-7170
▁husband	-7171
▁Some	-7172
align	-7173
生意	-7174
▁Gal	-7175
▁particular	-7176
”（	-7177
yan	-7178
▁CO	-7179
mi	-7180
注释	-7181
一套	-7182
财富	-7183
pi	-7184
呈现	-7185
同年	-7186
▁others	-7187
批评	-7188
▁func	-7189
就可以了	-7190
PR	-7191
希望大家	-7192
动漫	-7193
▁ign	-7194
itors	-7195
一片	-7196
加速	-7197
找个	-7198
叫做	-7199
ABILITY	-7200
olute	-7201
的同学	-7202
▁operation	-7203
▁Jud	-7204
色彩	-7205
那是	-7206
bytes	-7207
证据	-7208
oke	-7209
Event	-7210
▁master	-7211
公主	-7212
可见	-7213
BO	-7214
有一些	-7215
ORT	-7216
▁Ke	-7217
保存	-7218
▁least	-7219
最早	-7220
大幅	-7221
▁utf	-7222
复习	-7223
Sub	-7224
有一次	-7225
的发	-7226
▁park	-7227
的内容	-7228
▁races	-7229
▁cache	-7230
changed	-7231
▁Minnesota	-7232
older	-7233
级别	-7234
div	-7235
▁Notable	-7236
▁fire	-7237
▁instit	-7238
▁SMALL	-7239
▁econom	-7240
一部分	-7241
▁Norwegian	-7242
startswith	-7243
sky	-7244
▁graph	-7245
▁Asia	-7246
将于	-7247
ATION	-7248
我一直	-7249
bound	-7250
森林	-7251
回应	-7252
国务	-7253
蔬菜	-7254
▁Legisl	-7255
适当	-7256
▁channel	-7257
End	-7258
▁newsp	-7259
表明	-7260
冲突	-7261
▁pur	-7262
▁domain	-7263
CK	-7264
select	-7265
▁Library	-7266
"):	-7267
QL	-7268
▁Creek	-7269
给自己	-7270
oms	-7271
▁flag	-7272
▁tri	-7273
正规	-7274
程序员	-7275
▁graduated	-7276
保养	-7277
把握	-7278
_(	-7279
高三	-7280
疯狂	-7281
dtype	-7282
▁encoding	-7283
Handler	-7284
▁further	-7285
▁leading	-7286
哪怕	-7287
坐在	-7288
突出	-7289
▁Young	-7290
》。	-7291
爆发	-7292
▁Bib	-7293
chiev	-7294
▁Lee	-7295
新鲜	-7296
欣赏	-7297
▁seven	-7298
这两个	-7299
的产品	-7300
"-	-7301
个小时	-7302
▁owned	-7303
olicy	-7304
好奇	-7305
▁Born	-7306
▁associated	-7307
////////////////	-7308
iation	-7309
只会	-7310
ority	-7311
Response	-7312
yg	-7313
毕业后	-7314
函数	-7315
邮箱	-7316
乌克兰	-7317
客服	-7318
▁broadcast	-7319
：《	-7320
edd	-7321
各自	-7322
▁screen	-7323
乡镇	-7324
高端	-7325
▁'-	-7326
全新	-7327
体会	-7328
的基础	-7329
护肤	-7330
认可	-7331
▁Haw	-7332
avor	-7333
这也是	-7334
SI	-7335
纷纷	-7336
▁errors	-7337
想去	-7338
hist	-7339
xe	-7340
设定	-7341
官网	-7342
消化	-7343
▁profile	-7344
而在	-7345
位于该国	-7346
分配	-7347
▁Mr	-7348
可惜	-7349
付出	-7350
对应	-7351
required	-7352
▁word	-7353
疼痛	-7354
的车	-7355
bs	-7356
▁white	-7357
non	-7358
▁Czech	-7359
▁forms	-7360
出来了	-7361
▁Kong	-7362
无聊	-7363
线上	-7364
AV	-7365
男的	-7366
早期	-7367
转移	-7368
owa	-7369
ello	-7370
▁supported	-7371
▁det	-7372
▁password	-7373
zer	-7374
事实上	-7375
▁因为	-7376
让她	-7377
号码	-7378
▁Military	-7379
说过	-7380
的机会	-7381
手续	-7382
有过	-7383
透露	-7384
最重要	-7385
装饰	-7386
▁library	-7387
Col	-7388
▁Baseball	-7389
▁Republican	-7390
▁'__	-7391
系统的	-7392
等于	-7393
哲学	-7394
铁道	-7395
▁Jim	-7396
udd	-7397
fit	-7398
毕业生	-7399
？！	-7400
izations	-7401
先进	-7402
长大	-7403
uses	-7404
游泳	-7405
国家的	-7406
▁island	-7407
收获	-7408
▁store	-7409
超市	-7410
积累	-7411
lers	-7412
▁comedy	-7413
出现在	-7414
▁previously	-7415
register	-7416
▁ice	-7417
war	-7418
dated	-7419
里面的	-7420
estamp	-7421
大战	-7422
证书	-7423
眼镜	-7424
▁never	-7425
同一	-7426
DB	-7427
▁Prod	-7428
▁foc	-7429
▁invest	-7430
▁claim	-7431
▁capt	-7432
室内	-7433
▁Auth	-7434
临床	-7435
una	-7436
▁ill	-7437
▁loss	-7438
Module	-7439
▁Songs	-7440
清洁	-7441
收录	-7442
Trans	-7443
FOR	-7444
▁subject	-7445
几十	-7446
▁professor	-7447
xd	-7448
except	-7449
话说	-7450
是位于	-7451
太大	-7452
好吧	-7453
colle	-7454
bury	-7455
亿美元	-7456
生理	-7457
sn	-7458
,'	-7459
▁Conserv	-7460
▁Transport	-7461
就被	-7462
实用	-7463
▁Pet	-7464
]))	-7465
username	-7466
▁logger	-7467
▁Liber	-7468
ela	-7469
Device	-7470
iki	-7471
▁deter	-7472
随时	-7473
IE	-7474
▁serial	-7475
团体	-7476
SC	-7477
出发	-7478
▁getattr	-7479
是可以	-7480
▁Bir	-7481
穿着	-7482
第六	-7483
年底	-7484
▁Album	-7485
ancer	-7486
ves	-7487
等地	-7488
版的	-7489
刚开始	-7490
▁county	-7491
大区	-7492
Writ	-7493
▁String	-7494
平方米	-7495
▁Book	-7496
年至	-7497
▁Ha	-7498
▁Census	-7499
▁faculty	-7500
▁unicode	-7501
ulation	-7502
▁sample	-7503
临时	-7504
省级	-7505
▁从	-7506
▁Hong	-7507
你看	-7508
anth	-7509
各类	-7510
主流	-7511
子女	-7512
phy	-7513
」？	-7514
▁sound	-7515
▁descent	-7516
澳大	-7517
假如	-7518
▁Chart	-7519
些什么	-7520
的三	-7521
element	-7522
án	-7523
正好	-7524
idden	-7525
将来	-7526
▁Ram	-7527
▁always	-7528
'},	-7529
拍照	-7530
工程师	-7531
肚子	-7532
ATA	-7533
hent	-7534
▁front	-7535
日的	-7536
▁Arab	-7537
▁parameters	-7538
硬盘	-7539
▁clos	-7540
comple	-7541
的说	-7542
▁empty	-7543
%(	-7544
▁put	-7545
▁variable	-7546
▁Po	-7547
stra	-7548
graph	-7549
groups	-7550
▁construct	-7551
▁Conference	-7552
ters	-7553
addr	-7554
厦门	-7555
▁standard	-7556
我就是	-7557
▁这个	-7558
▁fourth	-7559
养老	-7560
迷茫	-7561
官员	-7562
isters	-7563
的数据	-7564
▁Head	-7565
▁Villages	-7566
URL	-7567
合法	-7568
背后	-7569
日至	-7570
大大	-7571
之所以	-7572
之类	-7573
科研	-7574
▁means	-7575
▁surname	-7576
wa	-7577
格式	-7578
▁$	-7579
共产党	-7580
贝尔	-7581
步骤	-7582
TE	-7583
▁Coast	-7584
的吗	-7585
倾向	-7586
FO	-7587
▁offer	-7588
▁comment	-7589
走向	-7590
arnings	-7591
▁followed	-7592
▁magazine	-7593
形态	-7594
得很	-7595
▁Boston	-7596
有多少	-7597
我已经	-7598
elling	-7599
']['	-7600
cos	-7601
调节	-7602
首歌	-7603
bec	-7604
观念	-7605
▁Ont	-7606
的孩子	-7607
▁vir	-7608
▁double	-7609
volume	-7610
')],	-7611
都市	-7612
我没有	-7613
录取	-7614
tree	-7615
都知道	-7616
使用的	-7617
二手	-7618
▁Bob	-7619
▁dictionary	-7620
LI	-7621
case	-7622
温暖	-7623
▁volume	-7624
icks	-7625
On	-7626
leg	-7627
bers	-7628
ems	-7629
▁diff	-7630
ifi	-7631
不容易	-7632
卫视	-7633
派出	-7634
▁taken	-7635
▁force	-7636
found	-7637
▁senior	-7638
百姓	-7639
TA	-7640
DR	-7641
▁Serb	-7642
▁pattern	-7643
▁records	-7644
Date	-7645
的书	-7646
顺便	-7647
简介	-7648
isher	-7649
▁termin	-7650
▁现在	-7651
集体	-7652
发生了	-7653
震荡	-7654
▁Bol	-7655
对外	-7656
开车	-7657
hire	-7658
)[	-7659
▁away	-7660
▁Color	-7661
▁Check	-7662
▁province	-7663
良好的	-7664
▁possible	-7665
说什么	-7666
llib	-7667
sets	-7668
三国	-7669
timeout	-7670
引导	-7671
▁bank	-7672
▁raised	-7673
▁Most	-7674
到达	-7675
是从	-7676
低于	-7677
偶像	-7678
房屋	-7679
暑假	-7680
▁Colle	-7681
anced	-7682
在国内	-7683
花钱	-7684
为止	-7685
蓝色	-7686
▁Name	-7687
strong	-7688
results	-7689
▁Param	-7690
▁Jac	-7691
的一些	-7692
尔斯	-7693
▁star	-7694
▁Governor	-7695
消防	-7696
▁subsequ	-7697
▁aircraft	-7698
ques	-7699
▁Force	-7700
的价格	-7701
mand	-7702
▁collect	-7703
运动会	-7704
kg	-7705
omatic	-7706
aka	-7707
负责管辖	-7708
▁database	-7709
参赛	-7710
▁Kr	-7711
利率	-7712
你不	-7713
对自己	-7714
魅力	-7715
clus	-7716
没事	-7717
install	-7718
enced	-7719
▁tf	-7720
pose	-7721
stat	-7722
▁additional	-7723
的人口	-7724
▁Civil	-7725
自学	-7726
▁modern	-7727
({	-7728
处的	-7729
全世界	-7730
▁CAP	-7731
zone	-7732
平方千米	-7733
anch	-7734
自杀	-7735
▁conduct	-7736
强化	-7737
▁train	-7738
赶紧	-7739
血液	-7740
无限	-7741
errors	-7742
没有人	-7743
▁fund	-7744
账号	-7745
查询	-7746
itude	-7747
嫌疑	-7748
▁Pacific	-7749
澳大利亚	-7750
actions	-7751
信任	-7752
gl	-7753
oub	-7754
▁Oxford	-7755
▁<=	-7756
▁Tem	-7757
hol	-7758
▁serving	-7759
▁combin	-7760
长沙	-7761
陌生	-7762
总体	-7763
篇文章	-7764
']:	-7765
那天	-7766
ABLE	-7767
exception	-7768
▁winning	-7769
▁esc	-7770
可以说	-7771
▁DE	-7772
leep	-7773
sed	-7774
信心	-7775
pare	-7776
希腊	-7777
买房	-7778
VD	-7779
头的	-7780
大致	-7781
市场的	-7782
跟他	-7783
接着	-7784
是一名	-7785
一块	-7786
▁keep	-7787
泰国	-7788
ión	-7789
rich	-7790
月台	-7791
▁baseball	-7792
▁complex	-7793
▁lower	-7794
十八	-7795
▁academ	-7796
性价	-7797
所以我	-7798
上来	-7799
接下来	-7800
▁vict	-7801
老年	-7802
出租	-7803
学校的	-7804
▁Victoria	-7805
▁Winter	-7806
邮件	-7807
▁finally	-7808
人群	-7809
概率	-7810
总面积	-7811
队的	-7812
点赞	-7813
▁goals	-7814
▁capital	-7815
▁parameter	-7816
ICEN	-7817
thread	-7818
视觉	-7819
▁Chief	-7820
住房	-7821
和她	-7822
你好	-7823
》《	-7824
▁Os	-7825
▁Ontario	-7826
▁Empire	-7827
风景	-7828
暴力	-7829
▁cop	-7830
▁Point	-7831
odec	-7832
▁NOT	-7833
▁musical	-7834
命运	-7835
▁Director	-7836
mercial	-7837
argument	-7838
版权	-7839
厕所	-7840
▁approximately	-7841
▁numpy	-7842
respond	-7843
ITAL	-7844
▁Stat	-7845
水的	-7846
▁Ak	-7847
心中	-7848
院校	-7849
▁civil	-7850
房产	-7851
establ	-7852
▁Sand	-7853
chedul	-7854
▁numer	-7855
▁plan	-7856
伦敦	-7857
▁Bad	-7858
大赛	-7859
ifying	-7860
▁operations	-7861
irection	-7862
Packet	-7863
他就	-7864
uv	-7865
▁respons	-7866
布局	-7867
▁past	-7868
不论	-7869
Le	-7870
▁grand	-7871
起了	-7872
ynam	-7873
个性	-7874
▁far	-7875
优化	-7876
']],	-7877
airman	-7878
总人口	-7879
应对	-7880
arct	-7881
盈利	-7882
前景	-7883
arser	-7884
加盟	-7885
.")	-7886
的设计	-7887
ighest	-7888
扩大	-7889
也就是说	-7890
execute	-7891
。）	-7892
的经历	-7893
把自己	-7894
▁Mur	-7895
▁males	-7896
你自己	-7897
认证	-7898
variable	-7899
burgh	-7900
▁'_	-7901
▁route	-7902
App	-7903
ester	-7904
Imp	-7905
▁pick	-7906
▁score	-7907
▁items	-7908
▁Moths	-7909
高等	-7910
精力	-7911
▁applic	-7912
▁Death	-7913
就好了	-7914
.')	-7915
▁Div	-7916
▁Baron	-7917
日期	-7918
怎么看	-7919
有用	-7920
▁Max	-7921
pa	-7922
icon	-7923
▁Under	-7924
▁move	-7925
单词	-7926
inae	-7927
制定	-7928
的第一	-7929
危机	-7930
sql	-7931
urllib	-7932
olar	-7933
Ref	-7934
Integer	-7935
大三	-7936
aska	-7937
有问题	-7938
edic	-7939
▁aud	-7940
bon	-7941
chan	-7942
aver	-7943
将其	-7944
elled	-7945
▁employ	-7946
▁unknown	-7947
这张	-7948
要注意	-7949
自行车	-7950
即便	-7951
]['	-7952
舞台	-7953
▁Som	-7954
px	-7955
------------	-7956
发出	-7957
落实	-7958
财产	-7959
ICENSE	-7960
那就是	-7961
▁req	-7962
Windows	-7963
外观	-7964
层次	-7965
alys	-7966
是种	-7967
很喜欢	-7968
▁candidate	-7969
主演	-7970
Wh	-7971
▁&',	-7972
脾气	-7973
riz	-7974
▁Luc	-7975
无关	-7976
▁Airport	-7977
金额	-7978
ez	-7979
一半	-7980
家具	-7981
ingu	-7982
rown	-7983
▁Premier	-7984
你能	-7985
微软	-7986
▁remove	-7987
manager	-7988
一人	-7989
▁wood	-7990
}-	-7991
record	-7992
mask	-7993
▁%(	-7994
单曲	-7995
bb	-7996
▁Slov	-7997
记住	-7998
荣誉	-7999
的钱	-8000
icensed	-8001
的多	-8002
▁reached	-8003
incorporated	-8004
辅助	-8005
天赋	-8006
不停	-8007
正是	-8008
otion	-8009
▁CAPITAL	-8010
充电	-8011
eated	-8012
▁useful	-8013
▁Journal	-8014
一辈子	-8015
inem	-8016
发育	-8017
▁Google	-8018
认同	-8019
▁department	-8020
▁Philipp	-8021
▁resp	-8022
ils	-8023
▁methods	-8024
▁While	-8025
jan	-8026
▁placed	-8027
都被	-8028
非洲	-8029
开通	-8030
soft	-8031
不一定	-8032
▁Water	-8033
mitted	-8034
▁Wild	-8035
aset	-8036
▁manufact	-8037
ucky	-8038
成果	-8039
inct	-8040
▁中	-8041
怎么做	-8042
unsigned	-8043
四大	-8044
公平	-8045
要有	-8046
google	-8047
AY	-8048
举报	-8049
清理	-8050
比如说	-8051
股份有限公司	-8052
xa	-8053
elt	-8054
写作	-8055
一是	-8056
exc	-8057
conom	-8058
~~~~	-8059
▁Jack	-8060
婴儿	-8061
▁Ext	-8062
澳洲	-8063
Iter	-8064
arden	-8065
地上	-8066
▁distribution	-8067
▁WITH	-8068
的长	-8069
▁Vo	-8070
▁Turk	-8071
▁allowed	-8072
日语	-8073
▁sch	-8074
▁conditions	-8075
一辆	-8076
▁whose	-8077
plot	-8078
校长	-8079
View	-8080
tml	-8081
也不能	-8082
就读	-8083
检察	-8084
优秀的	-8085
造成的	-8086
▁Corn	-8087
iang	-8088
加工	-8089
->	-8090
SH	-8091
ordin	-8092
actor	-8093
handler	-8094
质疑	-8095
ка	-8096
▁Queen	-8097
性价比	-8098
缓解	-8099
争议	-8100
ulpt	-8101
我看	-8102
Default	-8103
部的	-8104
账户	-8105
aby	-8106
▁communities	-8107
]],	-8108
▁es	-8109
贵州	-8110
mont	-8111
无奈	-8112
full	-8113
较大	-8114
▁handle	-8115
拉斯	-8116
司法	-8117
事项	-8118
板块	-8119
骑士	-8120
▁Ansible	-8121
待遇	-8122
▁depend	-8123
邮政	-8124
light	-8125
▁human	-8126
▁simple	-8127
▁Cat	-8128
Index	-8129
外交	-8130
mas	-8131
ental	-8132
加油	-8133
success	-8134
运用	-8135
▁Centre	-8136
匿名	-8137
ek	-8138
你想	-8139
理性	-8140
mem	-8141
▁Organ	-8142
一会	-8143
边的	-8144
异地	-8145
bi	-8146
较为	-8147
这一点	-8148
▁defined	-8149
球迷	-8150
▁Reserv	-8151
我不是	-8152
uuid	-8153
GL	-8154
▁hasattr	-8155
变成了	-8156
一遍	-8157
▁File	-8158
两个月	-8159
▁IP	-8160
清朝	-8161
▁vs	-8162
构成	-8163
▁optional	-8164
▁Ken	-8165
国王	-8166
▁ids	-8167
▁existing	-8168
EO	-8169
官方网站	-8170
大二	-8171
utions	-8172
威胁	-8173
未来的	-8174
全身	-8175
▁exhib	-8176
ported	-8177
▁functions	-8178
js	-8179
激素	-8180
各大	-8181
几个月	-8182
▁seen	-8183
▁prob	-8184
hentic	-8185
多么	-8186
广西	-8187
沈阳	-8188
yo	-8189
无线	-8190
招生	-8191
进了	-8192
显然	-8193
▁coast	-8194
lambda	-8195
▁Pres	-8196
▁Version	-8197
UB	-8198
▁fabric	-8199
▁science	-8200
国务院	-8201
歌词	-8202
加快	-8203
itter	-8204
伊斯兰	-8205
。(	-8206
▁awards	-8207
SD	-8208
苏州	-8209
看书	-8210
▁lib	-8211
▁Gh	-8212
idx	-8213
▁select	-8214
▁got	-8215
▁operated	-8216
留在	-8217
▁Jean	-8218
▁health	-8219
▁timeout	-8220
As	-8221
是真的	-8222
▁ans	-8223
优雅	-8224
FAULT	-8225
ponent	-8226
持有	-8227
行驶	-8228
▁cost	-8229
▁Johns	-8230
抱着	-8231
秘密	-8232
当选	-8233
前后	-8234
三个月	-8235
辞职	-8236
的最	-8237
lier	-8238
▁Development	-8239
binary	-8240
六年	-8241
北京市	-8242
▁som	-8243
手动	-8244
SO	-8245
我真的	-8246
某种	-8247
example	-8248
kin	-8249
都不会	-8250
此前	-8251
创意	-8252
投票	-8253
过敏	-8254
▁suc	-8255
没错	-8256
▁anc	-8257
Context	-8258
户口	-8259
bug	-8260
▁Blue	-8261
理工	-8262
市镇列表	-8263
▁scient	-8264
有的人	-8265
▁URL	-8266
▁net	-8267
▁Business	-8268
Per	-8269
▁Common	-8270
模型	-8271
▁Van	-8272
aters	-8273
恐惧	-8274
nam	-8275
转换	-8276
价值观	-8277
▁configuration	-8278
,(	-8279
财经	-8280
领先	-8281
同性恋	-8282
报记者	-8283
继承	-8284
chedule	-8285
▁exec	-8286
优点	-8287
民间	-8288
执法	-8289
不愿意	-8290
EM	-8291
cher	-8292
iting	-8293
住宅	-8294
▁bytes	-8295
▁Sat	-8296
agon	-8297
▁Description	-8298
▁Opt	-8299
上周	-8300
ees	-8301
大道	-8302
危害	-8303
▁Py	-8304
巴黎	-8305
马来	-8306
除非	-8307
▁campaign	-8308
场比赛	-8309
虚拟	-8310
▁organization	-8311
▁Main	-8312
济南	-8313
出版社	-8314
的能力	-8315
播出	-8316
allow	-8317
NBA	-8318
报考	-8319
:%	-8320
▁remained	-8321
▁Work	-8322
这条	-8323
=*《	-8324
肌肤	-8325
▁Sem	-8326
巨大	-8327
说到	-8328
UM	-8329
▁其实	-8330
随意	-8331
▁Buildings	-8332
一把	-8333
▁months	-8334
被称为	-8335
chen	-8336
IONS	-8337
页面	-8338
▁hash	-8339
▁er	-8340
这时	-8341
lam	-8342
lic	-8343
给人	-8344
爱你	-8345
登录	-8346
的角度	-8347
工人	-8348
ometimes	-8349
每周	-8350
玩笑	-8351
生育	-8352
▁too	-8353
osa	-8354
ride	-8355
常见的	-8356
▁rural	-8357
▁III	-8358
▁athlet	-8359
品种	-8360
拿着	-8361
公益	-8362
下辖的一个	-8363
▁Stan	-8364
吵架	-8365
IGHT	-8366
▁changes	-8367
initial	-8368
PRO	-8369
▁centre	-8370
▁involved	-8371
遭遇	-8372
▁Battle	-8373
▁static	-8374
▁split	-8375
合格	-8376
前几天	-8377
哈尔	-8378
关节	-8379
inet	-8380
migr	-8381
tmp	-8382
▁Works	-8383
回归	-8384
amous	-8385
更换	-8386
▁museum	-8387
包装	-8388
师范	-8389
为什么会	-8390
同样的	-8391
做一个	-8392
emetery	-8393
▁rules	-8394
相反	-8395
工商	-8396
Factory	-8397
辽宁	-8398
▁Bern	-8399
预算	-8400
▁sea	-8401
ifth	-8402
神奇	-8403
▁Econom	-8404
年后	-8405
牛逼	-8406
谁能	-8407
Param	-8408
▁Corpor	-8409
▁reported	-8410
报警	-8411
]),	-8412
Se	-8413
▁package	-8414
vs	-8415
不明	-8416
]+	-8417
乘客	-8418
▁Senate	-8419
▁Spe	-8420
avy	-8421
相当于	-8422
▁AR	-8423
▁correct	-8424
▁launched	-8425
▁email	-8426
科的	-8427
handle	-8428
tab	-8429
自治区	-8430
还是要	-8431
sum	-8432
心理学	-8433
这是一个	-8434
include	-8435
业绩	-8436
ropol	-8437
▁hard	-8438
马克	-8439
幼儿园	-8440
BN	-8441
With	-8442
放心	-8443
获悉	-8444
前提	-8445
▁Health	-8446
▁Pakistan	-8447
一群	-8448
▁Matt	-8449
分的	-8450
▁officer	-8451
结局	-8452
month	-8453
▁tool	-8454
rie	-8455
▁God	-8456
温柔	-8457
免疫	-8458
发现了	-8459
▁Gener	-8460
anguages	-8461
aug	-8462
中华民国	-8463
延伸	-8464
onym	-8465
访问	-8466
▁modify	-8467
uals	-8468
gu	-8469
AF	-8470
▁gave	-8471
懂得	-8472
▁EX	-8473
▁Lord	-8474
不见	-8475
谈恋爱	-8476
You	-8477
性别	-8478
碰到	-8479
▁'<	-8480
表白	-8481
▁states	-8482
成为了	-8483
打了	-8484
环节	-8485
▁historic	-8486
▁Project	-8487
▁Rugby	-8488
inv	-8489
lt	-8490
▁Good	-8491
▁meas	-8492
美好	-8493
通道	-8494
存在的	-8495
白天	-8496
ão	-8497
▁Bow	-8498
▁Tai	-8499
ouri	-8500
旅客	-8501
▁dim	-8502
▁Stand	-8503
urne	-8504
牙齿	-8505
是没有	-8506
Build	-8507
厘米	-8508
入口	-8509
reme	-8510
allen	-8511
处女	-8512
▁provide	-8513
的电影	-8514
▁administrative	-8515
▁Gen	-8516
▁squad	-8517
stdout	-8518
故意	-8519
environ	-8520
相机	-8521
▁DO	-8522
acts	-8523
▁Jos	-8524
STR	-8525
▁raw	-8526
▁influ	-8527
导师	-8528
enth	-8529
出于	-8530
CM	-8531
PAT	-8532
▁Raj	-8533
就这样	-8534
▁bur	-8535
▁expand	-8536
拉克	-8537
地面	-8538
的女生	-8539
▁Elect	-8540
▁Britain	-8541
单独	-8542
贵的	-8543
围绕	-8544
▁Sweden	-8545
厨房	-8546
高于	-8547
有何	-8548
▁anim	-8549
▁keys	-8550
lat	-8551
▁Gi	-8552
是什么样的	-8553
▁Korea	-8554
答题	-8555
过度	-8556
Ent	-8557
▁friend	-8558
las	-8559
很重要	-8560
收集	-8561
现状	-8562
发射	-8563
ulate	-8564
▁Ly	-8565
erty	-8566
制的	-8567
mad	-8568
笔记本	-8569
offset	-8570
每月	-8571
Line	-8572
海南	-8573
说一下	-8574
定期	-8575
pu	-8576
平常	-8577
stant	-8578
搞笑	-8579
恶心	-8580
海洋	-8581
▁personal	-8582
ustr	-8583
）（	-8584
▁Queens	-8585
▁know	-8586
Ed	-8587
豆瓣	-8588
不下	-8589
婚礼	-8590
▁Windows	-8591
交警	-8592
obile	-8593
主办	-8594
元的	-8595
退休	-8596
ennes	-8597
▁spent	-8598
▁tax	-8599
和谐	-8600
支付宝	-8601
的效果	-8602
实行	-8603
▁introduced	-8604
我爸	-8605
prod	-8606
一方面	-8607
▁Turkey	-8608
键盘	-8609
展现	-8610
简历	-8611
▁commission	-8612
记载	-8613
喝酒	-8614
▁sat	-8615
cur	-8616
▁elements	-8617
充足	-8618
其实是	-8619
动态	-8620
授权	-8621
期货	-8622
▁relation	-8623
▁mm	-8624
油价	-8625
Net	-8626
▁extension	-8627
▁normal	-8628
的很	-8629
标签	-8630
arily	-8631
▁parish	-8632
▁Little	-8633
▁circ	-8634
ened	-8635
统治	-8636
▁von	-8637
▁socket	-8638
▁genera	-8639
▁himself	-8640
▁Round	-8641
vars	-8642
▁although	-8643
pid	-8644
EP	-8645
透明	-8646
mann	-8647
姆斯	-8648
▁appearances	-8649
hu	-8650
▁News	-8651
段子	-8652
物流	-8653
又不	-8654
).__	-8655
ills	-8656
pattern	-8657
的世界	-8658
维修	-8659
Variable	-8660
mes	-8661
性质	-8662
lect	-8663
神秘	-8664
argv	-8665
At	-8666
▁court	-8667
Dis	-8668
▁unittest	-8669
▁usually	-8670
▁western	-8671
Callback	-8672
传奇	-8673
会对	-8674
那时	-8675
▁Mexican	-8676
截图	-8677
Ext	-8678
血压	-8679
真相	-8680
▁phil	-8681
讲述	-8682
▁Rivers	-8683
▁farm	-8684
据悉	-8685
▁month	-8686
▁Est	-8687
西藏	-8688
▁Jones	-8689
▁Tok	-8690
lying	-8691
美国的	-8692
hy	-8693
Checker	-8694
民众	-8695
大脑	-8696
奥林	-8697
主人	-8698
▁"_	-8699
良好	-8700
▁Mid	-8701
contrib	-8702
▁defeated	-8703
▁respect	-8704
尚未	-8705
钢琴	-8706
▁highest	-8707
心脏	-8708
经济学	-8709
▁episode	-8710
▁Vis	-8711
:]	-8712
的中国	-8713
输出	-8714
akh	-8715
教材	-8716
▁Niger	-8717
▁hom	-8718
演讲	-8719
▁compon	-8720
▁variables	-8721
TYPE	-8722
▁Junior	-8723
中药	-8724
荷兰	-8725
了一些	-8726
休闲	-8727
▁Theatre	-8728
不及	-8729
的历史	-8730
WAR	-8731
▁migr	-8732
锦标	-8733
奥运会	-8734
强势	-8735
浪漫	-8736
▁youth	-8737
激动	-8738
▁Mountains	-8739
年了	-8740
很简单	-8741
的结果	-8742
股权	-8743
模拟	-8744
存款	-8745
DF	-8746
▁tro	-8747
▁feed	-8748
的过程	-8749
▁bron	-8750
打工	-8751
▁let	-8752
▁independent	-8753
▁Bibli	-8754
秘书	-8755
这段	-8756
▁Prince	-8757
▁VS	-8758
okie	-8759
▁xml	-8760
▁council	-8761
▁ord	-8762
了好	-8763
事儿	-8764
▁leader	-8765
▁Import	-8766
出轨	-8767
一枚	-8768
▁Gallery	-8769
注重	-8770
气温	-8771
自从	-8772
▁viol	-8773
▁Far	-8774
▁Daniel	-8775
▁false	-8776
▁disestabl	-8777
说实话	-8778
▁Francisco	-8779
stract	-8780
北大	-8781
放入	-8782
▁Lo	-8783
的游戏	-8784
▁correspond	-8785
▁Alexander	-8786
▁silver	-8787
行业的	-8788
火箭	-8789
▁Williams	-8790
语文	-8791
马拉	-8792
服用	-8793
▁Eastern	-8794
的照片	-8795
为啥	-8796
ologist	-8797
▁Cambridge	-8798
gypt	-8799
rick	-8800
冬季	-8801
▁Technology	-8802
形容	-8803
还好	-8804
▁Child	-8805
快递	-8806
▁Dar	-8807
eds	-8808
etherlands	-8809
上线	-8810
就知道	-8811
全是	-8812
insert	-8813
▁Korean	-8814
从此	-8815
▁done	-8816
het	-8817
▁purch	-8818
库存	-8819
▁deal	-8820
API	-8821
alysis	-8822
AGE	-8823
共享	-8824
▁maint	-8825
shot	-8826
首都	-8827
▁Times	-8828
认知	-8829
战士	-8830
▁Hand	-8831
在你	-8832
▁User	-8833
▁Middle	-8834
tf	-8835
公斤	-8836
unittest	-8837
地区的	-8838
▁Band	-8839
aints	-8840
的表现	-8841
联邦	-8842
apter	-8843
VID	-8844
rate	-8845
含量	-8846
abeth	-8847
中山	-8848
才知道	-8849
;?	-8850
的手	-8851
▁NC	-8852
发言	-8853
lass	-8854
reas	-8855
从业	-8856
脸上	-8857
地震	-8858
▁Sources	-8859
遗憾	-8860
这点	-8861
sur	-8862
▁Charl	-8863
▁</	-8864
消耗	-8865
探索	-8866
一个是	-8867
电信	-8868
出血	-8869
我一	-8870
你们的	-8871
默默	-8872
▁our	-8873
▁Hospital	-8874
▁lived	-8875
▁null	-8876
超越	-8877
前期	-8878
氛围	-8879
-{	-8880
▁Iowa	-8881
厂商	-8882
wd	-8883
更为	-8884
▁WARRANTIES	-8885
预警	-8886
center	-8887
常规	-8888
就说	-8889
anger	-8890
姿势	-8891
忍不住	-8892
曾任	-8893
aven	-8894
气象	-8895
排除	-8896
的态度	-8897
▁doesn	-8898
又有	-8899
▁attributes	-8900
▁USA	-8901
作曲	-8902
是以	-8903
▁classes	-8904
▁SO	-8905
▁ships	-8906
▁though	-8907
help	-8908
▁weight	-8909
二次	-8910
ais	-8911
▁sequence	-8912
车主	-8913
▁middle	-8914
plicit	-8915
也可	-8916
▁Follow	-8917
▁Mu	-8918
▁management	-8919
inger	-8920
带有	-8921
出席	-8922
|-|	-8923
▁branch	-8924
blockquote	-8925
对他	-8926
依法	-8927
我也是	-8928
。【	-8929
▁Card	-8930
Create	-8931
encoding	-8932
通信	-8933
OG	-8934
Parser	-8935
▁mile	-8936
▁interest	-8937
▁mountain	-8938
skip	-8939
job	-8940
▁Call	-8941
流动	-8942
跟你	-8943
▁surv	-8944
rand	-8945
▁complete	-8946
▁Brazilian	-8947
▁earned	-8948
.'	-8949
中国大陆	-8950
▁countries	-8951
本题	-8952
IR	-8953
▁Sab	-8954
▁interface	-8955
▁student	-8956
▁util	-8957
研究所	-8958
▁「	-8959
reater	-8960
▁Id	-8961
cd	-8962
uten	-8963
apers	-8964
extend	-8965
创建	-8966
后果	-8967
SL	-8968
▁Tri	-8969
ailed	-8970
strument	-8971
非法	-8972
▁height	-8973
▁Enter	-8974
动车	-8975
一定会	-8976
平安	-8977
roller	-8978
▁studies	-8979
▁hit	-8980
依赖	-8981
据了解	-8982
adel	-8983
▁Berlin	-8984
Implement	-8985
舞蹈	-8986
的国家	-8987
decode	-8988
▁constituency	-8989
▁big	-8990
▁Es	-8991
释放	-8992
▁我的	-8993
的位置	-8994
utt	-8995
大盘	-8996
在意	-8997
生于	-8998
▁Tourn	-8999
bour	-9000
当时的	-9001
帐号	-9002
是法国	-9003
里有	-9004
Source	-9005
▁situ	-9006
▁Home	-9007
不得不	-9008
文物保护	-9009
▁Winn	-9010
onto	-9011
aved	-9012
著作	-9013
serial	-9014
日下午	-9015
中小	-9016
SA	-9017
最后一	-9018
pur	-9019
极端	-9020
anks	-9021
▁lies	-9022
▁Sa	-9023
rows	-9024
第七	-9025
▁Game	-9026
明显的	-9027
vm	-9028
▁chief	-9029
▁personnel	-9030
只不过	-9031
发布会	-9032
作战	-9033
热爱	-9034
丰富的	-9035
和其他	-9036
mir	-9037
我来	-9038
一个小	-9039
算法	-9040
eam	-9041
▁Mir	-9042
ée	-9043
接到	-9044
魔法	-9045
▁Office	-9046
快的	-9047
INE	-9048
评估	-9049
▁bronze	-9050
总会	-9051
想的	-9052
▁rac	-9053
ACK	-9054
认为是	-9055
了他	-9056
请各位	-9057
队友	-9058
▁#!	-9059
▁strong	-9060
深的	-9061
Header	-9062
”？	-9063
igious	-9064
setup	-9065
▁Log	-9066
▁itself	-9067
显卡	-9068
ga	-9069
▁attack	-9070
▁Expatriate	-9071
enz	-9072
产品的	-9073
▁symbol	-9074
成功的	-9075
▁新	-9076
性和	-9077
一般的	-9078
▁Kansas	-9079
这个人	-9080
▁Marg	-9081
之前的	-9082
毫米	-9083
黑暗	-9084
izes	-9085
Rec	-9086
协调	-9087
场的	-9088
▁uint	-9089
想说	-9090
Map	-9091
batch	-9092
▁tracks	-9093
奥林匹	-9094
▁Orig	-9095
前辈	-9096
▁Anton	-9097
nes	-9098
Output	-9099
▁conv	-9100
GT	-9101
周年	-9102
▁throughout	-9103
▁require	-9104
aped	-9105
四十	-9106
olean	-9107
白银	-9108
▁Boy	-9109
oreignKey	-9110
▁gir	-9111
▁Mot	-9112
公民	-9113
lar	-9114
窗口	-9115
（），	-9116
vard	-9117
master	-9118
ho	-9119
NESS	-9120
▁Antarct	-9121
您好	-9122
我喜欢	-9123
市区	-9124
Ge	-9125
abad	-9126
试验	-9127
我只是	-9128
total	-9129
正面	-9130
Tests	-9131
辐射	-9132
我又	-9133
基层	-9134
").	-9135
Loc	-9136
▁axis	-9137
▁unique	-9138
想过	-9139
故障	-9140
▁sport	-9141
转型	-9142
DIR	-9143
五十	-9144
分开	-9145
▁Nations	-9146
▁consists	-9147
那一	-9148
▁'',	-9149
▁fe	-9150
(;	-9151
改编	-9152
grad	-9153
▁succeed	-9154
regon	-9155
▁policy	-9156
ami	-9157
大量的	-9158
mo	-9159
▁properties	-9160
的要求	-9161
LED	-9162
不该	-9163
chi	-9164
▁cricketers	-9165
)'	-9166
▁Andrew	-9167
▁Basketball	-9168
ackson	-9169
look	-9170
▁Ray	-9171
IND	-9172
谈谈	-9173
▁cell	-9174
有效的	-9175
巴士	-9176
▁Netherlands	-9177
▁moth	-9178
buffer	-9179
▁ipv	-9180
▁whether	-9181
▁statistics	-9182
这不是	-9183
This	-9184
精英	-9185
▁作为	-9186
善良	-9187
▁inf	-9188
profile	-9189
少了	-9190
新华社	-9191
▁van	-9192
IF	-9193
wer	-9194
▁eastern	-9195
▁Ba	-9196
如果没有	-9197
进攻	-9198
策划	-9199
里斯	-9200
」。	-9201
活跃	-9202
验证	-9203
▁Way	-9204
▁FIT	-9205
double	-9206
没办法	-9207
▁wide	-9208
__,	-9209
▁den	-9210
▁musicians	-9211
下来的	-9212
▁Special	-9213
▁summer	-9214
▁PART	-9215
ipe	-9216
bad	-9217
杀人	-9218
年在	-9219
退出	-9220
私人	-9221
总理	-9222
▁prop	-9223
途径	-9224
▁Der	-9225
▁transport	-9226
▁Wel	-9227
三大	-9228
局长	-9229
▁Missouri	-9230
GET	-9231
澳门	-9232
unn	-9233
▁Egypt	-9234
看得	-9235
kins	-9236
义务	-9237
▁Mov	-9238
▁Indiana	-9239
利的	-9240
▁EP	-9241
enger	-9242
没法	-9243
卫星	-9244
用过	-9245
▁Mountain	-9246
▁lawy	-9247
gorith	-9248
aching	-9249
auto	-9250
日晚	-9251
病情	-9252
著名的	-9253
▁Syd	-9254
诊断	-9255
路人	-9256
▁Santa	-9257
rupt	-9258
=['	-9259
▁Norway	-9260
BB	-9261
▁starting	-9262
干嘛	-9263
▁Aut	-9264
旗下	-9265
▁achiev	-9266
▁Municipality	-9267
▁Media	-9268
演唱会	-9269
▁eventually	-9270
你知道	-9271
找工作	-9272
尺寸	-9273
></	-9274
▁MER	-9275
classes	-9276
▁actual	-9277
rule	-9278
▁Kal	-9279
体制	-9280
▁dam	-9281
ULAR	-9282
▁Four	-9283
实验室	-9284
▁minor	-9285
加班	-9286
(['	-9287
美容	-9288
ucket	-9289
三天	-9290
忽略	-9291
▁Prize	-9292
▁width	-9293
▁application	-9294
egin	-9295
电力	-9296
▁staff	-9297
师傅	-9298
阶级	-9299
批准	-9300
比我	-9301
建议你	-9302
！（	-9303
▁Political	-9304
▁Bulg	-9305
专注	-9306
▁according	-9307
▁inj	-9308
冲击	-9309
,-	-9310
斯科	-9311
通讯员	-9312
大于	-9313
为你	-9314
pred	-9315
▁sum	-9316
elebr	-9317
”—	-9318
订阅	-9319
▁save	-9320
▁industry	-9321
temp	-9322
▁midfield	-9323
我发现	-9324
欧美	-9325
▁Chile	-9326
等到	-9327
全市	-9328
再说	-9329
就不会	-9330
每一	-9331
▁whom	-9332
je	-9333
▁educated	-9334
aga	-9335
位的	-9336
Do	-9337
▁Lin	-9338
▁Nic	-9339
▁neg	-9340
▁prem	-9341
还是有	-9342
▁architecture	-9343
二年	-9344
一带	-9345
就很	-9346
▁是	-9347
黄色	-9348
去的	-9349
放松	-9350
cheme	-9351
▁Jewish	-9352
▁Command	-9353
isions	-9354
aked	-9355
能在	-9356
力度	-9357
发了	-9358
加大	-9359
功效	-9360
children	-9361
引擎	-9362
ivity	-9363
是一种怎样的体验	-9364
she	-9365
委书记	-9366
热门	-9367
eted	-9368
▁ST	-9369
得知	-9370
坐标	-9371
▁Colorado	-9372
▁Ger	-9373
▁--------	-9374
POSE	-9375
▁'--	-9376
▁upon	-9377
都不是	-9378
▁Design	-9379
锦标赛	-9380
▁clean	-9381
巨大的	-9382
上映	-9383
▁promoted	-9384
acity	-9385
unicode	-9386
更高	-9387
航天	-9388
KEY	-9389
▁pot	-9390
手指	-9391
LL	-9392
逐步	-9393
▁html	-9394
楼上	-9395
▁Hy	-9396
▁Jr	-9397
INT	-9398
激烈	-9399
约翰	-9400
也不知道	-9401
▁Oregon	-9402
▁eval	-9403
是非常	-9404
普查	-9405
▁Flora	-9406
人民政府	-9407
▁border	-9408
cor	-9409
CHANT	-9410
几种	-9411
ounter	-9412
▁Later	-9413
▁killed	-9414
但不	-9415
▁compl	-9416
兴奋	-9417
outheast	-9418
你有	-9419
ernel	-9420
笑话	-9421
tags	-9422
过哪些	-9423
▁王	-9424
▁occup	-9425
选项	-9426
塞尔	-9427
▁Bon	-9428
优质	-9429
汉语	-9430
▁labels	-9431
▁winners	-9432
extra	-9433
)\	-9434
文物保护单位	-9435
是大	-9436
▁FITNESS	-9437
aki	-9438
ocument	-9439
▁Create	-9440
▁Ash	-9441
赔偿	-9442
aily	-9443
▁coaches	-9444
▁Sport	-9445
▁cases	-9446
scope	-9447
ophy	-9448
小姐	-9449
↓↓	-9450
▁wait	-9451
thur	-9452
▁MERCHANT	-9453
郑州	-9454
小伙伴	-9455
近年来	-9456
▁Lab	-9457
▁mass	-9458
爱好者	-9459
▁Mic	-9460
▁seg	-9461
昆明	-9462
osl	-9463
▁Corporation	-9464
▁Country	-9465
幸运	-9466
NE	-9467
▁api	-9468
ificant	-9469
hemat	-9470
频率	-9471
议员	-9472
▁exists	-9473
▁Connect	-9474
pton	-9475
▁rad	-9476
你觉得	-9477
asks	-9478
网易	-9479
电源	-9480
二是	-9481
高兴	-9482
▁frequ	-9483
产生的	-9484
▁PUR	-9485
失望	-9486
渐渐	-9487
有意思	-9488
▁beginning	-9489
明年	-9490
▁reference	-9491
做个	-9492
一度	-9493
SR	-9494
太多了	-9495
icted	-9496
▁Indones	-9497
▁hot	-9498
Start	-9499
attributes	-9500
ething	-9501
▁emb	-9502
床上	-9503
得到了	-9504
▁Latin	-9505
diff	-9506
▁Legislative	-9507
为什么不	-9508
cean	-9509
三分	-9510
▁culture	-9511
自己是	-9512
Sp	-9513
Simple	-9514
▁assistant	-9515
Manager	-9516
奋斗	-9517
季节	-9518
▁mix	-9519
日本的	-9520
面积为	-9521
▁prote	-9522
▁districts	-9523
已有	-9524
耳机	-9525
▁entered	-9526
▁Ark	-9527
萝卜	-9528
▁contain	-9529
▁Bh	-9530
▁housing	-9531
▁Bibliography	-9532
▁representing	-9533
高达	-9534
几点	-9535
****************	-9536
▁Iv	-9537
▁mac	-9538
▁sportspeople	-9539
channel	-9540
问问	-9541
牌子	-9542
itation	-9543
▁Highway	-9544
cell	-9545
交换	-9546
ACT	-9547
纤维	-9548
/>	-9549
▁pain	-9550
ancial	-9551
又称	-9552
▁Eliz	-9553
▁Pass	-9554
▁，	-9555
▁Family	-9556
妇女	-9557
机器人	-9558
还不错	-9559
月底	-9560
▁Program	-9561
之路	-9562
dim	-9563
▁takes	-9564
▁metres	-9565
起码	-9566
ares	-9567
using	-9568
imb	-9569
▁Singles	-9570
是这样	-9571
▁API	-9572
奖励	-9573
承诺	-9574
限于	-9575
▁李	-9576
▁PURPOSE	-9577
CI	-9578
▁PARTIC	-9579
▁sculpt	-9580
)。	-9581
▁composed	-9582
▁Args	-9583
太平洋	-9584
还原	-9585
本周	-9586
wick	-9587
hens	-9588
编剧	-9589
外的	-9590
给出	-9591
▁press	-9592
负担	-9593
▁PARTICULAR	-9594
▁先	-9595
venue	-9596
emporary	-9597
anner	-9598
▁cycl	-9599
▁provides	-9600
编号	-9601
实在是	-9602
：（	-9603
acter	-9604
处罚	-9605
就把	-9606
时光	-9607
▁strings	-9608
▁kind	-9609
ONE	-9610
可以指	-9611
达成	-9612
▁able	-9613
ori	-9614
奥林匹克	-9615
再加上	-9616
大使	-9617
▁Cre	-9618
他也	-9619
VR	-9620
回国	-9621
▁natural	-9622
内地	-9623
，（	-9624
刚好	-9625
欲望	-9626
实体	-9627
如果不	-9628
▁Sea	-9629
onic	-9630
▁sure	-9631
奖项	-9632
已被	-9633
▁Ven	-9634
▁ens	-9635
▁Week	-9636
▁一个	-9637
▁Show	-9638
眼里	-9639
安慰	-9640
承受	-9641
called	-9642
原始	-9643
人人	-9644
▁princ	-9645
三观	-9646
命名	-9647
活着	-9648
▁Tournament	-9649
上传	-9650
越来越多	-9651
dum	-9652
：。=	-9653
itage	-9654
clean	-9655
运气	-9656
={	-9657
三次	-9658
总部	-9659
▁Books	-9660
对了	-9661
严重的	-9662
archive	-9663
情商	-9664
道的	-9665
illy	-9666
▁syn	-9667
▁Jackson	-9668
UD	-9669
ouses	-9670
elist	-9671
login	-9672
▁Harr	-9673
anning	-9674
派出所	-9675
的名字	-9676
uj	-9677
forms	-9678
长江	-9679
iber	-9680
▁Following	-9681
dt	-9682
向上	-9683
▁annual	-9684
感的	-9685
签证	-9686
ners	-9687
Protocol	-9688
路口	-9689
办事	-9690
▁Jon	-9691
'})	-9692
职工	-9693
▁Ra	-9694
overy	-9695
强大的	-9696
▁lat	-9697
▁villages	-9698
▁MERCHANTABILITY	-9699
Mult	-9700
不好的	-9701
▁Ministry	-9702
合肥	-9703
amin	-9704
人气	-9705
car	-9706
▁Administr	-9707
的名	-9708
日上午	-9709
ecture	-9710
的想法	-9711
十几	-9712
▁Rail	-9713
下辖以下	-9714
遇见	-9715
保健	-9716
对面	-9717
▁Data	-9718
狗狗	-9719
天堂	-9720
bro	-9721
alymp	-9722
ploy	-9723
圆桌	-9724
hew	-9725
争取	-9726
▁Les	-9727
zy	-9728
在他	-9729
iph	-9730
enty	-9731
platform	-9732
EXT	-9733
itzer	-9734
▁Light	-9735
建成	-9736
融合	-9737
orter	-9738
/%	-9739
▁Of	-9740
stone	-9741
住了	-9742
▁ide	-9743
投诉	-9744
的状态	-9745
微博上	-9746
▁observ	-9747
▁Athletics	-9748
贫困	-9749
选择了	-9750
▁Finn	-9751
▁Live	-9752
urches	-9753
去医院	-9754
最好是	-9755
▁Rod	-9756
耐心	-9757
权力	-9758
▁decor	-9759
axis	-9760
游戏的	-9761
▁Sund	-9762
▁send	-9763
早就	-9764
▁Sydney	-9765
商家	-9766
在一	-9767
观看	-9768
bourne	-9769
？？	-9770
▁surround	-9771
▁fall	-9772
▁求	-9773
意识到	-9774
▁Network	-9775
logger	-9776
▁future	-9777
▁#!/	-9778
不好意思	-9779
▁Johnson	-9780
美洲	-9781
▁flags	-9782
教程	-9783
ür	-9784
▁removed	-9785
道歉	-9786
字母	-9787
后续	-9788
▁prior	-9789
审核	-9790
文科	-9791
普通人	-9792
子宫	-9793
解读	-9794
回头	-9795
就行了	-9796
eph	-9797
anned	-9798
我可以	-9799
ialog	-9800
境内	-9801
教堂	-9802
听听	-9803
我感觉	-9804
本报讯	-9805
inder	-9806
election	-9807
ottom	-9808
▁tra	-9809
▁systems	-9810
▁agreed	-9811
的都是	-9812
▁Publ	-9813
豪华	-9814
▁That	-9815
灵魂	-9816
销商	-9817
区间	-9818
▁Sri	-9819
ione	-9820
瑞士	-9821
▁Mun	-9822
Sec	-9823
姐妹	-9824
oir	-9825
后者	-9826
不仅仅	-9827
chester	-9828
olve	-9829
月初	-9830
的首	-9831
▁Na	-9832
护理	-9833
Fil	-9834
▁sources	-9835
陷入	-9836
more	-9837
引起的	-9838
assertEquals	-9839
二战	-9840
▁Member	-9841
解放军	-9842
▁Community	-9843
ulf	-9844
到处	-9845
可达	-9846
建造	-9847
南海	-9848
▁individual	-9849
界面	-9850
elect	-9851
after	-9852
▁temp	-9853
竞技	-9854
外面	-9855
▁Management	-9856
▁license	-9857
消除	-9858
气候	-9859
累计	-9860
tensor	-9861
IGN	-9862
invalid	-9863
栖息	-9864
安静	-9865
sen	-9866
恶意	-9867
fd	-9868
ía	-9869
慢性	-9870
▁actresses	-9871
不可以	-9872
tk	-9873
question	-9874
读者	-9875
紧急	-9876
PK	-9877
清洗	-9878
我能	-9879
是多少	-9880
TF	-9881
会出现	-9882
▁adj	-9883
ecess	-9884
cap	-9885
一级	-9886
▁Danish	-9887
render	-9888
年初	-9889
▁Vi	-9890
所说的	-9891
帮你	-9892
▁debug	-9893
热点	-9894
words	-9895
进来	-9896
modules	-9897
zip	-9898
范围内	-9899
总觉得	-9900
联储	-9901
条目	-9902
平等	-9903
效应	-9904
cha	-9905
One	-9906
▁Paralymp	-9907
▁ven	-9908
▁bad	-9909
rome	-9910
▁pool	-9911
▁delete	-9912
acc	-9913
▁grant	-9914
isation	-9915
孕妇	-9916
要看	-9917
Content	-9918
大连	-9919
普及	-9920
nbsp	-9921
GC	-9922
用什么	-9923
主力	-9924
pay	-9925
羡慕	-9926
闺蜜	-9927
钱的	-9928
难受	-9929
延续	-9930
Bl	-9931
iform	-9932
▁managers	-9933
？-	-9934
▁Ah	-9935
涉嫌	-9936
淘汰	-9937
第二个	-9938
▁张	-9939
math	-9940
河流	-9941
它是	-9942
省的一个市镇	-9943
anga	-9944
落后	-9945
试图	-9946
Stream	-9947
花园	-9948
ritory	-9949
玩具	-9950
ForeignKey	-9951
市长	-9952
凭借	-9953
自卑	-9954
宝贝	-9955
ru	-9956
package	-9957
一百	-9958
总裁	-9959
央视	-9960
党员	-9961
科普	-9962
我问	-9963
▁Dig	-9964
▁outside	-9965
老是	-9966
▁inh	-9967
▁kn	-9968
pite	-9969
－－	-9970
HR	-9971
面包	-9972
▁love	-9973
&#	-9974
MAT	-9975
ieuten	-9976
不清	-9977
▁Area	-9978
western	-9979
却是	-9980
月的	-9981
TEST	-9982
好吃	-9983
▁""	-9984
方的	-9985
中国人民	-9986
来回答	-9987
ropolitan	-9988
传媒	-9989
其余	-9990
ROR	-9991
▁想	-9992
inition	-9993
▁defeat	-9994
并未	-9995
▁Video	-9996
▁Rog	-9997
Point	-9998
inf	-9999
惊喜	-10000
sa	-10001
▁merg	-10002
同志	-10003
riends	-10004
▁Species	-10005
▁Toronto	-10006
▁bridge	-10007
else	-10008
DC	-10009
纯粹	-10010
的信息	-10011
身为	-10012
stderr	-10013
▁newspaper	-10014
vention	-10015
pp	-10016
专科	-10017
▁Kentucky	-10018
▁speed	-10019
全省	-10020
学期	-10021
jpg	-10022
▁renamed	-10023
UI	-10024
一个人的	-10025
说他	-10026
导弹	-10027
ydro	-10028
Don	-10029
)',	-10030
messages	-10031
application	-10032
权威	-10033
合成	-10034
普通的	-10035
日本人	-10036
不着	-10037
▁draft	-10038
尔德	-10039
▁Wall	-10040
▁TypeError	-10041
ographic	-10042
涨幅	-10043
还是很	-10044
▁obt	-10045
Pos	-10046
▁issue	-10047
loop	-10048
▁clear	-10049
▁HTTP	-10050
▁metadata	-10051
iny	-10052
iller	-10053
热带	-10054
▁我觉得	-10055
"])	-10056
群岛	-10057
她在	-10058
创始	-10059
售价	-10060
▁Hal	-10061
新生	-10062
▁altern	-10063
▁sometimes	-10064
焦虑	-10065
▁destroy	-10066
parameters	-10067
羽毛	-10068
美好的	-10069
▁和	-10070
的地	-10071
景区	-10072
下面的	-10073
transl	-10074
好评	-10075
▁pop	-10076
usp	-10077
tw	-10078
HTTP	-10079
异性	-10080
议会	-10081
▁recording	-10082
不吃	-10083
▁plants	-10084
摄像	-10085
最重要的	-10086
▁trace	-10087
是什么意思	-10088
次数	-10089
设计的	-10090
地说	-10091
夏令	-10092
▁calc	-10093
▁imp	-10094
哪种	-10095
几百	-10096
▁Sciences	-10097
重的	-10098
aging	-10099
▁decided	-10100
整天	-10101
ntax	-10102
长相	-10103
监控	-10104
*《	-10105
attribute	-10106
MV	-10107
信用卡	-10108
brow	-10109
▁binary	-10110
洗澡	-10111
stein	-10112
▁Forest	-10113
rance	-10114
▁significant	-10115
▁setup	-10116
▁Rad	-10117
获得了	-10118
听过	-10119
情侣	-10120
▁grad	-10121
PG	-10122
features	-10123
一体	-10124
困扰	-10125
▁Liga	-10126
源于	-10127
不变	-10128
normal	-10129
▁Master	-10130
)、	-10131
从未	-10132
不管是	-10133
土耳	-10134
顺序	-10135
▁Pref	-10136
可以去	-10137
马来西亚	-10138
ureau	-10139
▁famous	-10140
一一	-10141
远远	-10142
要去	-10143
米的	-10144
▁products	-10145
▁Bridge	-10146
两位	-10147
▁news	-10148
装逼	-10149
我该怎么办	-10150
sq	-10151
答应	-10152
天使	-10153
▁Kir	-10154
erem	-10155
▁Dor	-10156
不止	-10157
强度	-10158
新区	-10159
才有	-10160
▁houses	-10161
肿瘤	-10162
十三	-10163
朋友们	-10164
▁Tod	-10165
抱怨	-10166
ync	-10167
ician	-10168
在问答社区	-10169
▁cannot	-10170
built	-10171
取代	-10172
▁Ref	-10173
土耳其	-10174
▁fix	-10175
▁с	-10176
ennessee	-10177
ctx	-10178
▁situated	-10179
强制	-10180
对不起	-10181
初期	-10182
▁historical	-10183
▁PRO	-10184
Rem	-10185
中新	-10186
频繁	-10187
▁parties	-10188
化妆品	-10189
生肖	-10190
▁TODO	-10191
policy	-10192
▁winner	-10193
▁Ott	-10194
下一	-10195
▁owner	-10196
花了	-10197
▁practice	-10198
综艺	-10199
▁estim	-10200
icine	-10201
防御	-10202
▁appearance	-10203
不必	-10204
▁association	-10205
幽默	-10206
探讨	-10207
edit	-10208
▁equal	-10209
顾客	-10210
社会主义	-10211
▁BBC	-10212
口味	-10213
▁Village	-10214
蛋白质	-10215
就已经	-10216
▁Lib	-10217
added	-10218
子上	-10219
▁Season	-10220
▁happ	-10221
▁Bishop	-10222
▁Although	-10223
urd	-10224
干燥	-10225
▁Ut	-10226
依靠	-10227
SON	-10228
有多大	-10229
primary	-10230
stats	-10231
▁buffer	-10232
止损	-10233
广东省	-10234
跟我说	-10235
的作品	-10236
▁Now	-10237
▁[])	-10238
ifest	-10239
不信	-10240
主场	-10241
小白	-10242
▁Professor	-10243
原谅	-10244
与其	-10245
不像	-10246
▁Gra	-10247
某某	-10248
cpu	-10249
▁ended	-10250
走到	-10251
十字	-10252
上帝	-10253
看似	-10254
另一方面	-10255
▁forward	-10256
董事长	-10257
||	-10258
场所	-10259
lements	-10260
mbass	-10261
股价	-10262
bal	-10263
enna	-10264
的城市	-10265
出生于	-10266
▁parents	-10267
▁Night	-10268
apshot	-10269
问题是	-10270
▁Castle	-10271
▁Tay	-10272
就想	-10273
▁Gro	-10274
bind	-10275
Hel	-10276
Action	-10277
开机	-10278
iders	-10279
就去	-10280
:\	-10281
ribe	-10282
▁Hamp	-10283
大楼	-10284
看好	-10285
穿越	-10286
▁woman	-10287
▁adapt	-10288
public	-10289
ika	-10290
▁sess	-10291
▁individuals	-10292
目前的	-10293
人说	-10294
▁sister	-10295
▁rail	-10296
一口	-10297
Buffer	-10298
seud	-10299
▁Ec	-10300
ographics	-10301
▁tel	-10302
祝福	-10303
section	-10304
▁organizations	-10305
▁Ul	-10306
▁regional	-10307
sect	-10308
▁drop	-10309
类似的	-10310
电梯	-10311
▁Sound	-10312
最有	-10313
▁offset	-10314
▁integer	-10315
特朗	-10316
新人	-10317
我把	-10318
他会	-10319
omot	-10320
大奖	-10321
▁opening	-10322
世界的	-10323
lang	-10324
的是什么	-10325
▁miles	-10326
▁drums	-10327
程度上	-10328
▁ansible	-10329
▁"/	-10330
▁Lew	-10331
的比赛	-10332
细菌	-10333
不但	-10334
▁Local	-10335
的一切	-10336
全程	-10337
事物	-10338
华人	-10339
所得	-10340
hs	-10341
▁render	-10342
几率	-10343
力于	-10344
让他们	-10345
甘肃	-10346
买到	-10347
幻想	-10348
▁Kenn	-10349
▁（	-10350
谁知道	-10351
高速公路	-10352
专项	-10353
▁Tennessee	-10354
Version	-10355
▁obtain	-10356
urban	-10357
▁shot	-10358
Input	-10359
▁participated	-10360
体内	-10361
socket	-10362
用品	-10363
外国人	-10364
器的	-10365
中部	-10366
Command	-10367
driver	-10368
药品	-10369
WS	-10370
市的	-10371
Connection	-10372
贴吧	-10373
▁king	-10374
科目	-10375
▁sorted	-10376
▁Secretary	-10377
公式	-10378
annels	-10379
rizona	-10380
两者	-10381
天主教	-10382
隐藏	-10383
▁setting	-10384
莫名	-10385
report	-10386
▁partner	-10387
经销商	-10388
久了	-10389
▁Pu	-10390
爱上	-10391
▁Former	-10392
精致	-10393
ов	-10394
▁absolute	-10395
video	-10396
杰伦	-10397
合适的	-10398
出售	-10399
▁rather	-10400
▁Lev	-10401
Client	-10402
成人	-10403
东莞	-10404
抑郁症	-10405
▁Op	-10406
感激	-10407
▁Plot	-10408
▁Maria	-10409
下班	-10410
▁Turkish	-10411
▁Us	-10412
死的	-10413
▁Dam	-10414
alias	-10415
rik	-10416
国立	-10417
句子	-10418
▁Jeff	-10419
百科	-10420
Met	-10421
参数	-10422
tz	-10423
interface	-10424
大街	-10425
isa	-10426
");	-10427
院长	-10428
发明	-10429
ifications	-10430
遗传	-10431
callback	-10432
。”“	-10433
▁novels	-10434
riage	-10435
▁pair	-10436
▁Kim	-10437
玩游戏	-10438
企业的	-10439
▁prec	-10440
▁redist	-10441
fake	-10442
曾在	-10443
讲话	-10444
abc	-10445
出现的	-10446
这时候	-10447
等人	-10448
▁swim	-10449
▁tennis	-10450
ieutenant	-10451
元年	-10452
▁>',	-10453
Invalid	-10454
▁permissions	-10455
aval	-10456
下的一个	-10457
勇士	-10458
场合	-10459
Mar	-10460
Instance	-10461
▁Ever	-10462
谨慎	-10463
Oper	-10464
▁seed	-10465
allenge	-10466
urrency	-10467
umed	-10468
▁Use	-10469
▁directly	-10470
南北	-10471
清明	-10472
型号	-10473
▁treat	-10474
isted	-10475
▁Albums	-10476
ificate	-10477
▁math	-10478
▁hope	-10479
陆军	-10480
>\	-10481
有两个	-10482
词汇	-10483
Service	-10484
火锅	-10485
arring	-10486
▁becoming	-10487
▁Apache	-10488
eld	-10489
的女	-10490
代谢	-10491
usc	-10492
她是	-10493
▁Federal	-10494
觉得很	-10495
▁Power	-10496
不应该	-10497
饮料	-10498
好看的	-10499
inity	-10500
看上去	-10501
▁Elizabeth	-10502
ture	-10503
Que	-10504
ipped	-10505
unique	-10506
▁Joe	-10507
提交	-10508
RT	-10509
HER	-10510
▁Indust	-10511
▁collabor	-10512
口腔	-10513
京东	-10514
功率	-10515
SUV	-10516
urer	-10517
▁better	-10518
▁align	-10519
▁champion	-10520
比较多	-10521
赞同	-10522
立刻	-10523
▁Cy	-10524
回报	-10525
入手	-10526
考虑到	-10527
▁Bos	-10528
▁thumb	-10529
▁commercial	-10530
场上	-10531
▁Text	-10532
▁说	-10533
国防	-10534
▁Inv	-10535
grade	-10536
▁OS	-10537
wrap	-10538
▁acquired	-10539
的呢	-10540
train	-10541
sr	-10542
idi	-10543
ved	-10544
城市的	-10545
有一点	-10546
▁Down	-10547
ponents	-10548
nan	-10549
▁Bre	-10550
汉族	-10551
▁traditional	-10552
每平方公里	-10553
买个	-10554
开幕	-10555
▁Walk	-10556
oor	-10557
就是一个	-10558
告知	-10559
▁versions	-10560
间的	-10561
▁Demographics	-10562
ointer	-10563
竞赛	-10564
izing	-10565
Gener	-10566
示范	-10567
▁Review	-10568
▁高	-10569
properties	-10570
如有	-10571
▁distance	-10572
极其	-10573
后再	-10574
要不要	-10575
我们在	-10576
▁entire	-10577
下辖以下地区	-10578
请求	-10579
▁saw	-10580
最为	-10581
▁memory	-10582
重量	-10583
十五	-10584
坦克	-10585
辅导	-10586
chnical	-10587
%)	-10588
▁needed	-10589
▁Det	-10590
科学家	-10591
MI	-10592
老家	-10593
▁numbers	-10594
审美	-10595
在乎	-10596
comment	-10597
▁Bell	-10598
atabase	-10599
PATH	-10600
ancy	-10601
where	-10602
▁Stock	-10603
的说法	-10604
各项	-10605
其他人	-10606
什么都	-10607
比利	-10608
arrant	-10609
▁believ	-10610
肯定是	-10611
lim	-10612
顾问	-10613
山区	-10614
Query	-10615
局部	-10616
▁movie	-10617
ów	-10618
Auth	-10619
break	-10620
__)	-10621
平面	-10622
题材	-10623
抄袭	-10624
▁Arizona	-10625
▁towns	-10626
opter	-10627
▁Federation	-10628
由此	-10629
出行	-10630
▁Su	-10631
Down	-10632
村民	-10633
▁travel	-10634
击败	-10635
命令	-10636
OSS	-10637
三种	-10638
形势	-10639
▁Spring	-10640
publ	-10641
ymn	-10642
详情	-10643
半夜	-10644
吉林	-10645
发送	-10646
▁alias	-10647
cow	-10648
▁nodes	-10649
尔特	-10650
▁verbose	-10651
-%	-10652
现货	-10653
脑子	-10654
▁prim	-10655
▁Malays	-10656
婆婆	-10657
知的	-10658
▁veh	-10659
▁fast	-10660
更大	-10661
毕业于	-10662
起到	-10663
▁Jes	-10664
▁cal	-10665
犹豫	-10666
队员	-10667
▁Quebec	-10668
一台	-10669
检验	-10670
▁UN	-10671
▁Current	-10672
▁Professional	-10673
▁ball	-10674
iece	-10675
可靠	-10676
▁article	-10677
ASS	-10678
▁conc	-10679
定了	-10680
英格兰	-10681
▁Alf	-10682
My	-10683
框架	-10684
▁legisl	-10685
作出	-10686
erto	-10687
安卓	-10688
携带	-10689
clear	-10690
>（	-10691
▁Queensland	-10692
▁Rome	-10693
▁Mult	-10694
stan	-10695
▁SC	-10696
▁Also	-10697
▁Three	-10698
史上	-10699
Table	-10700
Box	-10701
▁dead	-10702
寝室	-10703
tuple	-10704
荣耀	-10705
▁stack	-10706
▁issues	-10707
icut	-10708
convert	-10709
我用	-10710
▁Croat	-10711
过去了	-10712
▁Constit	-10713
opts	-10714
▁Han	-10715
的那个	-10716
mine	-10717
也被	-10718
常识	-10719
▁tensorflow	-10720
这是一	-10721
columns	-10722
erc	-10723
脑洞	-10724
对其	-10725
▁Record	-10726
▁serves	-10727
Meta	-10728
▁etc	-10729
坏了	-10730
整合	-10731
amber	-10732
我了	-10733
▁handler	-10734
央行	-10735
陆续	-10736
▁About	-10737
许可	-10738
上大学	-10739
可怜	-10740
新车	-10741
▁police	-10742
发生在	-10743
Em	-10744
行政单位	-10745
开的	-10746
▁overall	-10747
flict	-10748
▁NCAA	-10749
为此	-10750
的现象	-10751
看不到	-10752
抱歉	-10753
inent	-10754
年开始	-10755
▁regard	-10756
人心	-10757
({'	-10758
▁Hind	-10759
▁Fire	-10760
dig	-10761
qq	-10762
非要	-10763
Dr	-10764
▁chem	-10765
▁Pier	-10766
Process	-10767
vin	-10768
▁market	-10769
▁题主	-10770
▁medical	-10771
entials	-10772
▁taking	-10773
图示	-10774
▁Fre	-10775
古典	-10776
必须要	-10777
views	-10778
attrs	-10779
圈子	-10780
▁corn	-10781
特朗普	-10782
anta	-10783
唱歌	-10784
打扮	-10785
▁Medical	-10786
▁words	-10787
情人	-10788
塑料	-10789
队长	-10790
Mock	-10791
帖子	-10792
▁Real	-10793
▁WARRANTY	-10794
。。。。	-10795
同步	-10796
incial	-10797
▁Win	-10798
岁了	-10799
遭到	-10800
AND	-10801
role	-10802
Auto	-10803
orical	-10804
▁Their	-10805
engine	-10806
的公司	-10807
珍惜	-10808
出台	-10809
▁Sus	-10810
的了	-10811
▁almost	-10812
lood	-10813
摩托	-10814
签约	-10815
(__	-10816
oubles	-10817
▁Bureau	-10818
外地	-10819
▁articles	-10820
kt	-10821
新增	-10822
感觉到	-10823
▁celebr	-10824
▁Hay	-10825
ussion	-10826
acement	-10827
过后	-10828
烦恼	-10829
▁upper	-10830
定制	-10831
才发现	-10832
anna	-10833
▁choices	-10834
▁pen	-10835
大概是	-10836
expr	-10837
买卖	-10838
▁ang	-10839
igation	-10840
北京时间	-10841
Ag	-10842
知道的	-10843
▁roles	-10844
standing	-10845
▁Inf	-10846
扫描	-10847
发电	-10848
个体	-10849
▁meaning	-10850
kh	-10851
ayers	-10852
agn	-10853
同一个	-10854
考察	-10855
治理	-10856
▁minutes	-10857
在上海	-10858
七年	-10859
多吃	-10860
Desc	-10861
国有	-10862
▁ther	-10863
怎么回事	-10864
END	-10865
Hash	-10866
▁seconds	-10867
▁Duke	-10868
感受到	-10869
ahoma	-10870
phia	-10871
▁Ca	-10872
many	-10873
▁sugg	-10874
原来的	-10875
▁MA	-10876
▁stars	-10877
哪儿	-10878
分辨	-10879
▁food	-10880
部署	-10881
TP	-10882
▁马	-10883
▁mainly	-10884
▁ben	-10885
▁operator	-10886
▁Eston	-10887
精灵	-10888
▁los	-10889
牺牲	-10890
sex	-10891
靠近	-10892
公安局	-10893
heim	-10894
▁ever	-10895
▁Mike	-10896
▁collections	-10897
具体的	-10898
Frame	-10899
可以通过	-10900
社会的	-10901
▁Ell	-10902
种种	-10903
但是在	-10904
▁Nev	-10905
鼻子	-10906
ERS	-10907
arrow	-10908
▁Lady	-10909
inals	-10910
得好	-10911
嫌疑人	-10912
iler	-10913
格局	-10914
空军	-10915
died	-10916
compute	-10917
▁wid	-10918
这就	-10919
还有就是	-10920
▁nort	-10921
写了	-10922
fort	-10923
▁shell	-10924
尽快	-10925
大气	-10926
是他	-10927
空中	-10928
是美国	-10929
▁remaining	-10930
dirname	-10931
需要的	-10932
ROM	-10933
VAL	-10934
HP	-10935
▁generate	-10936
SEE	-10937
proxy	-10938
方程	-10939
▁Gil	-10940
▁cat	-10941
魔兽	-10942
▁Background	-10943
ocese	-10944
奖金	-10945
HL	-10946
癌症	-10947
▁critic	-10948
▁relative	-10949
种植	-10950
石头	-10951
▁behind	-10952
▁Shar	-10953
负面	-10954
咱们	-10955
拿出	-10956
理科	-10957
赢得	-10958
▁subsequently	-10959
athan	-10960
五个	-10961
少的	-10962
替代	-10963
个人的	-10964
Image	-10965
心灵	-10966
战役	-10967
一系列	-10968
ugu	-10969
▁university	-10970
迎来	-10971
▁otherwise	-10972
▁feder	-10973
热水	-10974
▁constant	-10975
舆论	-10976
▁callback	-10977
举个	-10978
ech	-10979
还有一个	-10980
▁reason	-10981
gorithm	-10982
一篇	-10983
青少年	-10984
病的	-10985
ariables	-10986
以此	-10987
▁Cemetery	-10988
▁ant	-10989
▁lists	-10990
▁little	-10991
▁mostly	-10992
得多	-10993
eller	-10994
来看看	-10995
▁night	-10996
区分	-10997
优先	-10998
啪啪	-10999
▁Hockey	-11000
类似问题	-11001
▁noted	-11002
损伤	-11003
公分	-11004
assertFalse	-11005
这家	-11006
▁mask	-11007
uous	-11008
rical	-11009
▁signal	-11010
▁Maryland	-11011
微笑	-11012
claim	-11013
CF	-11014
▁Cop	-11015
▁Ren	-11016
面向	-11017
做事	-11018
avi	-11019
▁spread	-11020
▁languages	-11021
▁nine	-11022
▁Beach	-11023
）？	-11024
enter	-11025
女权	-11026
有好	-11027
的话题	-11028
▁Alab	-11029
▁NO	-11030
▁competitions	-11031
南极	-11032
▁mission	-11033
带领	-11034
aux	-11035
▁McC	-11036
奥斯	-11037
爱国	-11038
激光	-11039
nic	-11040
bat	-11041
提供了	-11042
注明	-11043
的吧	-11044
过多	-11045
不适	-11046
▁warnings	-11047
Number	-11048
是用	-11049
字体	-11050
凤凰	-11051
级行政单位	-11052
▁Liter	-11053
我当时	-11054
Widget	-11055
▁Da	-11056
发布的	-11057
所属的	-11058
传统的	-11059
询问	-11060
▁Pers	-11061
七八	-11062
,,	-11063
▁Each	-11064
EE	-11065
我也不	-11066
较高	-11067
▁zip	-11068
▁Only	-11069
再度	-11070
arters	-11071
朋友的	-11072
▁dedic	-11073
台风	-11074
iqu	-11075
wall	-11076
以前的	-11077
学霸	-11078
把它	-11079
klahoma	-11080
眼神	-11081
Spec	-11082
▁Dak	-11083
loads	-11084
illing	-11085
那边	-11086
teen	-11087
偶然	-11088
We	-11089
王子	-11090
ublin	-11091
我从	-11092
首页	-11093
▁Qual	-11094
▁Cape	-11095
▁numerous	-11096
剩下	-11097
不存在	-11098
▁amount	-11099
江湖	-11100
▁nearby	-11101
引用	-11102
花费	-11103
▁我是	-11104
哥们	-11105
▁protocol	-11106
▁engineer	-11107
▁movement	-11108
agu	-11109
▁ta	-11110
基督教	-11111
eman	-11112
ression	-11113
▁Mas	-11114
到底是	-11115
▁Cas	-11116
▁Short	-11117
中介	-11118
astic	-11119
阴道	-11120
景点	-11121
global	-11122
▁Brook	-11123
的男人	-11124
▁Ent	-11125
omer	-11126
▁sql	-11127
gate	-11128
来源于	-11129
PT	-11130
▁users	-11131
乡镇级行政单位	-11132
▁Number	-11133
满满	-11134
排行	-11135
越好	-11136
▁Fair	-11137
高铁	-11138
业内	-11139
对着	-11140
这个时候	-11141
points	-11142
不适合	-11143
'"	-11144
▁HT	-11145
▁elev	-11146
数量为	-11147
波动	-11148
Implemented	-11149
我这	-11150
▁Source	-11151
主管	-11152
想问问	-11153
▁pp	-11154
喜剧	-11155
勇气	-11156
▁honor	-11157
底层	-11158
了几	-11159
艺人	-11160
▁Eth	-11161
▁cricket	-11162
wealth	-11163
former	-11164
▁Arthur	-11165
▁background	-11166
ading	-11167
▁votes	-11168
职务	-11169
然后再	-11170
王朝	-11171
▁shoot	-11172
金牌	-11173
视为	-11174
到大	-11175
商场	-11176
lyn	-11177
相亲	-11178
Page	-11179
玫瑰	-11180
下辖的一个乡镇级行政单位	-11181
▁Connecticut	-11182
伤心	-11183
指的是	-11184
alog	-11185
▁constructed	-11186
上面的	-11187
尼斯	-11188
'][	-11189
entity	-11190
ban	-11191
▁parliament	-11192
小行星	-11193
不满	-11194
▁Golden	-11195
sych	-11196
嘉宾	-11197
irement	-11198
展览	-11199
▁trade	-11200
▁painter	-11201
指定	-11202
▁attrs	-11203
的两	-11204
的过程中	-11205
scale	-11206
▁online	-11207
▁neighbor	-11208
osph	-11209
adelphia	-11210
▁Stadium	-11211
金钱	-11212
ooks	-11213
MT	-11214
冲动	-11215
严肃	-11216
Iterator	-11217
公交车	-11218
耳朵	-11219
▁SH	-11220
▁Viet	-11221
代替	-11222
的区别	-11223
绝大多数	-11224
伊朗	-11225
▁Lank	-11226
的选择	-11227
▁occurr	-11228
▁progress	-11229
护士	-11230
▁Argentine	-11231
从来没有	-11232
▁Engineering	-11233
ras	-11234
牛肉	-11235
Returns	-11236
factory	-11237
▁Lind	-11238
▁covered	-11239
itting	-11240
因为他	-11241
的文章	-11242
我所	-11243
▁Plan	-11244
给我们	-11245
isk	-11246
做饭	-11247
联合国	-11248
菲律	-11249
▁matrix	-11250
▁concert	-11251
随机	-11252
家乡	-11253
▁shown	-11254
转变	-11255
aled	-11256
▁prison	-11257
▁programs	-11258
卡尔	-11259
endar	-11260
意志	-11261
▁batch	-11262
屁股	-11263
▁Alabama	-11264
县城	-11265
返回	-11266
▁warrant	-11267
如何看待	-11268
▁settlement	-11269
▁Phys	-11270
▁Freder	-11271
orph	-11272
ел	-11273
▁security	-11274
宁波	-11275
CPU	-11276
egg	-11277
iec	-11278
ois	-11279
note	-11280
▁generated	-11281
时的人口	-11282
喜爱	-11283
补贴	-11284
▁fre	-11285
去找	-11286
你还	-11287
▁Oklahoma	-11288
▁Swiss	-11289
▁Arkansas	-11290
▁hum	-11291
菲律宾	-11292
▁Chris	-11293
▁composer	-11294
权益	-11295
loss	-11296
》*《	-11297
现任	-11298
▁surface	-11299
sample	-11300
score	-11301
wide	-11302
▁Fer	-11303
二级	-11304
风水	-11305
兼职	-11306
打破	-11307
现车	-11308
▁relationship	-11309
samples	-11310
▁governing	-11311
一对	-11312
极限	-11313
星座	-11314
啤酒	-11315
签订	-11316
放到	-11317
▁Fle	-11318
achelor	-11319
agen	-11320
DA	-11321
副主任	-11322
▁window	-11323
▁initially	-11324
▁AS	-11325
起床	-11326
▁Ale	-11327
WN	-11328
▁rate	-11329
倒是	-11330
对抗	-11331
▁Cub	-11332
界的	-11333
住在	-11334
▁serve	-11335
chestra	-11336
国内的	-11337
个人觉得	-11338
Part	-11339
面膜	-11340
认定	-11341
大人	-11342
▁Heart	-11343
袭击	-11344
▁deep	-11345
总经理	-11346
不小心	-11347
▁trail	-11348
omes	-11349
原料	-11350
以下是	-11351
jo	-11352
接口	-11353
▁miss	-11354
▁Crit	-11355
LA	-11356
▁Production	-11357
所有人	-11358
▁today	-11359
Server	-11360
ippi	-11361
以往	-11362
不一样的	-11363
CONF	-11364
热线	-11365
family	-11366
▁admin	-11367
无疑	-11368
▁ImportError	-11369
▁[[	-11370
已经有	-11371
▁executive	-11372
Write	-11373
ego	-11374
美联储	-11375
alo	-11376
sd	-11377
ANG	-11378
的技术	-11379
的人物	-11380
多大	-11381
▁separate	-11382
Result	-11383
zz	-11384
一定是	-11385
CN	-11386
」（	-11387
然后就	-11388
▁Nag	-11389
正义	-11390
转化	-11391
▁longer	-11392
士兵	-11393
▁alone	-11394
个股	-11395
font	-11396
▁installed	-11397
pm	-11398
ICE	-11399
功夫	-11400
顶级	-11401
▁Ho	-11402
的声音	-11403
女方	-11404
ValueError	-11405
atio	-11406
又名	-11407
labels	-11408
▁fight	-11409
的市镇	-11410
钓鱼	-11411
一点点	-11412
人口变化	-11413
客户端	-11414
巴巴	-11415
是种怎样的体验	-11416
('-	-11417
▁Commonwealth	-11418
ttp	-11419
监测	-11420
ithub	-11421
lon	-11422
▁transferred	-11423
"\	-11424
itiz	-11425
▁Voiv	-11426
战术	-11427
▁reverse	-11428
▁Youth	-11429
当事	-11430
▁attract	-11431
多月	-11432
▁lik	-11433
亲自	-11434
▁multi	-11435
我相信	-11436
手的	-11437
人口密度每平方公里	-11438
我是一个	-11439
▁fellow	-11440
▁Prix	-11441
先说	-11442
阿姨	-11443
会长	-11444
▁hosted	-11445
有没有什么	-11446
▁ser	-11447
▁Senior	-11448
就是在	-11449
olo	-11450
lease	-11451
体质	-11452
GG	-11453
哈哈哈	-11454
县人	-11455
高峰	-11456
▁Native	-11457
▁driver	-11458
space	-11459
▁Gree	-11460
罢了	-11461
()[	-11462
▁Argentina	-11463
套路	-11464
▁):	-11465
人口变化图示	-11466
维尔	-11467
schema	-11468
▁Austrian	-11469
走路	-11470
鉴定	-11471
有什么区别	-11472
结束后	-11473
出道	-11474
PA	-11475
假期	-11476
店铺	-11477
国企	-11478
final	-11479
▁Row	-11480
▁preserv	-11481
UE	-11482
詹姆斯	-11483
▁Prefecture	-11484
trace	-11485
"}	-11486
防守	-11487
学费	-11488
oster	-11489
▁Your	-11490
长了	-11491
仿佛	-11492
▁quarter	-11493
种类	-11494
位于法国	-11495
▁foot	-11496
的路	-11497
namespace	-11498
是的	-11499
优越	-11500
强迫	-11501
cred	-11502
▁episodes	-11503
control	-11504
▁inside	-11505
sin	-11506
市场上	-11507
ér	-11508
istance	-11509
半岛	-11510
全力	-11511
▁_("	-11512
专利	-11513
rief	-11514
教区	-11515
odeship	-11516
欧元	-11517
是怎么回事	-11518
If	-11519
GR	-11520
戏剧	-11521
Max	-11522
▁expression	-11523
搭载	-11524
挑选	-11525
无力	-11526
助理	-11527
mean	-11528
▁Liberal	-11529
宝马	-11530
年起	-11531
▁Ret	-11532
奶粉	-11533
Dir	-11534
发生的	-11535
▁Wilson	-11536
食堂	-11537
anian	-11538
'''	-11539
合物	-11540
客运	-11541
抓住	-11542
怎么说	-11543
▁Ball	-11544
uese	-11545
毛病	-11546
还有什么	-11547
Py	-11548
典型的	-11549
经历过	-11550
阿拉伯	-11551
▁piano	-11552
武装	-11553
▁leaves	-11554
与人	-11555
▁mayor	-11556
és	-11557
主观	-11558
差不	-11559
心疼	-11560
这本书	-11561
▁Human	-11562
ista	-11563
▁wrap	-11564
▁Profile	-11565
▁Ltd	-11566
▁pil	-11567
▁Website	-11568
__':	-11569
▁Mississ	-11570
抑制	-11571
决心	-11572
截止	-11573
春节	-11574
没钱	-11575
▁Justice	-11576
还算	-11577
教你	-11578
blast	-11579
▁Austria	-11580
诈骗	-11581
强行	-11582
▁extended	-11583
▁Islam	-11584
够了	-11585
旧市镇	-11586
周杰伦	-11587
寻求	-11588
Link	-11589
▁loop	-11590
期望	-11591
参加了	-11592
生成	-11593
assertIs	-11594
困惑	-11595
的海	-11596
物业	-11597
alis	-11598
配备	-11599
▁redistribute	-11600
哈尔滨	-11601
暴露	-11602
▁activities	-11603
日讯	-11604
▁oprot	-11605
像是	-11606
▁follows	-11607
种族	-11608
Serial	-11609
▁Philadelphia	-11610
raises	-11611
▁Bah	-11612
忽然	-11613
十大	-11614
▁colon	-11615
档案	-11616
Code	-11617
gregate	-11618
这个词	-11619
▁discovered	-11620
崩溃	-11621
▁Micro	-11622
周一	-11623
vals	-11624
▁care	-11625
长春	-11626
▁Hor	-11627
Arg	-11628
一个问题	-11629
很多时候	-11630
Vector	-11631
看你	-11632
当日	-11633
分享一下	-11634
oli	-11635
昭和	-11636
liter	-11637
▁painters	-11638
上海市	-11639
▁thr	-11640
ixin	-11641
▁username	-11642
本土	-11643
▁Ron	-11644
▁Voivodeship	-11645
▁card	-11646
▁Personnel	-11647
家居	-11648
已经是	-11649
都是在	-11650
▁layer	-11651
▁Tokyo	-11652
专用	-11653
unications	-11654
边缘	-11655
agh	-11656
找到了	-11657
ACE	-11658
昨晚	-11659
时代的	-11660
▁soccer	-11661
需要注意	-11662
company	-11663
▁maximum	-11664
鸡汤	-11665
▁Moscow	-11666
▁remote	-11667
▁teacher	-11668
▁setUp	-11669
▁titles	-11670
▁Melbourne	-11671
家中	-11672
▁Medalists	-11673
但他	-11674
▁higher	-11675
和小	-11676
这事	-11677
rum	-11678
扮演	-11679
users	-11680
着急	-11681
▁come	-11682
▁problem	-11683
一般来说	-11684
北海	-11685
媳妇	-11686
▁Doug	-11687
灵活	-11688
就不要	-11689
▁Licensed	-11690
受欢迎	-11691
▁plt	-11692
inson	-11693
▁mur	-11694
商店	-11695
的女人	-11696
吉他	-11697
魅族	-11698
▁fifth	-11699
司令	-11700
Off	-11701
有两	-11702
轻易	-11703
邻居	-11704
网讯	-11705
葡萄牙	-11706
个人认为	-11707
没了	-11708
▁Son	-11709
ancel	-11710
精准	-11711
助于	-11712
Lo	-11713
证实	-11714
▁Regional	-11715
▁tmp	-11716
medi	-11717
protocol	-11718
难过	-11719
▁technology	-11720
▁阿	-11721
很小	-11722
天然气	-11723
▁mention	-11724
▁Ta	-11725
▁Alumni	-11726
法师	-11727
高潮	-11728
pecially	-11729
depend	-11730
▁Belgian	-11731
德里	-11732
MD	-11733
山脉	-11734
ladesh	-11735
辩论	-11736
增值	-11737
EV	-11738
人性	-11739
▁BC	-11740
ci	-11741
▁earlier	-11742
▁messages	-11743
▁presented	-11744
采购	-11745
fe	-11746
▁someone	-11747
▁Marsh	-11748
便利	-11749
▁Kel	-11750
▁Rom	-11751
门槛	-11752
dates	-11753
pri	-11754
▁direction	-11755
▁Colomb	-11756
校区	-11757
留学生	-11758
早餐	-11759
欢乐	-11760
有种	-11761
▁soon	-11762
协助	-11763
Socket	-11764
委托	-11765
▁Kaz	-11766
oln	-11767
其中的	-11768
ateur	-11769
否认	-11770
政协	-11771
攻略	-11772
fc	-11773
存储	-11774
▁Init	-11775
大厦	-11776
的专业	-11777
`,	-11778
并于	-11779
enez	-11780
得上	-11781
江南	-11782
反驳	-11783
container	-11784
inton	-11785
不让	-11786
song	-11787
类似于	-11788
icians	-11789
作文	-11790
不来	-11791
为您	-11792
二代	-11793
▁might	-11794
▁necess	-11795
干什么	-11796
图像	-11797
▁Make	-11798
▁disable	-11799
第八	-11800
业余	-11801
▁LI	-11802
尔夫	-11803
想了解	-11804
鞋子	-11805
当然是	-11806
零售	-11807
BUG	-11808
家属	-11809
▁Honours	-11810
▁avoid	-11811
在学校	-11812
▁大家	-11813
名校	-11814
无意	-11815
届全国	-11816
▁Ross	-11817
storage	-11818
瑞典	-11819
卢瓦	-11820
▁invalid	-11821
exist	-11822
说的是	-11823
▁Map	-11824
希拉	-11825
损害	-11826
主持人	-11827
亮相	-11828
ropod	-11829
保守	-11830
▁Finnish	-11831
康复	-11832
▁documentary	-11833
▁computer	-11834
才可以	-11835
的意义	-11836
线城市	-11837
feed	-11838
▁Steve	-11839
中最	-11840
受害	-11841
water	-11842
ipients	-11843
none	-11844
atom	-11845
浏览器	-11846
MAC	-11847
电台	-11848
limit	-11849
当代	-11850
初步	-11851
▁lives	-11852
早已	-11853
move	-11854
痘痘	-11855
模仿	-11856
说要	-11857
用途	-11858
▁Taiwan	-11859
nov	-11860
▁Princ	-11861
脱离	-11862
inner	-11863
▁relations	-11864
ronic	-11865
........	-11866
应届	-11867
供参考	-11868
走进	-11869
▁Avenue	-11870
内蒙古	-11871
为法国	-11872
itzerland	-11873
双手	-11874
also	-11875
anging	-11876
压缩	-11877
也算	-11878
▁Prime	-11879
冰箱	-11880
主体	-11881
：=	-11882
Property	-11883
ORD	-11884
▁managed	-11885
▁sym	-11886
rong	-11887
▁Earth	-11888
▁Enc	-11889
cb	-11890
ZE	-11891
恐怕	-11892
▁Tal	-11893
sole	-11894
治愈	-11895
转发	-11896
的部分	-11897
减轻	-11898
rics	-11899
second	-11900
,)	-11901
libr	-11902
邮政编码为	-11903
这是我	-11904
▁Taylor	-11905
▁featuring	-11906
angle	-11907
▁cut	-11908
他还	-11909
IME	-11910
▁commands	-11911
以免	-11912
欺负	-11913
▁solo	-11914
▁remains	-11915
▁bus	-11916
出演	-11917
▁MPs	-11918
斯拉	-11919
▁towards	-11920
]*	-11921
公积	-11922
ele	-11923
ections	-11924
记者从	-11925
▁"'	-11926
▁Leon	-11927
asters	-11928
▁paper	-11929
unch	-11930
红包	-11931
千万不要	-11932
▁singers	-11933
发起	-11934
asion	-11935
奔驰	-11936
▁Greg	-11937
启用	-11938
▁starring	-11939
ulated	-11940
要想	-11941
pty	-11942
▁alt	-11943
显著	-11944
一时	-11945
味的	-11946
我不想	-11947
▁Foreign	-11948
▁formerly	-11949
▁Tan	-11950
▁programming	-11951
enders	-11952
自己在	-11953
proto	-11954
▁going	-11955
产量	-11956
lose	-11957
的爱	-11958
xff	-11959
si	-11960
▁forces	-11961
▁Whe	-11962
▁material	-11963
种子	-11964
债券	-11965
############	-11966
的存在	-11967
gnu	-11968
▁Capt	-11969
而非	-11970
(**	-11971
典型	-11972
美国人	-11973
ogether	-11974
乡村	-11975
了两	-11976
dot	-11977
▁rul	-11978
鼠标	-11979
大哥	-11980
业主	-11981
▁generally	-11982
各国	-11983
了呢	-11984
有机	-11985
分别是	-11986
▁Hard	-11987
iring	-11988
▁firm	-11989
={'	-11990
▁tx	-11991
谢谢各位	-11992
党的	-11993
PUT	-11994
上市公司	-11995
真诚	-11996
▁green	-11997
多多	-11998
▁hospital	-11999
老实	-12000
长安	-12001
eases	-12002
▁accessdate	-12003
因而	-12004
的日子	-12005
ffic	-12006
DIT	-12007
▁Hart	-12008
老师的	-12009
兰州	-12010
国家队	-12011
▁fish	-12012
模特	-12013
▁say	-12014
去过	-12015
整治	-12016
BI	-12017
▁Model	-12018
release	-12019
违反	-12020
▁documentation	-12021
一点的	-12022
FM	-12023
蛋糕	-12024
▁Bangladesh	-12025
aph	-12026
传递	-12027
.',	-12028
龙江	-12029
widget	-12030
进球	-12031
La	-12032
的天	-12033
organ	-12034
占据	-12035
扩展阅读	-12036
▁yet	-12037
▁你好	-12038
西洋	-12039
我想问	-12040
▁ancient	-12041
▁Arm	-12042
山东省	-12043
提供的	-12044
这份	-12045
旗舰	-12046
olley	-12047
cluded	-12048
原因是	-12049
▁constructor	-12050
是一位	-12051
讲究	-12052
▁charts	-12053
相应的	-12054
审查	-12055
Status	-12056
一般是	-12057
▁Finland	-12058
▁columns	-12059
▁Information	-12060
ULL	-12061
WARE	-12062
▁assigned	-12063
学了	-12064
果然	-12065
%；	-12066
▁Davis	-12067
▁condition	-12068
▁larger	-12069
之内	-12070
akers	-12071
aring	-12072
获奖	-12073
▁recent	-12074
遗址	-12075
公尺	-12076
绝望	-12077
▁Both	-12078
partner	-12079
▁headqu	-12080
市政府	-12081
scape	-12082
Valid	-12083
▁Revolution	-12084
▁classical	-12085
▁Pit	-12086
阅读原文	-12087
也不要	-12088
eeks	-12089
▁namespace	-12090
ainian	-12091
▁".	-12092
▁give	-12093
ucture	-12094
ighth	-12095
请不要	-12096
放下	-12097
”，“	-12098
认识的	-12099
何况	-12100
▁fore	-12101
未能	-12102
法规	-12103
改进	-12104
bell	-12105
▁tags	-12106
faces	-12107
剩下的	-12108
Can	-12109
Random	-12110
课堂	-12111
amm	-12112
recated	-12113
胎儿	-12114
energy	-12115
电气	-12116
出处	-12117
oration	-12118
▁merged	-12119
>'	-12120
▁Supreme	-12121
下车	-12122
水域	-12123
领域的	-12124
▁More	-12125
适量	-12126
语音	-12127
的一次	-12128
初恋	-12129
warning	-12130
document	-12131
▁Element	-12132
控股	-12133
да	-12134
餐饮	-12135
▁Sav	-12136
搜狐汽车	-12137
▁wing	-12138
无非	-12139
▁Clar	-12140
▁lake	-12141
System	-12142
▁paths	-12143
把他	-12144
过得	-12145
erbai	-12146
按摩	-12147
最高的	-12148
▁KIND	-12149
▁看到	-12150
inja	-12151
Ass	-12152
客厅	-12153
Pre	-12154
▁warranty	-12155
解析	-12156
▁notable	-12157
南昌	-12158
▁hours	-12159
离子	-12160
▁Temple	-12161
左右的	-12162
法兰	-12163
唱片	-12164
情怀	-12165
乐观	-12166
暗示	-12167
基本的	-12168
▁automatic	-12169
sey	-12170
问答社区圆桌	-12171
short	-12172
raise	-12173
▁makes	-12174
哪位	-12175
compat	-12176
▁variety	-12177
越多	-12178
flag	-12179
福州	-12180
▁Pa	-12181
▁journalist	-12182
为例	-12183
延长	-12184
rolled	-12185
azines	-12186
件事情	-12187
▁Philippines	-12188
和大	-12189
bn	-12190
无比	-12191
羽毛球	-12192
alar	-12193
▁Distribution	-12194
决策	-12195
erk	-12196
税务	-12197
operator	-12198
)+	-12199
▁Rose	-12200
▁dark	-12201
变速	-12202
Types	-12203
上次	-12204
癫痫	-12205
用心	-12206
Min	-12207
▁needs	-12208
▁brought	-12209
错过	-12210
antry	-12211
Eng	-12212
▁locality	-12213
偷偷	-12214
高效	-12215
在了	-12216
Open	-12217
')),	-12218
进展	-12219
立场	-12220
apache	-12221
不知道怎么	-12222
BL	-12223
▁Mississippi	-12224
olid	-12225
渴望	-12226
入了	-12227
封闭	-12228
kind	-12229
一直是	-12230
▁Norm	-12231
丰田	-12232
▁Khan	-12233
坚决	-12234
类型的	-12235
▁Armen	-12236
西游	-12237
人为	-12238
▁applicable	-12239
▁Pict	-12240
ictions	-12241
▁我们	-12242
是什么原因	-12243
apped	-12244
的目的	-12245
▁Greece	-12246
▁Hu	-12247
▁Oblast	-12248
rm	-12249
过年	-12250
▁makeup	-12251
运作	-12252
▁Fac	-12253
atalog	-12254
郁闷	-12255
一万	-12256
▁bit	-12257
形状	-12258
Found	-12259
▁enumer	-12260
▁NotImplemented	-12261
剧本	-12262
寿命	-12263
流传	-12264
▁sites	-12265
▁anti	-12266
▁minister	-12267
License	-12268
ét	-12269
夏令时	-12270
年美国	-12271
纪录片	-12272
零食	-12273
装置	-12274
了你	-12275
ishes	-12276
全体	-12277
▁Soccer	-12278
▁updated	-12279
还需要	-12280
zen	-12281
事后	-12282
祖父	-12283
▁FA	-12284
一堆	-12285
地板	-12286
分别为	-12287
▁stories	-12288
清新	-12289
半天	-12290
性感	-12291
说你	-12292
低的	-12293
点评	-12294
阵容	-12295
("%	-12296
▁Ky	-12297
Sup	-12298
▁victory	-12299
acebook	-12300
震撼	-12301
Child	-12302
下滑	-12303
▁copyright	-12304
也将	-12305
形的	-12306
人力	-12307
▁kil	-12308
蜂蜜	-12309
▁founder	-12310
▁Kam	-12311
▁ask	-12312
allel	-12313
opher	-12314
▁mo	-12315
▁zone	-12316
在日本	-12317
配音	-12318
▁money	-12319
directory	-12320
Enc	-12321
出任	-12322
apes	-12323
相关条目	-12324
▁Prot	-12325
oni	-12326
立法	-12327
css	-12328
走出	-12329
('%	-12330
鹿晗	-12331
专栏	-12332
▁Domin	-12333
indent	-12334
的基本	-12335
igen	-12336
一番	-12337
stro	-12338
▁Natural	-12339
不易	-12340
▁shared	-12341
年夏季	-12342
▁elector	-12343
oka	-12344
了就	-12345
器官	-12346
tty	-12347
长度	-12348
▁percent	-12349
求助	-12350
rank	-12351
▁Dakota	-12352
十六	-12353
▁ignore	-12354
Of	-12355
此后	-12356
激情	-12357
▁expect	-12358
不舒服	-12359
▁OSM	-12360
）；	-12361
▁pages	-12362
最多的	-12363
太空	-12364
德语	-12365
()	-12366
的一点	-12367
很想	-12368
ariant	-12369
惊艳	-12370
▁Pop	-12371
▁especially	-12372
▁Switzerland	-12373
测量	-12374
擅长	-12375
worth	-12376
谢谢了	-12377
▁Cost	-12378
▁covers	-12379
不做	-12380
▁academic	-12381
▁女生	-12382
▁download	-12383
无可	-12384
敌人	-12385
pb	-12386
好不好	-12387
onomy	-12388
▁Brad	-12389
▁electric	-12390
强奸	-12391
INSEE	-12392
▁eq	-12393
始建于	-12394
票房	-12395
▁})	-12396
▁Azerbai	-12397
▁literature	-12398
▁projects	-12399
uh	-12400
▁hel	-12401
真实的	-12402
再来	-12403
更重要	-12404
inline	-12405
apore	-12406
自带	-12407
gar	-12408
一共	-12409
总局	-12410
▁Comput	-12411
亲身	-12412
不出来	-12413
配套	-12414
波兰	-12415
DD	-12416
被打	-12417
andy	-12418
市镇编码为	-12419
▁geometry	-12420
今年的	-12421
忽视	-12422
plugin	-12423
▁restr	-12424
这方面	-12425
乐队	-12426
Read	-12427
oves	-12428
OF	-12429
Token	-12430
披露	-12431
之后的	-12432
asty	-12433
▁有什么	-12434
男方	-12435
▁Walter	-12436
▁Louisiana	-12437
产生了	-12438
▁positive	-12439
east	-12440
索尼	-12441
经历了	-12442
rak	-12443
远离	-12444
这些人	-12445
等方面	-12446
清水	-12447
▁agent	-12448
读研	-12449
▁Taxa	-12450
ovo	-12451
男人的	-12452
谷歌	-12453
extension	-12454
发票	-12455
学员	-12456
养生	-12457
rl	-12458
糖尿	-12459
Method	-12460
▁}}	-12461
▁Portuguese	-12462
大桥	-12463
sha	-12464
game	-12465
▁Beng	-12466
当我	-12467
女主	-12468
▁glob	-12469
米兰	-12470
▁Studies	-12471
etworks	-12472
的环境	-12473
▁多	-12474
▁notice	-12475
▁Atlantic	-12476
讲解	-12477
▁iprot	-12478
时的人口数量为	-12479
▁Wars	-12480
天生	-12481
接壤的市镇	-12482
符号	-12483
GO	-12484
刑事	-12485
容量	-12486
▁É	-12487
{{	-12488
十足	-12489
还得	-12490
选区为	-12491
▁eth	-12492
最喜欢	-12493
constant	-12494
这个世界	-12495
目录	-12496
陪伴	-12497
逝世	-12498
预告	-12499
loader	-12500
这样做	-12501
▁ke	-12502
阳市	-12503
seq	-12504
定位图	-12505
▁rap	-12506
研究院	-12507
▁vote	-12508
▁Many	-12509
这几天	-12510
▁scale	-12511
PU	-12512
▁Services	-12513
aml	-12514
产权	-12515
orney	-12516
Python	-12517
hedral	-12518
▁photograph	-12519
而来	-12520
custom	-12521
省级选区为	-12522
▁tok	-12523
所属的省级选区为	-12524
录音	-12525
inputs	-12526
只需要	-12527
▁appears	-12528
带动	-12529
aks	-12530
安全感	-12531
光明	-12532
数的	-12533
▁Hungarian	-12534
▁packet	-12535
adi	-12536
该省份	-12537
的时区为	-12538
▁哪些	-12539
▁对于	-12540
皇家	-12541
▁patch	-12542
▁金	-12543
拍的	-12544
的邮政编码为	-12545
ega	-12546
▁nd	-12547
个小	-12548
轿车	-12549
agment	-12550
layer	-12551
▁philos	-12552
概要	-12553
hard	-12554
▁majority	-12555
或旧市镇	-12556
category	-12557
西兰	-12558
▁Billboard	-12559
▁Wind	-12560
▁AC	-12561
▁Like	-12562
ingham	-12563
假的	-12564
▁用	-12565
不清楚	-12566
一日	-12567
▁remain	-12568
开设	-12569
线下	-12570
吃什么	-12571
▁小行星	-12572
进化	-12573
和一个	-12574
要在	-12575
spe	-12576
▁Si	-12577
的可能性	-12578
▁pyl	-12579
战胜	-12580
豆腐	-12581
同期	-12582
park	-12583
▁copies	-12584
川普	-12585
SET	-12586
▁replace	-12587
▁finish	-12588
▁Ukrainian	-12589
▁effort	-12590
person	-12591
缺少	-12592
疑惑	-12593
▁dedicated	-12594
不成	-12595
让孩子	-12596
领取	-12597
愤怒	-12598
vels	-12599
出场	-12600
高温	-12601
▁Default	-12602
亏损	-12603
流氓	-12604
失眠	-12605
二人	-12606
▁loan	-12607
▁pan	-12608
这边	-12609
(\	-12610
ito	-12611
Port	-12612
validate	-12613
Rep	-12614
江苏省	-12615
该省份为法国	-12616
Function	-12617
ohn	-12618
SQL	-12619
必要的	-12620
Bar	-12621
▁buried	-12622
的歌	-12623
▁Maine	-12624
▁Colon	-12625
▁cities	-12626
象征	-12627
Access	-12628
火车站	-12629
icer	-12630
▁Earl	-12631
厂家	-12632
▁compat	-12633
▁metal	-12634
模糊	-12635
分离	-12636
safe	-12637
教会	-12638
夫人	-12639
avior	-12640
enny	-12641
▁sex	-12642
抵抗	-12643
▁ctx	-12644
缺陷	-12645
学习的	-12646
▁Tar	-12647
▁Attribute	-12648
诸多	-12649
▁storage	-12650
RES	-12651
▁Aud	-12652
书法	-12653
如同	-12654
但也	-12655
挖掘	-12656
▁Lewis	-12657
bra	-12658
屌丝	-12659
uen	-12660
创立	-12661
ashion	-12662
余额	-12663
换个	-12664
汉字	-12665
force	-12666
成立于	-12667
▁[(	-12668
增加了	-12669
▁racing	-12670
阻止	-12671
唯一的	-12672
▁har	-12673
▁Belgium	-12674
▁figure	-12675
▁scope	-12676
iant	-12677
墨西	-12678
▁Police	-12679
理事	-12680
未必	-12681
遗产	-12682
▁App	-12683
▁officers	-12684
大力	-12685
球场	-12686
▁contents	-12687
▁dipl	-12688
的就	-12689
感觉自己	-12690
是哪	-12691
方言	-12692
水库	-12693
不怕	-12694
玩了	-12695
rait	-12696
team	-12697
PM	-12698
▁HTML	-12699
atively	-12700
▁Stephen	-12701
亮点	-12702
百年	-12703
▁seats	-12704
见的	-12705
reshold	-12706
bed	-12707
教室	-12708
审计	-12709
elle	-12710
▁Portugal	-12711
出自	-12712
调研	-12713
时不	-12714
pson	-12715
prop	-12716
我想知道	-12717
受不了	-12718
神话	-12719
▁thus	-12720
公积金	-12721
数据显示	-12722
LICENSE	-12723
ears	-12724
对她	-12725
▁transform	-12726
上看	-12727
今后	-12728
通用	-12729
Android	-12730
这也	-12731
▁Compet	-12732
辣椒	-12733
▁Ka	-12734
上图	-12735
温馨	-12736
▁%}	-12737
▁pal	-12738
台词	-12739
现有	-12740
▁probably	-12741
▁visit	-12742
▁Harvard	-12743
▁Labor	-12744
部落	-12745
护肤品	-12746
应该怎么	-12747
▁limited	-12748
青海	-12749
▁Cab	-12750
▁qualified	-12751
classmethod	-12752
Ne	-12753
轻轻	-12754
▁converted	-12755
▁Reception	-12756
退役	-12757
sequence	-12758
现在已经	-12759
▁Batt	-12760
有望	-12761
▁protein	-12762
不明白	-12763
▁grew	-12764
▁TH	-12765
都觉得	-12766
要说	-12767
▁Jacob	-12768
▁Non	-12769
icient	-12770
this	-12771
high	-12772
▁什么	-12773
▁看	-12774
真的有	-12775
自觉	-12776
life	-12777
的一座	-12778
cal	-12779
▁Bab	-12780
ansion	-12781
扶贫	-12782
=_	-12783
▁Ocean	-12784
▁Tamil	-12785
▁derived	-12786
第三方	-12787
ardo	-12788
▁Affairs	-12789
dam	-12790
▁((	-12791
几句	-12792
一同	-12793
▁Nik	-12794
Tube	-12795
tool	-12796
IX	-12797
▁inhabit	-12798
awn	-12799
用手	-12800
艺兴	-12801
▁repe	-12802
▁residents	-12803
长征	-12804
ting	-12805
救援	-12806
震惊	-12807
▁comput	-12808
语法	-12809
新能源	-12810
▁Romanized	-12811
▁cy	-12812
的功能	-12813
▁determin	-12814
大四	-12815
BE	-12816
玉米	-12817
工作室	-12818
gers	-12819
势力	-12820
均线	-12821
均匀	-12822
把你	-12823
候选	-12824
▁Dun	-12825
同比增长	-12826
▁compliance	-12827
▁mixed	-12828
最后的	-12829
pers	-12830
▁BAS	-12831
▁musician	-12832
norm	-12833
农历	-12834
▁Lar	-12835
艺术家	-12836
git	-12837
▁affili	-12838
学长	-12839
fun	-12840
你去	-12841
ogs	-12842
white	-12843
愉快	-12844
国人	-12845
混乱	-12846
诉讼	-12847
）#	-12848
上半年	-12849
参观	-12850
▁可以	-12851
绘画	-12852
STAT	-12853
处理器	-12854
放大	-12855
amilies	-12856
你也	-12857
emplates	-12858
▁bill	-12859
▁referred	-12860
较多	-12861
街头	-12862
二本	-12863
symbol	-12864
▁stated	-12865
早晨	-12866
▁plot	-12867
season	-12868
matrix	-12869
mut	-12870
▁estate	-12871
LECT	-12872
斯基	-12873
的食物	-12874
GA	-12875
前端	-12876
燃烧	-12877
眼皮	-12878
男票	-12879
公元	-12880
▁limitations	-12881
ropical	-12882
button	-12883
传承	-12884
比起	-12885
▁legal	-12886
mina	-12887
▁motor	-12888
astropod	-12889
推荐的	-12890
进程	-12891
▁Philip	-12892
▁fiction	-12893
▁secondary	-12894
▁Ali	-12895
▁Hou	-12896
属下的一个	-12897
安德	-12898
到什么	-12899
干货	-12900
想做	-12901
有机会	-12902
▁vert	-12903
tainment	-12904
▁federal	-12905
ully	-12906
Note	-12907
▁最近	-12908
ра	-12909
ledge	-12910
在中	-12911
目的是	-12912
墨西哥	-12913
▁succeeded	-12914
乐趣	-12915
IntegerField	-12916
▁engineering	-12917
失去了	-12918
GDP	-12919
发型	-12920
来自于	-12921
▁illustr	-12922
INGS	-12923
▁alongside	-12924
▁coordin	-12925
匹配	-12926
GS	-12927
完美的	-12928
是被	-12929
_,	-12930
一眼	-12931
MET	-12932
▁Turn	-12933
▁calls	-12934
▁Fa	-12935
osen	-12936
多人	-12937
政权	-12938
这里的	-12939
发作	-12940
买入	-12941
说自己	-12942
▁insp	-12943
体检	-12944
而我	-12945
约为	-12946
under	-12947
手里	-12948
婚纱	-12949
气氛	-12950
★★	-12951
MC	-12952
vas	-12953
本题已	-12954
▁trav	-12955
▁Marc	-12956
原子	-12957
free	-12958
▁Memorial	-12959
家里的	-12960
DEFAULT	-12961
隔壁	-12962
Mode	-12963
VE	-12964
咳嗽	-12965
前途	-12966
▁helped	-12967
FILE	-12968
▁Trust	-12969
在我们	-12970
elli	-12971
Google	-12972
▁theory	-12973
国民党	-12974
▁latter	-12975
人口普查	-12976
▁Architect	-12977
到你	-12978
▁commonly	-12979
=（	-12980
nia	-12981
说服	-12982
▁Od	-12983
都不能	-12984
的消息	-12985
特性	-12986
contin	-12987
▁divided	-12988
cheduled	-12989
开玩笑	-12990
称号	-12991
emon	-12992
▁sets	-12993
克服	-12994
热量	-12995
大数据	-12996
fetch	-12997
下次	-12998
▁对	-12999
做得	-13000
司马	-13001
▁nominated	-13002
地域	-13003
mediate	-13004
反感	-13005
▁Chap	-13006
悲剧	-13007
名人	-13008
▁summary	-13009
imin	-13010
▁scholar	-13011
应该如何	-13012
占领	-13013
▁Environment	-13014
主板	-13015
更容易	-13016
内涵	-13017
市委	-13018
▁Guard	-13019
▁habit	-13020
asht	-13021
通行	-13022
YR	-13023
沿海	-13024
▁Wy	-13025
▁internal	-13026
任意	-13027
本届	-13028
着我	-13029
创始人	-13030
事业单位	-13031
真人	-13032
▁army	-13033
incoln	-13034
网址	-13035
眼泪	-13036
考上	-13037
给我的	-13038
生活在	-13039
疲劳	-13040
▁Wat	-13041
([[	-13042
ea	-13043
隧道	-13044
钢铁	-13045
每个月	-13046
adding	-13047
▁certain	-13048
▁skip	-13049
eq	-13050
已经被	-13051
层面	-13052
▁font	-13053
▁José	-13054
window	-13055
▁Denmark	-13056
夸张	-13057
了啊	-13058
带来了	-13059
的你	-13060
Pad	-13061
▁chairman	-13062
▁Barn	-13063
的观点	-13064
▁creation	-13065
爆料	-13066
▁letter	-13067
▁bal	-13068
正经	-13069
▁foreign	-13070
台中	-13071
▁fake	-13072
纳税	-13073
▁Venez	-13074
可用	-13075
萨克	-13076
自来	-13077
走的	-13078
材质	-13079
可谓	-13080
▁container	-13081
又要	-13082
那样的	-13083
kel	-13084
▁Champions	-13085
第一时间	-13086
paths	-13087
▁Parameters	-13088
▁voice	-13089
当下	-13090
▁Ira	-13091
万一	-13092
日内	-13093
scription	-13094
不妨	-13095
▁Fern	-13096
钥匙	-13097
职场	-13098
AttributeValue	-13099
影响力	-13100
yrics	-13101
▁primarily	-13102
SER	-13103
也都	-13104
▁Corps	-13105
.	-13106
▁Zh	-13107
均为	-13108
的研究	-13109
违规	-13110
▁requests	-13111
出一	-13112
andon	-13113
Br	-13114
)",	-13115
牛仔	-13116
姓名	-13117
▁edge	-13118
多元	-13119
就是这样	-13120
自拍	-13121
▁作为一个	-13122
ín	-13123
▁gene	-13124
创办	-13125
aming	-13126
道具	-13127
▁images	-13128
▁Fellow	-13129
▁Hans	-13130
▁champions	-13131
当成	-13132
▁'')	-13133
fp	-13134
久的	-13135
▁Studio	-13136
Hz	-13137
芯片	-13138
▁murder	-13139
irit	-13140
ifies	-13141
冰冰	-13142
▁stdout	-13143
▁Language	-13144
LS	-13145
哭了	-13146
刚才	-13147
黑龙江	-13148
▁integr	-13149
▁foo	-13150
iva	-13151
认真的	-13152
▁capacity	-13153
有一定	-13154
▁theatre	-13155
▁Divis	-13156
口碑	-13157
的前提	-13158
指教	-13159
tle	-13160
▁householder	-13161
SION	-13162
全长	-13163
抗日	-13164
多年的	-13165
玩意	-13166
寂寞	-13167
医药	-13168
先锋	-13169
周五	-13170
制品	-13171
Web	-13172
海岸	-13173
▁decl	-13174
撤销	-13175
时间的	-13176
▁responsible	-13177
独自	-13178
country	-13179
战场	-13180
比较好的	-13181
▁compilation	-13182
年被	-13183
LC	-13184
▁battle	-13185
舍友	-13186
阴影	-13187
的后	-13188
▁assign	-13189
▁wild	-13190
▁Harry	-13191
车身	-13192
首席	-13193
▁Draw	-13194
▁人	-13195
Ab	-13196
▁Regiment	-13197
天地	-13198
▁Cons	-13199
热的	-13200
太过	-13201
Warning	-13202
按钮	-13203
▁Index	-13204
Co	-13205
▁Unless	-13206
现在是	-13207
olleyball	-13208
关联	-13209
新建	-13210
不通	-13211
▁Singapore	-13212
）-	-13213
ERROR	-13214
▁blue	-13215
补充一下	-13216
▁----	-13217
▁Leb	-13218
就不能	-13219
▁temper	-13220
▁subprocess	-13221
萨斯	-13222
▁stay	-13223
▁Entertainment	-13224
amilton	-13225
Boo	-13226
▁strip	-13227
威廉	-13228
特定	-13229
▁implementation	-13230
nn	-13231
ayan	-13232
户外	-13233
笔者	-13234
厚的	-13235
MAX	-13236
价位	-13237
曼联	-13238
▁Player	-13239
入选	-13240
大夫	-13241
发放	-13242
路段	-13243
只好	-13244
▁yellow	-13245
▁purchased	-13246
激活	-13247
条例	-13248
养成	-13249
created	-13250
▁enumerate	-13251
同时也	-13252
会影响	-13253
只有一个	-13254
Entry	-13255
Sm	-13256
▁Dal	-13257
ologists	-13258
给孩子	-13259
▁obtained	-13260
▁prominent	-13261
▁Tun	-13262
▁Abd	-13263
tok	-13264
批判	-13265
▁leaving	-13266
流通	-13267
design	-13268
乘坐	-13269
original	-13270
一座	-13271
reset	-13272
DateTime	-13273
跟她	-13274
打的	-13275
▁Conf	-13276
若干	-13277
斯克	-13278
体力	-13279
▁racial	-13280
aret	-13281
asing	-13282
▁room	-13283
没啥	-13284
▁IV	-13285
▁Gram	-13286
▁allows	-13287
imer	-13288
▁Metro	-13289
的使用	-13290
holder	-13291
金山	-13292
▁Ker	-13293
sentry	-13294
女人的	-13295
这场	-13296
▁Hun	-13297
锤子	-13298
得分	-13299
的看法	-13300
▁reserved	-13301
了不少	-13302
▁Puerto	-13303
▁Players	-13304
exceptions	-13305
要不	-13306
举例	-13307
太高	-13308
Array	-13309
oting	-13310
secut	-13311
▁Nep	-13312
.<	-13313
短线	-13314
熬夜	-13315
▁usage	-13316
▁prepar	-13317
zi	-13318
未知	-13319
.-	-13320
大规模	-13321
春天	-13322
命中	-13323
escape	-13324
幼稚	-13325
落地	-13326
WE	-13327
有利于	-13328
▁brown	-13329
了的	-13330
水中	-13331
▁Indonesia	-13332
的上	-13333
▁resources	-13334
海域	-13335
红军	-13336
视角	-13337
uda	-13338
▁Ice	-13339
无所谓	-13340
土豆	-13341
防晒	-13342
;\	-13343
有趣的	-13344
外汇	-13345
像素	-13346
restling	-13347
▁buf	-13348
▁cluster	-13349
▁Cricket	-13350
don	-13351
透过	-13352
合理的	-13353
眼前	-13354
汽油	-13355
不超过	-13356
▁Juan	-13357
回顾	-13358
车上	-13359
你怎么	-13360
▁Defunct	-13361
▁inters	-13362
提起	-13363
流浪	-13364
▁nation	-13365
维亚	-13366
对中国	-13367
attempt	-13368
提名	-13369
秩序	-13370
ugins	-13371
JR	-13372
对自己的	-13373
奥林匹克运动会	-13374
▁inputs	-13375
▁twice	-13376
TC	-13377
variables	-13378
半小时	-13379
olia	-13380
回落	-13381
实的	-13382
▁Hampshire	-13383
前者	-13384
可以是	-13385
▁resident	-13386
热闹	-13387
oba	-13388
FTWARE	-13389
！）	-13390
傻逼	-13391
finals	-13392
false	-13393
▁rot	-13394
▁lock	-13395
他们在	-13396
是我的	-13397
足够的	-13398
总决赛	-13399
起点	-13400
会觉得	-13401
▁LOG	-13402
品牌的	-13403
当作	-13404
生殖	-13405
糟糕	-13406
enabled	-13407
backs	-13408
浙江省	-13409
▁Budd	-13410
可行	-13411
有几个	-13412
乐团	-13413
rb	-13414
igger	-13415
▁contest	-13416
全民	-13417
是好	-13418
巅峰	-13419
医师	-13420
的标准	-13421
酒精	-13422
流域	-13423
olis	-13424
▁acting	-13425
听力	-13426
orer	-13427
学金	-13428
verbose	-13429
▁Balt	-13430
一方	-13431
默认	-13432
颁奖	-13433
了我的	-13434
▁Product	-13435
饭店	-13436
精选	-13437
到来	-13438
room	-13439
▁Antarctic	-13440
']),	-13441
▁notes	-13442
情的	-13443
切尔	-13444
手游	-13445
一下子	-13446
科幻	-13447
伟大	-13448
grid	-13449
parts	-13450
起来了	-13451
▁Third	-13452
数码	-13453
▁EN	-13454
ellig	-13455
▁_('	-13456
aro	-13457
不宜	-13458
URE	-13459
说出	-13460
POST	-13461
辖区	-13462
▁Rights	-13463
eton	-13464
口语	-13465
洗衣	-13466
大队	-13467
活力	-13468
我们可以	-13469
home	-13470
发售	-13471
▁Schools	-13472
环球	-13473
inea	-13474
主义者	-13475
▁'#	-13476
家庄	-13477
▁moving	-13478
timestamp	-13479
resents	-13480
oup	-13481
▁Ped	-13482
▁dance	-13483
▁Staff	-13484
智力	-13485
精品	-13486
USER	-13487
吃完	-13488
undle	-13489
挺好的	-13490
轮胎	-13491
军人	-13492
▁Before	-13493
附近的	-13494
了下	-13495
名词	-13496
人均	-13497
就这么	-13498
冒险	-13499
mers	-13500
uplic	-13501
olas	-13502
▁Box	-13503
维奇	-13504
的学习	-13505
货物	-13506
Queue	-13507
itled	-13508
OO	-13509
▁taught	-13510
对方的	-13511
▁陈	-13512
复合	-13513
奢侈	-13514
Many	-13515
尽可能	-13516
▁share	-13517
ws	-13518
一说	-13519
uis	-13520
▁connected	-13521
▁painting	-13522
看电影	-13523
交易所	-13524
加息	-13525
气息	-13526
视野	-13527
ITE	-13528
▁Gre	-13529
还将	-13530
交叉	-13531
没必要	-13532
长按二维码	-13533
布鲁	-13534
DITIONS	-13535
会很	-13536
犹太	-13537
差点	-13538
▁actually	-13539
无所	-13540
帽子	-13541
现时	-13542
▁tower	-13543
Block	-13544
引进	-13545
▁Dur	-13546
▁今天	-13547
是我们	-13548
▁Ban	-13549
漂亮的	-13550
解决方案	-13551
▁positions	-13552
▁Modern	-13553
要做	-13554
iOS	-13555
▁walk	-13556
小型	-13557
历任	-13558
注射	-13559
▁restaur	-13560
大事	-13561
▁Anne	-13562
吃过	-13563
科学院	-13564
▁Welsh	-13565
▁async	-13566
三四	-13567
▁brand	-13568
▁heart	-13569
▁Sud	-13570
heastern	-13571
发布了	-13572
一层	-13573
olumes	-13574
就觉得	-13575
那个时候	-13576
中毒	-13577
▁Qt	-13578
▁thought	-13579
亲密	-13580
怎样才能	-13581
总监	-13582
自私	-13583
自称	-13584
的社会	-13585
▁registered	-13586
▁Lor	-13587
oslav	-13588
▁Il	-13589
好玩	-13590
iso	-13591
座椅	-13592
▁Mit	-13593
▁doctor	-13594
▁Kur	-13595
azon	-13596
不同意	-13597
动的	-13598
完全没有	-13599
友好	-13600
▁hor	-13601
狮子	-13602
▁请	-13603
架构	-13604
▁Lincoln	-13605
▁ess	-13606
warn	-13607
让大家	-13608
电路	-13609
▁Lith	-13610
▁inher	-13611
UTH	-13612
▁Ghana	-13613
([])	-13614
▁batt	-13615
等着	-13616
反馈	-13617
达到了	-13618
想买	-13619
remote	-13620
沙发	-13621
每天都	-13622
毫不	-13623
商标	-13624
▁Method	-13625
owner	-13626
变形	-13627
但还是	-13628
宝石	-13629
换了	-13630
istration	-13631
uge	-13632
▁brief	-13633
聚会	-13634
▁Serbian	-13635
▁basic	-13636
一批	-13637
重建	-13638
iated	-13639
▁whole	-13640
▁Ukraine	-13641
▁Labour	-13642
▁Johann	-13643
前任	-13644
的需求	-13645
爱心	-13646
▁comes	-13647
疫苗	-13648
航班	-13649
Boolean	-13650
▁couples	-13651
▁Channel	-13652
秋季	-13653
送到	-13654
付款	-13655
▁floor	-13656
河南省	-13657
ibly	-13658
是自己	-13659
几千	-13660
桌面	-13661
马尔	-13662
▁有没有	-13663
雅思	-13664
购房	-13665
东风	-13666
▁cab	-13667
因为你	-13668
riev	-13669
▁concern	-13670
upper	-13671
融入	-13672
▁RE	-13673
▁depart	-13674
如果不是	-13675
▁Jane	-13676
▁CDP	-13677
▁runner	-13678
▁emigr	-13679
▁street	-13680
本站	-13681
四川省	-13682
▁opts	-13683
▁Maur	-13684
▁aged	-13685
健身房	-13686
▁jazz	-13687
住院	-13688
amma	-13689
argin	-13690
▁BASIS	-13691
▁micro	-13692
Interface	-13693
▁Jord	-13694
勉强	-13695
yard	-13696
▁Pap	-13697
gb	-13698
erview	-13699
which	-13700
▁CONDITIONS	-13701
(%	-13702
国庆	-13703
▁Simon	-13704
▁Comple	-13705
聚集	-13706
music	-13707
én	-13708
生病	-13709
要用	-13710
▁美国	-13711
▁pip	-13712
▁institutions	-13713
开头	-13714
Project	-13715
中国共产党	-13716
指责	-13717
高二	-13718
合约	-13719
▁Prad	-13720
桃花	-13721
前段时间	-13722
▁Gord	-13723
等奖	-13724
▁Naz	-13725
经纪	-13726
Trace	-13727
冷静	-13728
▁AD	-13729
关系的	-13730
▁Independent	-13731
perial	-13732
关注的	-13733
▁Ot	-13734
▁stone	-13735
换成	-13736
所需	-13737
▁Whit	-13738
爱我	-13739
▁marker	-13740
Sw	-13741
分裂	-13742
▁applied	-13743
▁officially	-13744
画画	-13745
West	-13746
▁Cur	-13747
私信	-13748
dirs	-13749
▁这个问题	-13750
oun	-13751
▁Houses	-13752
▁Squad	-13753
转向	-13754
▁Ten	-13755
▁insert	-13756
▁inhabitants	-13757
▁validate	-13758
却没有	-13759
只能说	-13760
前三	-13761
▁problems	-13762
▁flat	-13763
以内	-13764
人了	-13765
也比较	-13766
差的	-13767
▁Brig	-13768
娱乐圈	-13769
▁Site	-13770
考验	-13771
眼光	-13772
今晚	-13773
乔治	-13774
▁Ern	-13775
]])	-13776
兔子	-13777
▁involv	-13778
试着	-13779
HTML	-13780
usage	-13781
加热	-13782
操作系统	-13783
分解	-13784
友谊	-13785
▁translation	-13786
等你	-13787
security	-13788
▁fort	-13789
▁component	-13790
anton	-13791
▁北京	-13792
▁Config	-13793
lookup	-13794
父母的	-13795
lets	-13796
遇到了	-13797
▁Utah	-13798
王国	-13799
▁premier	-13800
▁Building	-13801
▁urllib	-13802
▁oil	-13803
各方面	-13804
▁schema	-13805
Script	-13806
评论区	-13807
景观	-13808
的啊	-13809
该公司	-13810
Filter	-13811
=-	-13812
恒星	-13813
orf	-13814
[:,	-13815
▁pitch	-13816
摇滚	-13817
五月	-13818
天空	-13819
嘿嘿	-13820
▁ga	-13821
潮流	-13822
▁extract	-13823
Color	-13824
Red	-13825
▁cause	-13826
为自己	-13827
太太	-13828
inema	-13829
园区	-13830
大叔	-13831
猪肉	-13832
panic	-13833
▁Jer	-13834
eep	-13835
小孩子	-13836
▁returning	-13837
身边的	-13838
▁weeks	-13839
Rel	-13840
▁Execut	-13841
Pol	-13842
必备	-13843
可爱的	-13844
机动车	-13845
少量	-13846
▁factory	-13847
含义	-13848
rawheight	-13849
async	-13850
ynasty	-13851
▁diss	-13852
ifiers	-13853
▁Wolf	-13854
▁Honor	-13855
的风	-13856
无需	-13857
idges	-13858
▁semi	-13859
之为	-13860
▁politics	-13861
低调	-13862
模块	-13863
是想	-13864
清除	-13865
趣味	-13866
申报	-13867
eston	-13868
是怎样一种	-13869
号的	-13870
▁Venezuel	-13871
▁Last	-13872
摄像头	-13873
时期的	-13874
离职	-13875
Tensor	-13876
称呼	-13877
一颗	-13878
▁Miller	-13879
外界	-13880
九年	-13881
翡翠	-13882
▁improv	-13883
tools	-13884
利息	-13885
比赛中	-13886
▁Sett	-13887
诞生	-13888
体长	-13889
排卵	-13890
大选	-13891
▁fa	-13892
密切	-13893
县的一个	-13894
ishops	-13895
▁Male	-13896
ialect	-13897
ante	-13898
更大的	-13899
FR	-13900
但这	-13901
下属	-13902
乃至	-13903
日记	-13904
▁Ko	-13905
感觉很	-13906
Tree	-13907
万的	-13908
▁你们	-13909
'^	-13910
中等	-13911
预约	-13912
考核	-13913
ORS	-13914
一波	-13915
▁Fe	-13916
▁meet	-13917
相对于	-13918
pdf	-13919
转让	-13920
▁Kat	-13921
▁pers	-13922
▁"<	-13923
不合	-13924
希拉里	-13925
十月	-13926
▁Low	-13927
rier	-13928
奥地	-13929
NetDevice	-13930
term	-13931
自身的	-13932
▁financial	-13933
try	-13934
expand	-13935
其后	-13936
azy	-13937
▁mechan	-13938
▁core	-13939
sim	-13940
It	-13941
第九	-13942
得出	-13943
zo	-13944
皇后	-13945
rence	-13946
▁actions	-13947
▁caused	-13948
光绪	-13949
健康的	-13950
▁Burn	-13951
Direct	-13952
▁Digital	-13953
▁bow	-13954
喝水	-13955
▁sail	-13956
得起	-13957
相声	-13958
▁Nar	-13959
沉默	-13960
文件夹	-13961
法官	-13962
立马	-13963
好人	-13964
acent	-13965
▁Bird	-13966
▁Well	-13967
▁entity	-13968
▁utils	-13969
▁forest	-13970
windows	-13971
做爱	-13972
AK	-13973
楼市	-13974
▁generator	-13975
▁supports	-13976
理智	-13977
海峡	-13978
ategy	-13979
老大	-13980
▁commune	-13981
exe	-13982
不怎么	-13983
▁exit	-13984
▁Pun	-13985
peror	-13986
不受	-13987
大多数人	-13988
hop	-13989
raction	-13990
取决	-13991
families	-13992
高清	-13993
专题	-13994
场地	-13995
thony	-13996
▁rom	-13997
itory	-13998
Container	-13999
刻意	-14000
岁时	-14001
ctype	-14002
eventh	-14003
未经	-14004
▁proper	-14005
黑人	-14006
▁Magazine	-14007
似的	-14008
▁mapping	-14009
残疾	-14010
暴雨	-14011
用药	-14012
Am	-14013
布拉	-14014
马云	-14015
足以	-14016
MPL	-14017
▁Hamilton	-14018
下一个	-14019
过去的	-14020
裤子	-14021
▁something	-14022
传染	-14023
鄙视	-14024
加点	-14025
zero	-14026
会导致	-14027
▁meeting	-14028
▁directors	-14029
起来的	-14030
▁theme	-14031
开口	-14032
)])	-14033
时常	-14034
▁Romania	-14035
▁Internet	-14036
醒来	-14037
▁Las	-14038
▁pand	-14039
误解	-14040
▁::	-14041
iu	-14042
▁roll	-14043
主机	-14044
沙特	-14045
化合物	-14046
摆脱	-14047
发病	-14048
长城	-14049
还不如	-14050
RefCount	-14051
eless	-14052
▁creating	-14053
ptr	-14054
▁invent	-14055
侵权	-14056
人类的	-14057
▁chain	-14058
也不错	-14059
▁cam	-14060
straint	-14061
刹车	-14062
acl	-14063
▁Fame	-14064
路边	-14065
有帮助	-14066
▁Pot	-14067
之战	-14068
就来	-14069
遇到过	-14070
▁Dublin	-14071
扩张	-14072
粤语	-14073
可在	-14074
cloud	-14075
？）	-14076
elta	-14077
▁bin	-14078
ynamic	-14079
▁enough	-14080
media	-14081
▁blocks	-14082
条约	-14083
泡沫	-14084
潜力	-14085
加州	-14086
什么样	-14087
完成了	-14088
下列	-14089
公寓	-14090
无效	-14091
▁Laur	-14092
card	-14093
懂的	-14094
天文	-14095
杀死	-14096
football	-14097
骄傲	-14098
的形式	-14099
overty	-14100
》(	-14101
=',	-14102
star	-14103
会让	-14104
▁instrument	-14105
线条	-14106
乐视	-14107
▁ensure	-14108
.%	-14109
学生的	-14110
首先要	-14111
▁Malaysia	-14112
隐患	-14113
阶层	-14114
▁Nap	-14115
▁testing	-14116
为大家	-14117
此类	-14118
快捷	-14119
▁BO	-14120
题主的	-14121
mediately	-14122
收视	-14123
镇区	-14124
iful	-14125
BM	-14126
cursor	-14127
▁Dream	-14128
能让	-14129
出租车	-14130
▁Musical	-14131
▁Heritage	-14132
RECT	-14133
▁###	-14134
举行的	-14135
抽烟	-14136
直至	-14137
▁Adam	-14138
最新的	-14139
不被	-14140
▁没有	-14141
commit	-14142
▁Patrick	-14143
▁"-	-14144
了一次	-14145
找我	-14146
ynch	-14147
▁survey	-14148
iced	-14149
▁sit	-14150
▁machine	-14151
拍卖	-14152
▁Barb	-14153
炎症	-14154
促销	-14155
摄影师	-14156
我是个	-14157
？”“	-14158
sects	-14159
▁Page	-14160
▁Brian	-14161
inburgh	-14162
ependence	-14163
▁religious	-14164
▁Unincorporated	-14165
ère	-14166
社保	-14167
这首歌	-14168
execut	-14169
骗子	-14170
两侧	-14171
asa	-14172
单一	-14173
▁KeyError	-14174
agan	-14175
独特的	-14176
bach	-14177
▁Hotel	-14178
领袖	-14179
一世	-14180
mk	-14181
▁SOFTWARE	-14182
手表	-14183
崛起	-14184
避孕	-14185
▁agric	-14186
▁hosts	-14187
推出的	-14188
▁FM	-14189
提及	-14190
可以说是	-14191
▁Nebr	-14192
还有很多	-14193
▁carried	-14194
▁Antonio	-14195
▁airport	-14196
接收	-14197
说起	-14198
这么多人	-14199
班主任	-14200
八字	-14201
▁holds	-14202
▁Space	-14203
钻石	-14204
▁Affero	-14205
汇率	-14206
alg	-14207
判决	-14208
reement	-14209
提出了	-14210
变的	-14211
▁当	-14212
▁Howard	-14213
hostname	-14214
▁Mand	-14215
的山	-14216
到位	-14217
焦点	-14218
SimpleRefCount	-14219
▁Rol	-14220
刷新	-14221
▁marine	-14222
附加	-14223
今天的	-14224
指南	-14225
这么说	-14226
Back	-14227
任命	-14228
▁----------	-14229
下行	-14230
卧室	-14231
unity	-14232
糖尿病	-14233
private	-14234
夫妇	-14235
米尔	-14236
bul	-14237
Refer	-14238
ircle	-14239
排队	-14240
orning	-14241
▁flows	-14242
Lev	-14243
▁Express	-14244
▁Ts	-14245
保安	-14246
加重	-14247
脑残	-14248
签署	-14249
library	-14250
！！！	-14251
宽松	-14252
FLAG	-14253
▁heavy	-14254
NH	-14255
介入	-14256
▁Israeli	-14257
opes	-14258
叫我	-14259
▁Table	-14260
▁Rest	-14261
▁圣	-14262
ourses	-14263
工作中	-14264
.\	-14265
▁enter	-14266
好听	-14267
▁tal	-14268
yles	-14269
委屈	-14270
BD	-14271
不会有	-14272
以为是	-14273
▁shop	-14274
Sl	-14275
▁basis	-14276
▁Code	-14277
订单	-14278
其妙	-14279
▁",	-14280
assertIn	-14281
▁concept	-14282
水分	-14283
，，	-14284
ivo	-14285
hematics	-14286
▁Perform	-14287
thology	-14288
越大	-14289
不要太	-14290
成年人	-14291
的速度	-14292
▁expanded	-14293
在那	-14294
主要的	-14295
PAR	-14296
面子	-14297
隶属于	-14298
▁Fox	-14299
ici	-14300
▁exact	-14301
adow	-14302
▁Vin	-14303
受益	-14304
▁OTH	-14305
undred	-14306
埃及	-14307
竞争力	-14308
pret	-14309
精华	-14310
温和	-14311
▁Bry	-14312
▁Hom	-14313
不愿	-14314
图标	-14315
FS	-14316
的概念	-14317
真爱	-14318
Ver	-14319
这项	-14320
internet	-14321
▁Berg	-14322
▁widget	-14323
一项	-14324
补偿	-14325
▁opera	-14326
Qt	-14327
鉴于	-14328
▁produce	-14329
实时	-14330
▁Decimal	-14331
ни	-14332
background	-14333
试点	-14334
内向	-14335
再去	-14336
期限	-14337
猜测	-14338
▁刘	-14339
地质	-14340
高一	-14341
事务所	-14342
▁smaller	-14343
▁cm	-14344
endswith	-14345
嘲讽	-14346
orough	-14347
大牛	-14348
这样一个	-14349
uma	-14350
▁CH	-14351
▁northeast	-14352
几位	-14353
头上	-14354
取决于	-14355
志愿者	-14356
:#	-14357
▁Nich	-14358
不给	-14359
我们是	-14360
()))	-14361
▁"__	-14362
▁zero	-14363
奥迪	-14364
▁stri	-14365
▁necessary	-14366
得以	-14367
▁fp	-14368
通报	-14369
电动车	-14370
独家	-14371
局面	-14372
▁locations	-14373
▁norm	-14374
采用了	-14375
除此	-14376
男神	-14377
eland	-14378
贵族	-14379
eature	-14380
中新网	-14381
开发商	-14382
只有一	-14383
▁Gon	-14384
▁Story	-14385
适用	-14386
▁commit	-14387
alty	-14388
老虎	-14389
zeros	-14390
▁operating	-14391
法的	-14392
感谢大家	-14393
构造	-14394
▁Pradesh	-14395
▁Bra	-14396
Att	-14397
在校	-14398
▁Sher	-14399
ancing	-14400
▁Six	-14401
▁decision	-14402
VC	-14403
还是会	-14404
经验的	-14405
只需	-14406
在家里	-14407
金刚	-14408
最重要的是	-14409
图案	-14410
常用	-14411
▁counter	-14412
▁Ga	-14413
▁proposed	-14414
副作用	-14415
Mon	-14416
▁requires	-14417
▁Deputy	-14418
▁analysis	-14419
一声	-14420
知县	-14421
月至	-14422
▁indent	-14423
时段	-14424
▁Nebraska	-14425
ideos	-14426
动手	-14427
份额	-14428
▁Baronet	-14429
sig	-14430
天才	-14431
人间	-14432
▁//	-14433
folder	-14434
ро	-14435
▁Culture	-14436
前列	-14437
如果说	-14438
率为	-14439
万美元	-14440
不堪	-14441
▁arts	-14442
GM	-14443
▁Shah	-14444
▁beet	-14445
发音	-14446
▁Security	-14447
火爆	-14448
剧场	-14449
▁Lower	-14450
Parse	-14451
▁charge	-14452
▁guest	-14453
数据库	-14454
伟大的	-14455
dumps	-14456
变态	-14457
是什么感觉	-14458
就更	-14459
前进	-14460
▁Bus	-14461
系的	-14462
▁cursor	-14463
onds	-14464
勇敢	-14465
▁Oak	-14466
cf	-14467
▁designated	-14468
的人都	-14469
讲座	-14470
商城	-14471
幅度	-14472
▁idx	-14473
大学毕业	-14474
power	-14475
导致的	-14476
download	-14477
▁'[	-14478
Deleter	-14479
监会	-14480
入侵	-14481
（）	-14482
发烧	-14483
events	-14484
▁Jay	-14485
片子	-14486
岁月	-14487
Act	-14488
副书记	-14489
▁这是	-14490
那年	-14491
太原	-14492
色列	-14493
流畅	-14494
干扰	-14495
rece	-14496
适用于	-14497
他和	-14498
奇迹	-14499
高雄	-14500
du	-14501
▁Hawai	-14502
行李	-14503
▁scoring	-14504
木有	-14505
报纸	-14506
eros	-14507
sym	-14508
Sett	-14509
▁Hispanic	-14510
在上	-14511
杀毒	-14512
iley	-14513
hat	-14514
我们要	-14515
FORMAT	-14516
极度	-14517
▁pict	-14518
▁repr	-14519
提到的	-14520
▁joint	-14521
▁permission	-14522
常委	-14523
代价	-14524
：「	-14525
过分	-14526
▁categ	-14527
品的	-14528
起诉	-14529
▁views	-14530
▁去	-14531
stud	-14532
。。。<	-14533
▁Course	-14534
▁Historical	-14535
资深	-14536
头像	-14537
好用	-14538
hex	-14539
十四	-14540
▁cart	-14541
▁defaults	-14542
租房	-14543
▁Adv	-14544
鳍鱼	-14545
dale	-14546
顶尖	-14547
克力	-14548
IVE	-14549
副主席	-14550
jar	-14551
他对	-14552
▁disestablished	-14553
见识	-14554
uni	-14555
营造	-14556
ummy	-14557
acle	-14558
与此	-14559
为一	-14560
▁Tony	-14561
operation	-14562
将近	-14563
而成	-14564
▁Borough	-14565
拓展	-14566
巴马	-14567
达人	-14568
网络上	-14569
管理局	-14570
▁pow	-14571
▁三	-14572
oa	-14573
-\	-14574
家境	-14575
▁Prim	-14576
▁girl	-14577
▁selection	-14578
▁accepted	-14579
单元	-14580
ashi	-14581
AutoField	-14582
▁sons	-14583
iri	-14584
▁representative	-14585
以至于	-14586
发现自己	-14587
一阵	-14588
如何评价	-14589
▁Girl	-14590
▁Articles	-14591
basic	-14592
▁secret	-14593
难题	-14594
艰难	-14595
被告	-14596
八年	-14597
的对	-14598
▁recognized	-14599
立方	-14600
▁facilities	-14601
找一个	-14602
law	-14603
重组	-14604
▁Iraq	-14605
极大	-14606
应急	-14607
▁pylint	-14608
yc	-14609
▁tall	-14610
▁statement	-14611
enes	-14612
▁Image	-14613
茶叶	-14614
offs	-14615
hentication	-14616
高大	-14617
行人	-14618
usion	-14619
amount	-14620
莫名其妙	-14621
olished	-14622
券商	-14623
▁最	-14624
▁Publications	-14625
甚至是	-14626
nergy	-14627
并不能	-14628
ör	-14629
ugs	-14630
报价	-14631
▁Hills	-14632
▁failure	-14633
ivalent	-14634
收取	-14635
contents	-14636
代言	-14637
collection	-14638
▁composers	-14639
▁fn	-14640
不了解	-14641
▁administration	-14642
各级	-14643
spect	-14644
UTE	-14645
▁organized	-14646
楼下	-14647
olver	-14648
哪家	-14649
WI	-14650
ifer	-14651
乾隆	-14652
▁entries	-14653
▁northwest	-14654
恒大	-14655
▁Bec	-14656
▁forced	-14657
▁Edinburgh	-14658
很可能	-14659
马克思	-14660
保罗	-14661
暂停	-14662
平凡	-14663
▁bot	-14664
便是	-14665
▁Samuel	-14666
的各种	-14667
▁festival	-14668
▁marriage	-14669
这对	-14670
别说	-14671
ipment	-14672
▁feet	-14673
拯救	-14674
伊拉克	-14675
的所有	-14676
▁Educ	-14677
这样的人	-14678
▁sal	-14679
叔叔	-14680
想在	-14681
又能	-14682
boards	-14683
uries	-14684
童年	-14685
的音乐	-14686
注意力	-14687
▁Gard	-14688
на	-14689
arus	-14690
▁redirect	-14691
▁Girls	-14692
▁granted	-14693
的经验	-14694
现在在	-14695
改成	-14696
平行	-14697
▁П	-14698
人民法院	-14699
的光	-14700
III	-14701
增速	-14702
附属	-14703
大臣	-14704
▁particularly	-14705
▁bind	-14706
债务	-14707
所属	-14708
分析师	-14709
主张	-14710
▁Vice	-14711
▁Discography	-14712
深夜	-14713
▁Phot	-14714
▁stats	-14715
开水	-14716
INTER	-14717
▁digital	-14718
填写	-14719
确实是	-14720
ando	-14721
opsis	-14722
▁athletes	-14723
夜间	-14724
有兴趣	-14725
都需要	-14726
纠纷	-14727
起步	-14728
▁lawyer	-14729
▁lookup	-14730
"'	-14731
不幸	-14732
hai	-14733
威尔	-14734
chni	-14735
度过	-14736
ulator	-14737
iddleware	-14738
Gu	-14739
了什么	-14740
集合	-14741
内饰	-14742
▁encoded	-14743
作词	-14744
▁quick	-14745
后台	-14746
arp	-14747
可能性	-14748
▁Seg	-14749
▁Charts	-14750
▁urban	-14751
INFO	-14752
良心	-14753
▁energy	-14754
年内	-14755
▁consider	-14756
省和	-14757
关键词	-14758
人对	-14759
oria	-14760
都不知道	-14761
▁combined	-14762
的基础上	-14763
家用	-14764
Des	-14765
▁AttributeError	-14766
网吧	-14767
▁depth	-14768
王者	-14769
{%	-14770
收盘	-14771
美军	-14772
熊猫	-14773
named	-14774
时报	-14775
story	-14776
▁face	-14777
▁auto	-14778
▁Vietnam	-14779
诡异	-14780
了自己	-14781
▁Nord	-14782
oust	-14783
尔多	-14784
PRE	-14785
▁Romanian	-14786
悲伤	-14787
▁backing	-14788
CLUD	-14789
百分之	-14790
quis	-14791
▁£	-14792
ounds	-14793
▁corresponding	-14794
cut	-14795
uate	-14796
完整的	-14797
▁Silver	-14798
▁governor	-14799
好朋友	-14800
难免	-14801
$',	-14802
租赁	-14803
内衣	-14804
▁Stage	-14805
Lin	-14806
▁Anthony	-14807
ads	-14808
atin	-14809
▁forwards	-14810
斯的	-14811
▁fle	-14812
▁ops	-14813
该地的	-14814
igo	-14815
银行卡	-14816
▁Transportation	-14817
reb	-14818
▁Sin	-14819
▁Holy	-14820
▁Database	-14821
lins	-14822
」、	-14823
▁tribut	-14824
▁lim	-14825
一分	-14826
就是个	-14827
LP	-14828
民生	-14829
卖的	-14830
She	-14831
atar	-14832
▁prev	-14833
▁Towns	-14834
го	-14835
irs	-14836
iled	-14837
▁Rub	-14838
▁signature	-14839
▁Bron	-14840
跑到	-14841
那你	-14842
学到	-14843
▁Front	-14844
▁PS	-14845
▁Filmography	-14846
两岸	-14847
▁HD	-14848
▁Reb	-14849
不胜	-14850
所以在	-14851
alpha	-14852
▁Rud	-14853
不当	-14854
▁respectively	-14855
▁Bud	-14856
▁intended	-14857
逼格	-14858
大腿	-14859
Book	-14860
enerp	-14861
走在	-14862
▁Jam	-14863
复兴	-14864
▁Manchester	-14865
一杯	-14866
一脸	-14867
▁gall	-14868
对的	-14869
transform	-14870
收拾	-14871
Java	-14872
体积	-14873
stall	-14874
coming	-14875
Mixin	-14876
▁targets	-14877
ymph	-14878
▁cancer	-14879
人文	-14880
也没什么	-14881
▁Nick	-14882
▁Children	-14883
并无	-14884
=|	-14885
坚定	-14886
物体	-14887
比你	-14888
？“	-14889
欧盟	-14890
▁Net	-14891
GI	-14892
fast	-14893
cluding	-14894
▁被	-14895
java	-14896
▁conference	-14897
aling	-14898
▁plugin	-14899
fall	-14900
▁pet	-14901
inx	-14902
根廷	-14903
▁What	-14904
女性的	-14905
编曲	-14906
▁sa	-14907
辐鳍鱼	-14908
出差	-14909
▁Eag	-14910
一笑	-14911
▁junior	-14912
我以前	-14913
在那里	-14914
曲线	-14915
fa	-14916
сь	-14917
装的	-14918
MIN	-14919
xxxx	-14920
prec	-14921
实质	-14922
▁看了	-14923
▁Dom	-14924
构建	-14925
TS	-14926
CEO	-14927
没问题	-14928
处在	-14929
相同的	-14930
▁unincorporated	-14931
route	-14932
▁locomot	-14933
axy	-14934
sleep	-14935
▁oldest	-14936
porter	-14937
辐鳍鱼纲	-14938
▁poverty	-14939
电子商务	-14940
▁rows	-14941
审批	-14942
▁nob	-14943
全新的	-14944
排列	-14945
>“	-14946
__.	-14947
▁Latino	-14948
▁activity	-14949
社团	-14950
给他们	-14951
ously	-14952
我跟	-14953
去除	-14954
ivals	-14955
cussion	-14956
▁reviews	-14957
▁▲	-14958
▁occurs	-14959
在我看来	-14960
座位	-14961
▁keyword	-14962
不安	-14963
要知道	-14964
教育部	-14965
▁PO	-14966
film	-14967
agram	-14968
AI	-14969
解说	-14970
重启	-14971
做不到	-14972
▁turned	-14973
▁Administration	-14974
ening	-14975
的时候就	-14976
▁safe	-14977
文化的	-14978
complete	-14979
海上	-14980
我应该	-14981
feature	-14982
多家	-14983
此事	-14984
abi	-14985
菜单	-14986
▁spons	-14987
▁arm	-14988
CTION	-14989
门的	-14990
via	-14991
▁Agric	-14992
▁society	-14993
▁endemic	-14994
Names	-14995
enum	-14996
evin	-14997
▁wins	-14998
粮食	-14999
isease	-15000
ictionary	-15001
rs	-15002
▁wind	-15003
▁Error	-15004
火的	-15005
ović	-15006
一下吧	-15007
特别的	-15008
拿下	-15009
▁Bat	-15010
一千	-15011
▁División	-15012
白的	-15013
以色列	-15014
一小	-15015
▁Allen	-15016
oles	-15017
正能量	-15018
老的	-15019
▁EV	-15020
▁Lawrence	-15021
▁Athletic	-15022
alist	-15023
主播	-15024
等的	-15025
emp	-15026
讽刺	-15027
▁newly	-15028
清真	-15029
选区	-15030
个别	-15031
热血	-15032
影像	-15033
直径	-15034
disk	-15035
国道	-15036
平静	-15037
会说	-15038
mid	-15039
电器	-15040
two	-15041
▁Ug	-15042
almost	-15043
ishments	-15044
源自	-15045
estic	-15046
usk	-15047
tv	-15048
▁queue	-15049
lem	-15050
▁southwest	-15051
有助于	-15052
irmed	-15053
DEL	-15054
隔离	-15055
autiful	-15056
eft	-15057
▁Mock	-15058
▁instances	-15059
诗词	-15060
borough	-15061
cluster	-15062
generate	-15063
▁Parish	-15064
▁trial	-15065
▁proxy	-15066
▁levels	-15067
孩子们	-15068
团结	-15069
png	-15070
已经在	-15071
▁conserv	-15072
意为	-15073
Me	-15074
给个	-15075
想起来	-15076
El	-15077
入学	-15078
储备	-15079
拉丁	-15080
高层	-15081
问他	-15082
inth	-15083
urls	-15084
▁Event	-15085
列为	-15086
▁SU	-15087
▁captain	-15088
draw	-15089
春季	-15090
▁virtual	-15091
▁[('	-15092
书店	-15093
借口	-15094
演奏	-15095
▁vess	-15096
）。<	-15097
▁representation	-15098
▁Clark	-15099
▁prevent	-15100
，），	-15101
出一个	-15102
制造业	-15103
▁Franklin	-15104
你所	-15105
▁Anc	-15106
▁purs	-15107
手法	-15108
但又	-15109
defaults	-15110
▁interview	-15111
的治疗	-15112
▁Cycl	-15113
▁ordered	-15114
月球	-15115
▁electoral	-15116
了这个	-15117
形成的	-15118
◆◆	-15119
我希望	-15120
▁Sign	-15121
enable	-15122
外表	-15123
▁diffic	-15124
垂直	-15125
日报道	-15126
▁hall	-15127
▁Section	-15128
完毕	-15129
unte	-15130
filters	-15131
▁Azerbaijan	-15132
回答的	-15133
dy	-15134
▁"--	-15135
途中	-15136
通车	-15137
lu	-15138
崇拜	-15139
温泉	-15140
▁note	-15141
何时	-15142
书中	-15143
hammad	-15144
交互	-15145
▁Naval	-15146
▁commissioned	-15147
两名	-15148
▁Tig	-15149
日军	-15150
pet	-15151
alia	-15152
激励	-15153
▁Captain	-15154
全家	-15155
包容	-15156
睡着	-15157
▁Global	-15158
▁southeast	-15159
Session	-15160
▁Nam	-15161
而被	-15162
▁Farm	-15163
▁gained	-15164
的例子	-15165
▁Circ	-15166
▁Metropolitan	-15167
买了一	-15168
▁Sn	-15169
▁versus	-15170
aware	-15171
▁Lanka	-15172
Failed	-15173
▁Diego	-15174
只是一个	-15175
仅供参考	-15176
衬衫	-15177
>',	-15178
lywood	-15179
▁classification	-15180
和社会	-15181
吸毒	-15182
英尺	-15183
几个人	-15184
▁titled	-15185
州的	-15186
iversity	-15187
▁dt	-15188
一身	-15189
摄入	-15190
▁perman	-15191
步行	-15192
▁leave	-15193
▁references	-15194
▁reach	-15195
▁Scient	-15196
▁mentioned	-15197
▁Grade	-15198
▁Hungary	-15199
大便	-15200
ocated	-15201
嘲笑	-15202
当事人	-15203
enia	-15204
▁define	-15205
astr	-15206
之地	-15207
我市	-15208
agues	-15209
的用户	-15210
uties	-15211
▁materials	-15212
▁Prior	-15213
门票	-15214
我看到	-15215
相差	-15216
elson	-15217
▁lyrics	-15218
腹部	-15219
其中一个	-15220
玛丽	-15221
膝盖	-15222
车道	-15223
不是一个	-15224
▁Rio	-15225
++	-15226
水晶	-15227
马拉松	-15228
[^	-15229
他曾	-15230
智能手机	-15231
人格	-15232
终身	-15233
卖家	-15234
▁recently	-15235
头部	-15236
招商	-15237
▁diam	-15238
▁candidates	-15239
Prov	-15240
明的	-15241
解除	-15242
深深	-15243
Mat	-15244
▁Kan	-15245
Thread	-15246
法语	-15247
▁黄	-15248
宝宝的	-15249
afety	-15250
ucer	-15251
TypeError	-15252
一夜	-15253
开工	-15254
海报	-15255
roit	-15256
听了	-15257
网红	-15258
incess	-15259
北美	-15260
ongo	-15261
acht	-15262
买车	-15263
近视	-15264
verview	-15265
▁Another	-15266
ARY	-15267
一般都是	-15268
项目的	-15269
路过	-15270
elves	-15271
的情	-15272
唐朝	-15273
▁Nova	-15274
▁quant	-15275
▁Pas	-15276
面部	-15277
▁churches	-15278
)：	-15279
▁Kon	-15280
single	-15281
ying	-15282
葡萄酒	-15283
职业生涯	-15284
别墅	-15285
▁adopt	-15286
▁things	-15287
好久	-15288
▁Prom	-15289
drop	-15290
Cache	-15291
省市镇列表	-15292
▁Eric	-15293
▁Fish	-15294
你对	-15295
非常好	-15296
斯塔	-15297
istol	-15298
Graph	-15299
▁Sax	-15300
▁Then	-15301
tm	-15302
北起	-15303
的知识	-15304
款式	-15305
得不到	-15306
一支	-15307
agent	-15308
做完	-15309
▁ISBN	-15310
rules	-15311
交给	-15312
NOT	-15313
▁Document	-15314
降雨	-15315
vi	-15316
的一句话	-15317
chain	-15318
省委	-15319
我怎么	-15320
级别的	-15321
原名	-15322
普通话	-15323
▁Abb	-15324
▁mut	-15325
▁Alfred	-15326
巴拉	-15327
▁Conservative	-15328
殖民	-15329
现实中	-15330
我最	-15331
edding	-15332
▁issued	-15333
IMIT	-15334
自己也	-15335
技术的	-15336
calls	-15337
▁alpha	-15338
▁broad	-15339
同学们	-15340
indices	-15341
▁Frederick	-15342
阿根廷	-15343
太子	-15344
上演	-15345
十万	-15346
▁fit	-15347
涨停	-15348
我一个	-15349
▁Hop	-15350
投行	-15351
谈判	-15352
明治	-15353
▁Spr	-15354
水准	-15355
GBT	-15356
男孩子	-15357
的心理	-15358
▁Montreal	-15359
▁occurred	-15360
▁上	-15361
化工	-15362
同行	-15363
～～	-15364
一发	-15365
once	-15366
当做	-15367
短暂	-15368
但是他	-15369
的都	-15370
xi	-15371
图为	-15372
▁bishop	-15373
媒体报道	-15374
有害	-15375
HOST	-15376
▁immediately	-15377
▁XML	-15378
忍受	-15379
严谨	-15380
师范大学	-15381
分区	-15382
▁sixth	-15383
春秋	-15384
评选	-15385
予以	-15386
却又	-15387
.”	-15388
错误的	-15389
▁offers	-15390
很好奇	-15391
脑袋	-15392
▁Champion	-15393
互联网金融	-15394
女王	-15395
气体	-15396
土豪	-15397
的变化	-15398
分成	-15399
更改	-15400
地名	-15401
▁Rey	-15402
▁Tam	-15403
小朋友	-15404
uffix	-15405
漏洞	-15406
都会有	-15407
为辐鳍鱼纲	-15408
如图	-15409
缴纳	-15410
马路	-15411
老年人	-15412
Network	-15413
▁reve	-15414
巧克力	-15415
▁FIFA	-15416
组建	-15417
心动	-15418
▁Males	-15419
儿的	-15420
notes	-15421
▁offered	-15422
mouth	-15423
首发	-15424
▁df	-15425
回来了	-15426
彩票	-15427
介绍一下	-15428
首付	-15429
▁Qgs	-15430
gi	-15431
ïfrac	-15432
▁Christmas	-15433
vo	-15434
那位	-15435
一流	-15436
eler	-15437
高中生	-15438
CLUDING	-15439
演绎	-15440
▁Minor	-15441
内心的	-15442
Gr	-15443
致力于	-15444
永久	-15445
祝你	-15446
sync	-15447
拿出来	-15448
oche	-15449
手工	-15450
Window	-15451
▁Date	-15452
▁Dave	-15453
|}	-15454
净化	-15455
整个人	-15456
ighter	-15457
指甲	-15458
▁represents	-15459
▁Lanc	-15460
works	-15461
▁dates	-15462
嫌弃	-15463
撕逼	-15464
days	-15465
约定	-15466
PER	-15467
值得一	-15468
▁Anderson	-15469
orc	-15470
▁Boys	-15471
images	-15472
Car	-15473
▁Guide	-15474
▁Marie	-15475
什么样的体验	-15476
仅仅是	-15477
几张	-15478
有不少	-15479
Target	-15480
reedom	-15481
▁inner	-15482
▁judge	-15483
▁Om	-15484
乐器	-15485
just	-15486
带上	-15487
':'	-15488
引入	-15489
陌生人	-15490
急性	-15491
posite	-15492
unication	-15493
意思是	-15494
的手机	-15495
▁Anna	-15496
ailand	-15497
礼貌	-15498
的不是	-15499
regex	-15500
我们就	-15501
▁neighborhood	-15502
显示器	-15503
出手	-15504
▁modules	-15505
]',	-15506
("\	-15507
▁Schedule	-15508
▁subs	-15509
合伙	-15510
▁Cer	-15511
Resource	-15512
文档	-15513
经济发展	-15514
男主	-15515
izard	-15516
爱的人	-15517
resources	-15518
Enum	-15519
provider	-15520
我先	-15521
每人	-15522
otte	-15523
▁])	-15524
▁cultural	-15525
▁mail	-15526
是什么体验	-15527
▁vice	-15528
▁Stone	-15529
zym	-15530
cfg	-15531
▁facility	-15532
美人	-15533
▁contemporary	-15534
rappe	-15535
¸?	-15536
只要你	-15537
阿里巴巴	-15538
▁Walker	-15539
节日	-15540
▁highway	-15541
reference	-15542
国会	-15543
阻力	-15544
iami	-15545
石家庄	-15546
内陆	-15547
▁Garden	-15548
物的	-15549
诱惑	-15550
说得	-15551
orders	-15552
aza	-15553
nik	-15554
▁CF	-15555
遵守	-15556
▁fixed	-15557
▁本人	-15558
simple	-15559
开业	-15560
▁belonging	-15561
▁Chen	-15562
手上	-15563
明朝政治人物	-15564
只想	-15565
ascii	-15566
PY	-15567
村落	-15568
▁Pi	-15569
从来没	-15570
参考来源	-15571
▁citiz	-15572
两点	-15573
▁cour	-15574
八卦	-15575
gal	-15576
的支持	-15577
▁Lang	-15578
▁Start	-15579
▁Broad	-15580
▁rivers	-15581
ellite	-15582
用的是	-15583
eric	-15584
ieval	-15585
ulus	-15586
▁CONTR	-15587
▁promotion	-15588
伯特	-15589
小事	-15590
奥地利	-15591
老百姓	-15592
丹麦	-15593
▁(%	-15594
到我	-15595
折腾	-15596
排行榜	-15597
基本都是	-15598
:'	-15599
压抑	-15600
各有	-15601
▁Cultural	-15602
▁Cla	-15603
▁Houston	-15604
原标题	-15605
pick	-15606
▁fill	-15607
时间内	-15608
提取	-15609
outputs	-15610
▁他	-15611
摩擦	-15612
原著	-15613
fill	-15614
好象	-15615
▁Online	-15616
▁Election	-15617
自习	-15618
▁municipalities	-15619
弥补	-15620
roc	-15621
COL	-15622
从来不	-15623
列入	-15624
是为	-15625
▁Douglas	-15626
可以看到	-15627
人事	-15628
单纯的	-15629
并将	-15630
▁chair	-15631
neg	-15632
▁Singh	-15633
像我	-15634
NC	-15635
珠海	-15636
在问答社区上	-15637
亚马	-15638
▁ends	-15639
要比	-15640
ignore	-15641
▁susp	-15642
▁Between	-15643
▁trust	-15644
▁midfielders	-15645
▁COVID	-15646
▁folk	-15647
Init	-15648
▁Peters	-15649
▁Dol	-15650
不断的	-15651
借鉴	-15652
摩托车	-15653
▁tre	-15654
突发	-15655
▁launch	-15656
慈善	-15657
▁FROM	-15658
多名	-15659
没关系	-15660
回答这个问题	-15661
!!	-15662
▁Race	-15663
从不	-15664
风暴	-15665
极为	-15666
RAW	-15667
GE	-15668
done	-15669
告诉记者	-15670
▁temple	-15671
野生	-15672
burn	-15673
etic	-15674
github	-15675
▁principal	-15676
'(	-15677
▁Any	-15678
▁Slovak	-15679
▁Selected	-15680
之子	-15681
成为一个	-15682
营运	-15683
▁archive	-15684
▁retirement	-15685
该不该	-15686
urling	-15687
的目标	-15688
失业	-15689
检察院	-15690
▁couple	-15691
裁判	-15692
可以从	-15693
支出	-15694
ampl	-15695
▁chosen	-15696
佛山	-15697
授予	-15698
ів	-15699
隐私	-15700
把自己的	-15701
也可能	-15702
▁Marine	-15703
前来	-15704
编制	-15705
▁Among	-15706
缓慢	-15707
John	-15708
用水	-15709
ben	-15710
▁coal	-15711
啥的	-15712
▁translated	-15713
红楼	-15714
▁Today	-15715
布置	-15716
dal	-15717
的理由	-15718
▁Ward	-15719
却不	-15720
hn	-15721
>，	-15722
人不	-15723
一根	-15724
塑造	-15725
▁DVD	-15726
▁codec	-15727
年间人口变化图示	-15728
chant	-15729
interval	-15730
斗争	-15731
称之为	-15732
rtype	-15733
▁Chem	-15734
▁constituencies	-15735
难民	-15736
与接壤的市镇	-15737
立体	-15738
sep	-15739
村庄	-15740
钱包	-15741
半个月	-15742
▁Alberta	-15743
▁什么是	-15744
没用	-15745
ORY	-15746
头痛	-15747
wich	-15748
anne	-15749
ooth	-15750
养的	-15751
▁escape	-15752
回答问题	-15753
抛弃	-15754
教训	-15755
album	-15756
▁Ford	-15757
争夺	-15758
纳入	-15759
跟随	-15760
▁pid	-15761
▁blank	-15762
▁cricketer	-15763
与其他	-15764
▁disk	-15765
能的	-15766
▁cerem	-15767
开学	-15768
Logger	-15769
守护	-15770
比较大	-15771
▁Java	-15772
夫卡	-15773
另一种	-15774
▁Buff	-15775
简洁	-15776
这部电影	-15777
英寸	-15778
▁founding	-15779
残酷	-15780
伴侣	-15781
▁Gordon	-15782
秘书长	-15783
andra	-15784
射击	-15785
娃娃	-15786
``.	-15787
▁COP	-15788
ieces	-15789
▁大学	-15790
在做	-15791
下一步	-15792
见了	-15793
到最后	-15794
▁tab	-15795
手中	-15796
uing	-15797
占比	-15798
▁measure	-15799
▁conducted	-15800
尊敬	-15801
疗法	-15802
▁Ku	-15803
iop	-15804
相邻	-15805
"].	-15806
解决问题	-15807
彼得	-15808
三人	-15809
颗粒	-15810
oda	-15811
▁era	-15812
很多的	-15813
▁日本	-15814
▁Sky	-15815
iao	-15816
ikh	-15817
后面的	-15818
口感	-15819
进而	-15820
可是我	-15821
▁coming	-15822
杨幂	-15823
▁Pitts	-15824
直线	-15825
LOCK	-15826
要怎么	-15827
▁Guinea	-15828
酒吧	-15829
是一颗	-15830
▁Seat	-15831
出色	-15832
警告	-15833
lie	-15834
▁conflict	-15835
两条	-15836
等为	-15837
)],	-15838
▁Nigeria	-15839
忽悠	-15840
初级	-15841
吃药	-15842
links	-15843
yal	-15844
康熙	-15845
电流	-15846
▁jump	-15847
联想	-15848
太多的	-15849
民主党	-15850
穿衣	-15851
Wrapper	-15852
南宁	-15853
▁intern	-15854
外语	-15855
available	-15856
美丽的	-15857
举人	-15858
rovers	-15859
对这个	-15860
▁Orth	-15861
designated	-15862
一顿	-15863
▁Pod	-15864
▁economic	-15865
转载请	-15866
在新	-15867
推送	-15868
▁本	-15869
他不	-15870
seed	-15871
特效	-15872
经典的	-15873
▁likely	-15874
descriptor	-15875
RI	-15876
两国	-15877
在其	-15878
▁priv	-15879
炒作	-15880
圣诞	-15881
玩法	-15882
▁Paralympics	-15883
之旅	-15884
实习生	-15885
罚款	-15886
是怎样一种体验	-15887
面板	-15888
fly	-15889
▁Die	-15890
DateTimeField	-15891
wen	-15892
专业人士	-15893
提出的	-15894
tters	-15895
半个	-15896
年薪	-15897
执导	-15898
近代	-15899
片的	-15900
▁answ	-15901
实现了	-15902
docs	-15903
华盛	-15904
▁slight	-15905
是否会	-15906
机遇	-15907
华丽	-15908
活动的	-15909
向下	-15910
路易	-15911
都有哪些	-15912
issue	-15913
▁portion	-15914
igion	-15915
眼中	-15916
里亚	-15917
工科	-15918
错的	-15919
证件	-15920
▁tokens	-15921
这个是	-15922
该地	-15923
▁apply	-15924
▁estimated	-15925
知道了	-15926
▁receive	-15927
browse	-15928
▁Deb	-15929
inguished	-15930
因为是	-15931
Copy	-15932
河北省	-15933
▁в	-15934
其实就是	-15935
▁Alger	-15936
Prefix	-15937
的图片	-15938
▁Lim	-15939
白了	-15940
量子	-15941
不过是	-15942
▁nearly	-15943
不尽	-15944
Column	-15945
体长可达	-15946
时机	-15947
修正	-15948
mg	-15949
监察	-15950
无锡	-15951
▁Statistics	-15952
DU	-15953
写出	-15954
麦克	-15955
▁quality	-15956
▁Ther	-15957
▁stock	-15958
大城市	-15959
▁distinct	-15960
侵犯	-15961
安利	-15962
旋转	-15963
▁phase	-15964
约会	-15965
死后	-15966
rawn	-15967
滨海	-15968
这两天	-15969
reverse	-15970
境界	-15971
optional	-15972
西瓜	-15973
('--	-15974
▁Fried	-15975
边界	-15976
▁compar	-15977
熟练	-15978
的视频	-15979
拼命	-15980
小伙	-15981
ocate	-15982
早点	-15983
拿来	-15984
法学	-15985
▁substit	-15986
▁问答社区	-15987
▁Executive	-15988
staticmethod	-15989
好像是	-15990
▁Path	-15991
奖学金	-15992
洗净	-15993
武术	-15994
讲的	-15995
▁Hug	-15996
▁ham	-15997
▁checks	-15998
▁claimed	-15999
Helper	-16000
Descriptor	-16001
看一下	-16002
odies	-16003
匈牙	-16004
▁learn	-16005
但由于	-16006
属下的一个种	-16007
向往	-16008
▁Limited	-16009
问了	-16010
▁谢谢	-16011
dump	-16012
直男	-16013
外套	-16014
珠宝	-16015
▁climate	-16016
能有	-16017
更名为	-16018
▁Tak	-16019
实战	-16020
▁Fem	-16021
我记得	-16022
可以选择	-16023
防治	-16024
▁NFL	-16025
教科	-16026
电压	-16027
降价	-16028
'",	-16029
▁Yug	-16030
注意事项	-16031
反思	-16032
溶液	-16033
后就	-16034
典礼	-16035
的企业	-16036
已知	-16037
▁Dub	-16038
▁Railroad	-16039
▁Cities	-16040
▁declared	-16041
亲人	-16042
▁Trophy	-16043
以便	-16044
▁narrow	-16045
死刑	-16046
▁cult	-16047
▁Bed	-16048
ographical	-16049
共计	-16050
乡试	-16051
睡前	-16052
重装	-16053
meth	-16054
Level	-16055
结束了	-16056
▁fro	-16057
花生	-16058
部份	-16059
海关	-16060
▁但是	-16061
▁Fel	-16062
集成	-16063
加利	-16064
Stack	-16065
▁refers	-16066
友情	-16067
复读	-16068
▁venues	-16069
ipping	-16070
柴油	-16071
航母	-16072
男士	-16073
▁passes	-16074
▁trains	-16075
assertAll	-16076
abilities	-16077
回收	-16078
onder	-16079
▁Request	-16080
丢失	-16081
这些都是	-16082
完全是	-16083
Comp	-16084
▁compute	-16085
两句	-16086
骚扰	-16087
如果您	-16088
一道	-16089
．．	-16090
pointer	-16091
城乡	-16092
朝阳	-16093
行车	-16094
▁你的	-16095
▁Alan	-16096
爱尔	-16097
路由	-16098
▁poor	-16099
告诉他	-16100
)|	-16101
这座	-16102
▁mine	-16103
组成的	-16104
很长	-16105
▁Moon	-16106
筛选	-16107
footballer	-16108
▁Less	-16109
的相关	-16110
切实	-16111
有必要	-16112
▁twenty	-16113
处处	-16114
过来的	-16115
sources	-16116
车子	-16117
▁surrounding	-16118
▁recordings	-16119
zhou	-16120
▁SE	-16121
quence	-16122
的男生	-16123
台南	-16124
Be	-16125
档次	-16126
unes	-16127
ocation	-16128
▁Ni	-16129
export	-16130
pytest	-16131
▁scheme	-16132
可以直接	-16133
▁headquarters	-16134
阳台	-16135
▁Bart	-16136
▁Thailand	-16137
卡斯	-16138
之家	-16139
repo	-16140
非常感谢	-16141
增多	-16142
▁天	-16143
网球	-16144
强烈的	-16145
伊斯兰教	-16146
big	-16147
▁Apple	-16148
pair	-16149
▁Carlos	-16150
▁silent	-16151
目光	-16152
开门	-16153
底线	-16154
借助	-16155
沃尔	-16156
喜欢的人	-16157
pkg	-16158
旋律	-16159
Pass	-16160
▁MS	-16161
感慨	-16162
的做法	-16163
▁simply	-16164
▁Chamber	-16165
生孩子	-16166
婚后	-16167
▁IF	-16168
▁experiment	-16169
acon	-16170
▁modified	-16171
召唤	-16172
常态	-16173
▁Beat	-16174
吃货	-16175
插入	-16176
缅甸	-16177
Aust	-16178
▁Has	-16179
▁committee	-16180
▁industrial	-16181
放弃了	-16182
backend	-16183
uki	-16184
▁nature	-16185
▁Serbia	-16186
终点	-16187
胸部	-16188
extract	-16189
我才	-16190
代表大会	-16191
果断	-16192
我好	-16193
▁publication	-16194
还记得	-16195
▁byte	-16196
▁lect	-16197
enames	-16198
Update	-16199
早年	-16200
.",	-16201
▁younger	-16202
有大	-16203
本科生	-16204
食材	-16205
iko	-16206
调理	-16207
正如	-16208
aduate	-16209
致命	-16210
要把	-16211
阴阳	-16212
▁Rab	-16213
来说说	-16214
的习惯	-16215
gow	-16216
▁Buck	-16217
before	-16218
失恋	-16219
▁Range	-16220
▁explicit	-16221
乳房	-16222
躺在	-16223
懒得	-16224
Options	-16225
▁Vienna	-16226
▁Glas	-16227
components	-16228
很低	-16229
基金会	-16230
了一点	-16231
▁Hunt	-16232
▁Origin	-16233
hh	-16234
AE	-16235
▁accom	-16236
stock	-16237
▁Companies	-16238
▁wall	-16239
▁Rap	-16240
剧院	-16241
放假	-16242
▁starts	-16243
做为	-16244
▁regions	-16245
*.	-16246
之上	-16247
▁behavior	-16248
克的	-16249
▁marked	-16250
▁Bou	-16251
潜在	-16252
▁magazines	-16253
文中	-16254
▁Harris	-16255
会儿	-16256
高血压	-16257
几何	-16258
▁Nepal	-16259
月薪	-16260
复杂的	-16261
▁experience	-16262
得不	-16263
常用的	-16264
offer	-16265
底下	-16266
ahn	-16267
全年	-16268
Begin	-16269
担忧	-16270
是一家	-16271
结婚了	-16272
中期	-16273
我们都	-16274
中年	-16275
的味道	-16276
和朋友	-16277
酸奶	-16278
董事会	-16279
备考	-16280
便秘	-16281
比分	-16282
ssl	-16283
▁calling	-16284
▁poetry	-16285
fiction	-16286
[:-	-16287
secs	-16288
巴萨	-16289
ussian	-16290
▁crime	-16291
开关	-16292
▁Karl	-16293
形成了	-16294
背后的	-16295
orus	-16296
心思	-16297
山的	-16298
的小伙伴	-16299
情报	-16300
号称	-16301
是日本	-16302
▁Cert	-16303
|-!	-16304
YY	-16305
edge	-16306
',	-16307
facts	-16308
华盛顿	-16309
的一条	-16310
▁Mayor	-16311
▁matching	-16312
ст	-16313
北上	-16314
edelta	-16315
▁carry	-16316
▁aired	-16317
无知	-16318
然后在	-16319
▁meta	-16320
▁Nort	-16321
自助	-16322
客人	-16323
wifi	-16324
summary	-16325
失误	-16326
开始了	-16327
wing	-16328
depth	-16329
▁shift	-16330
conds	-16331
是怎样的体验	-16332
insula	-16333
如果在	-16334
▁friends	-16335
打个	-16336
的原	-16337
对身体	-16338
然后我	-16339
▁rv	-16340
testing	-16341
支援	-16342
亚马逊	-16343
atures	-16344
加了	-16345
暧昧	-16346
itespace	-16347
导航	-16348
▁Writers	-16349
signal	-16350
选用	-16351
和别人	-16352
secret	-16353
标准的	-16354
dn	-16355
远的	-16356
里约	-16357
▁outputs	-16358
alyt	-16359
▁definition	-16360
头条	-16361
Empty	-16362
碰撞	-16363
▁Kum	-16364
ictional	-16365
二世	-16366
毒品	-16367
ining	-16368
一个个	-16369
idad	-16370
▁Lieutenant	-16371
工作者	-16372
是不会	-16373
clusive	-16374
尔的	-16375
▁resulting	-16376
▁nom	-16377
时间为	-16378
栏目	-16379
▁workers	-16380
orr	-16381
region	-16382
▁flowers	-16383
Cre	-16384
做成	-16385
integer	-16386
了一种	-16387
▁Standard	-16388
Length	-16389
▁parsed	-16390
Flow	-16391
学好	-16392
▁traffic	-16393
定价	-16394
办事处	-16395
东北部	-16396
千万别	-16397
orkshire	-16398
SIZE	-16399
分析一下	-16400
领导人	-16401
▁Imp	-16402
看我	-16403
outs	-16404
胖子	-16405
_.	-16406
愿望	-16407
Impl	-16408
大妈	-16409
▁Moore	-16410
血糖	-16411
hosts	-16412
aptist	-16413
iteritems	-16414
>"	-16415
,))	-16416
对阵	-16417
▁Treat	-16418
▁determine	-16419
▁Jordan	-16420
USE	-16421
平板	-16422
▁historian	-16423
小弟	-16424
but	-16425
大部分人	-16426
总有	-16427
当今	-16428
也只是	-16429
bits	-16430
▁typically	-16431
tha	-16432
诗人	-16433
是德国	-16434
的分	-16435
▁pytest	-16436
雾霾	-16437
Top	-16438
克里	-16439
腐败	-16440
▁teaching	-16441
的市场	-16442
shift	-16443
▁physical	-16444
乒乓	-16445
▁如果你	-16446
Admin	-16447
▁corner	-16448
现在我	-16449
oment	-16450
价钱	-16451
▁earth	-16452
除此之外	-16453
品味	-16454
一首	-16455
elif	-16456
numpy	-16457
老子	-16458
(('	-16459
RC	-16460
新兴	-16461
▁Matthew	-16462
upload	-16463
▁Gran	-16464
下半	-16465
爱问	-16466
用力	-16467
times	-16468
祖国	-16469
得到的	-16470
连锁	-16471
的角色	-16472
evens	-16473
▁publications	-16474
writers	-16475
划分	-16476
▁Dance	-16477
河畔	-16478
从中	-16479
apps	-16480
▁performances	-16481
长辈	-16482
▁Ay	-16483
rf	-16484
收缩	-16485
就应该	-16486
▁lack	-16487
但却	-16488
some	-16489
打架	-16490
亲子	-16491
怎么能	-16492
▁proto	-16493
掉的	-16494
▁Cow	-16495
▁LICENSE	-16496
loyd	-16497
learn	-16498
▁Angl	-16499
▁attend	-16500
▁Who	-16501
▁Orchestra	-16502
▁USE	-16503
':{'	-16504
▁Vel	-16505
▁leaders	-16506
▁detail	-16507
纠正	-16508
helper	-16509
站台	-16510
举个例子	-16511
克拉	-16512
所以说	-16513
千里	-16514
所说	-16515
精心	-16516
盲目	-16517
vector	-16518
▁touch	-16519
▁enable	-16520
一面	-16521
担保	-16522
任性	-16523
挣钱	-16524
mpy	-16525
希望有	-16526
▁Bulgarian	-16527
解决了	-16528
internal	-16529
FB	-16530
毛孔	-16531
▁outer	-16532
各样的	-16533
勋章	-16534
▁Yorkshire	-16535
live	-16536
算了	-16537
能力的	-16538
剧中	-16539
____	-16540
▁Survey	-16541
满了	-16542
▁scene	-16543
▁meters	-16544
火热	-16545
学姐	-16546
东南部	-16547
▁focus	-16548
偏向	-16549
长久	-16550
在读	-16551
喜欢上	-16552
bc	-16553
性生活	-16554
这么大	-16555
▁flight	-16556
老爸	-16557
commands	-16558
不看	-16559
柠檬	-16560
的要	-16561
这几个	-16562
▁capita	-16563
inus	-16564
Byte	-16565
▁kg	-16566
▁сел	-16567
Big	-16568
▁Detroit	-16569
▁Dall	-16570
Label	-16571
推理	-16572
▁Meg	-16573
FE	-16574
挺好	-16575
欺骗	-16576
angel	-16577
Control	-16578
基础上	-16579
的细节	-16580
点多	-16581
crete	-16582
▁Cour	-16583
▁weights	-16584
细腻	-16585
~~~~~~~~	-16586
干脆	-16587
常务	-16588
▁Miami	-16589
监狱	-16590
转行	-16591
有无	-16592
seg	-16593
早在	-16594
流水	-16595
菩萨	-16596
的理解	-16597
▁Sunday	-16598
刚毕业	-16599
鱼类	-16600
暗恋	-16601
▁Ju	-16602
▁Reserve	-16603
▁Kings	-16604
行程	-16605
申购	-16606
▁successfully	-16607
omat	-16608
是比较	-16609
足协	-16610
("""	-16611
其中一种	-16612
都比较	-16613
观赏	-16614
▁suffix	-16615
中级	-16616
晋级	-16617
的黑	-16618
currency	-16619
脖子	-16620
DJ	-16621
这三	-16622
▁collected	-16623
bus	-16624
秋天	-16625
围观	-16626
eva	-16627
两大	-16628
Button	-16629
states	-16630
德尔	-16631
尼亚州	-16632
AttributeChecker	-16633
外出	-16634
可乐	-16635
▁Iranian	-16636
人次	-16637
▁rout	-16638
uclear	-16639
▁stadium	-16640
▁SP	-16641
Order	-16642
滴滴	-16643
网民	-16644
请关注	-16645
details	-16646
▁sand	-16647
乐园	-16648
support	-16649
的不同	-16650
一起去	-16651
▁Communist	-16652
会使	-16653
否定	-16654
▁medals	-16655
XML	-16656
不是说	-16657
后卫	-16658
注定	-16659
▁vector	-16660
约炮	-16661
头脑	-16662
但如果	-16663
Task	-16664
DefaultDeleter	-16665
征服	-16666
missing	-16667
▁callable	-16668
灰色	-16669
踏实	-16670
▁Stew	-16671
erse	-16672
▁summ	-16673
▁Af	-16674
驾驶员	-16675
mselves	-16676
还真	-16677
▁san	-16678
hello	-16679
日消息	-16680
illo	-16681
担当	-16682
▁tradition	-16683
▁castle	-16684
匈牙利	-16685
▁inaug	-16686
▁gives	-16687
▁horse	-16688
▁giving	-16689
护照	-16690
周二	-16691
泻药	-16692
amo	-16693
▁dataset	-16694
}}	-16695
Art	-16696
LOG	-16697
multi	-16698
笔试	-16699
一会儿	-16700
▁emerg	-16701
）*《	-16702
verify	-16703
就是要	-16704
/',	-16705
瑜伽	-16706
()),	-16707
▁soft	-16708
南至	-16709
\'	-16710
这种人	-16711
千年	-16712
mag	-16713
庆祝	-16714
同情	-16715
▁nick	-16716
向前	-16717
▁Square	-16718
Mark	-16719
▁suit	-16720
见解	-16721
首个	-16722
proc	-16723
▁deleg	-16724
pure	-16725
这篇文章	-16726
了很久	-16727
的神	-16728
▁McK	-16729
我也不知道	-16730
▁Associ	-16731
▁begin	-16732
▁前	-16733
街上	-16734
die	-16735
全场	-16736
候选人	-16737
▁stderr	-16738
有意	-16739
画家	-16740
▁spring	-16741
▁Medicine	-16742
你了	-16743
▁Pur	-16744
华夏	-16745
▁learning	-16746
sem	-16747
hook	-16748
描写	-16749
之际	-16750
onymous	-16751
▁external	-16752
游戏中	-16753
redirect	-16754
化了	-16755
公布的	-16756
▁su	-16757
布莱	-16758
的真实	-16759
帮帮我	-16760
▁bought	-16761
leveland	-16762
SK	-16763
伊利	-16764
都已经	-16765
eo	-16766
▁Studios	-16767
见证	-16768
▁Draft	-16769
So	-16770
period	-16771
是无	-16772
▁scheduled	-16773
有一定的	-16774
Close	-16775
fghan	-16776
所以想	-16777
英镑	-16778
」、「	-16779
在该	-16780
星星	-16781
▁coin	-16782
▁NAS	-16783
▁Infantry	-16784
▁Je	-16785
结尾	-16786
ente	-16787
苦恼	-16788
Op	-16789
夺得	-16790
比利时	-16791
消毒	-16792
这几	-16793
宏观	-16794
远程	-16795
▁boundary	-16796
▁rc	-16797
任何人	-16798
▁islands	-16799
database	-16800
▁question	-16801
关键是	-16802
客场	-16803
终端	-16804
逃避	-16805
特意	-16806
HD	-16807
点半	-16808
▁plans	-16809
▁trees	-16810
steroid	-16811
太极	-16812
▁gas	-16813
城的	-16814
▁cook	-16815
ogg	-16816
▁UE	-16817
attempted	-16818
保湿	-16819
到一个	-16820
mingham	-16821
不限	-16822
在我的	-16823
范冰冰	-16824
▁Progress	-16825
▁paintings	-16826
LD	-16827
喜欢他	-16828
aran	-16829
aman	-16830
▁payload	-16831
为我	-16832
cles	-16833
▁Mak	-16834
▁Margaret	-16835
▁believed	-16836
较低	-16837
▁Syn	-16838
▁Yugoslav	-16839
▁destroyed	-16840
实名	-16841
店的	-16842
福建省	-16843
患有	-16844
火了	-16845
▁Leban	-16846
▁secretary	-16847
chell	-16848
marker	-16849
付费	-16850
天猫	-16851
逛街	-16852
电磁	-16853
争论	-16854
▁Colombia	-16855
▁vm	-16856
DVD	-16857
fect	-16858
▁roof	-16859
戒指	-16860
铁路车站	-16861
▁Iron	-16862
Aut	-16863
▁ult	-16864
没有了	-16865
善于	-16866
▁nothing	-16867
▁reserve	-16868
基础设施	-16869
avour	-16870
osv	-16871
此站	-16872
花的	-16873
▁Lud	-16874
▁spect	-16875
不符合	-16876
本期	-16877
利好	-16878
seconds	-16879
损坏	-16880
等问题	-16881
香蕉	-16882
▁Phill	-16883
美白	-16884
自己去	-16885
事的	-16886
▁Peru	-16887
镜子	-16888
▁第一次	-16889
ferred	-16890
穿的	-16891
北海道	-16892
还是在	-16893
▁Estonian	-16894
ugar	-16895
▁provider	-16896
tod	-16897
signed	-16898
▁Fall	-16899
高人	-16900
此处	-16901
▁tail	-16902
过的最	-16903
受到了	-16904
▁Politics	-16905
介意	-16906
脆弱	-16907
▁themselves	-16908
VERSION	-16909
高位	-16910
estyle	-16911
外科	-16912
Reference	-16913
glob	-16914
▁channels	-16915
Template	-16916
▁thir	-16917
供给	-16918
妹纸	-16919
reets	-16920
▁disease	-16921
变速箱	-16922
龙头	-16923
▁poets	-16924
Fi	-16925
▁Carn	-16926
ibraries	-16927
▁leaf	-16928
▁techni	-16929
第二季	-16930
万历	-16931
/>.	-16932
越高	-16933
服饰	-16934
▁Ru	-16935
抵制	-16936
▁pairs	-16937
▁optim	-16938
浓度	-16939
tar	-16940
▁Pow	-16941
图形	-16942
的方向	-16943
acier	-16944
数值	-16945
埃尔	-16946
破解	-16947
如果我	-16948
▁territory	-16949
不代表	-16950
用户的	-16951
▁Pir	-16952
银行的	-16953
▁Speed	-16954
院士	-16955
▁shr	-16956
▁Trade	-16957
温州	-16958
造成了	-16959
侮辱	-16960
取得了	-16961
新款	-16962
喜好	-16963
▁await	-16964
▁resigned	-16965
memory	-16966
即使是	-16967
就不是	-16968
中东	-16969
声称	-16970
▁joining	-16971
▁Full	-16972
▁Fund	-16973
你现在	-16974
sparse	-16975
elected	-16976
dl	-16977
周三	-16978
可以让	-16979
umin	-16980
▁formation	-16981
▁#:	-16982
▁Unit	-16983
佛罗	-16984
住宿	-16985
了一年	-16986
挪威	-16987
给点	-16988
▁Forces	-16989
为其	-16990
他家	-16991
好呢	-16992
成品	-16993
menu	-16994
的学校	-16995
▁brothers	-16996
▁Bachelor	-16997
衡量	-16998
oi	-16999
▁processing	-17000
对我的	-17001
皇马	-17002
惊讶	-17003
风云	-17004
▁Dick	-17005
▁enabled	-17006
ownt	-17007
口的	-17008
仓库	-17009
sqrt	-17010
悟空	-17011
请您	-17012
有许多	-17013
▁Cook	-17014
▁windows	-17015
就是为了	-17016
Option	-17017
▁filters	-17018
酱油	-17019
保险公司	-17020
nold	-17021
▁increased	-17022
tol	-17023
▁xrange	-17024
istical	-17025
的活动	-17026
▁peak	-17027
▁Rico	-17028
起的	-17029
imore	-17030
通俗	-17031
▁algorithm	-17032
包裹	-17033
就是不	-17034
印尼	-17035
登场	-17036
▁campus	-17037
使其	-17038
抵达	-17039
▁Ry	-17040
科比	-17041
煤炭	-17042
▁Mol	-17043
▁upload	-17044
如果要	-17045
点了	-17046
bg	-17047
净利润	-17048
做人	-17049
')},	-17050
▁literary	-17051
HS	-17052
▁gun	-17053
多样	-17054
Struct	-17055
ipient	-17056
淡水	-17057
偏见	-17058
地在	-17059
养殖	-17060
职责	-17061
越野	-17062
外形	-17063
▁Alaska	-17064
仍在	-17065
任职	-17066
点击上方	-17067
▁providing	-17068
Mask	-17069
payload	-17070
度假	-17071
▁bomb	-17072
Host	-17073
ulu	-17074
吸烟	-17075
▁Gian	-17076
det	-17077
日凌晨	-17078
▁crew	-17079
她就	-17080
精确	-17081
while	-17082
的评价	-17083
复旦	-17084
De	-17085
”<	-17086
上角	-17087
着的	-17088
被动	-17089
▁?	-17090
▁Nevada	-17091
uador	-17092
爱他	-17093
elligence	-17094
▁dry	-17095
▁Http	-17096
▁Population	-17097
mel	-17098
是位于美国	-17099
你最	-17100
如果能	-17101
图中	-17102
激发	-17103
十九	-17104
kee	-17105
metric	-17106
不等	-17107
习性	-17108
追究	-17109
学业	-17110
MENT	-17111
班级	-17112
问题了	-17113
九龙	-17114
银河	-17115
机车	-17116
suffix	-17117
感恩	-17118
▁Food	-17119
东亚	-17120
汉子	-17121
说下	-17122
▁hotel	-17123
kov	-17124
mc	-17125
机灵	-17126
球的	-17127
vol	-17128
▁Footballers	-17129
ido	-17130
你应该	-17131
各位大神	-17132
▁Jama	-17133
▁Volume	-17134
▁boat	-17135
最快	-17136
atche	-17137
详细的	-17138
otic	-17139
日后	-17140
▁Cathedral	-17141
党委	-17142
杨洋	-17143
就不用	-17144
响应	-17145
urst	-17146
▁sales	-17147
osis	-17148
▁Kil	-17149
▁gyp	-17150
ivia	-17151
▁eas	-17152
abspath	-17153
德拉	-17154
generator	-17155
母乳	-17156
▁wings	-17157
▁→	-17158
一二	-17159
传输	-17160
和中国	-17161
为中国	-17162
▁think	-17163
的核心	-17164
难得	-17165
distance	-17166
▁Cleveland	-17167
剩余	-17168
佩戴	-17169
注意到	-17170
课本	-17171
▁psych	-17172
▁Primary	-17173
▁identified	-17174
world	-17175
》】	-17176
我再	-17177
eral	-17178
了自己的	-17179
诸如	-17180
栖息在	-17181
兼容	-17182
卡拉	-17183
fire	-17184
领土	-17185
▁fully	-17186
考证	-17187
很强	-17188
▁cfg	-17189
▁gets	-17190
ective	-17191
国内外	-17192
▁none	-17193
▁Vik	-17194
▁Swim	-17195
▁Mission	-17196
一门	-17197
分手了	-17198
atur	-17199
▁Our	-17200
▁cells	-17201
陆地	-17202
▁catch	-17203
时许	-17204
▁Upper	-17205
▁purpose	-17206
过一个	-17207
▁suburb	-17208
爱尔兰	-17209
opal	-17210
和人	-17211
▁Bot	-17212
一事	-17213
小于	-17214
elve	-17215
干的	-17216
西北部	-17217
治安	-17218
特么	-17219
你需要	-17220
pn	-17221
▁Gmina	-17222
纪委	-17223
Ang	-17224
在国外	-17225
亚军	-17226
商人	-17227
众所	-17228
不分	-17229
▁View	-17230
公正	-17231
是一部	-17232
TM	-17233
火星	-17234
老鼠	-17235
▁stored	-17236
▁indices	-17237
出入	-17238
感叹	-17239
完全可以	-17240
▁equipment	-17241
另外一个	-17242
▁businessman	-17243
他妈	-17244
-<	-17245
乙肝	-17246
▁Educational	-17247
▁daily	-17248
▁XXX	-17249
没那么	-17250
▁ranked	-17251
arguments	-17252
协商	-17253
就连	-17254
▁examples	-17255
同胞	-17256
姿态	-17257
▁上海	-17258
名义	-17259
▁Salv	-17260
*(	-17261
很多人都	-17262
ferences	-17263
▁Publishing	-17264
▁cars	-17265
▁begins	-17266
Format	-17267
▁ps	-17268
logging	-17269
IPT	-17270
被盗	-17271
▁journals	-17272
一来	-17273
变动	-17274
大爷	-17275
主打	-17276
停车场	-17277
美剧	-17278
反射	-17279
kan	-17280
搞定	-17281
bean	-17282
▁planned	-17283
▁defenders	-17284
有三	-17285
的小说	-17286
没能	-17287
的双	-17288
火山	-17289
柏林	-17290
西医	-17291
▁NE	-17292
灯光	-17293
rat	-17294
/'	-17295
圣经	-17296
▁ve	-17297
高原	-17298
草原	-17299
]):	-17300
▁Dh	-17301
不太好	-17302
乳腺	-17303
议院	-17304
尚书	-17305
enne	-17306
楼梯	-17307
▁poly	-17308
新型	-17309
▁overs	-17310
▁IMP	-17311
俗称	-17312
变为	-17313
Flag	-17314
布尔	-17315
的新闻	-17316
▁Diocese	-17317
西南部	-17318
液体	-17319
Win	-17320
想不到	-17321
▁Doctor	-17322
涵盖	-17323
月亮	-17324
被迫	-17325
iday	-17326
▁Broadcast	-17327
看不懂	-17328
PORT	-17329
holm	-17330
▁recomm	-17331
倾向于	-17332
十七	-17333
政党	-17334
配方	-17335
肯定会	-17336
去掉	-17337
▁IO	-17338
他又	-17339
oes	-17340
▁consisted	-17341
▁Tol	-17342
▁Examples	-17343
▁Nob	-17344
她也	-17345
读了	-17346
▁lot	-17347
STRING	-17348
▁Valid	-17349
▁charg	-17350
的一面	-17351
▁Age	-17352
的定义	-17353
▁pieces	-17354
rieved	-17355
较大的	-17356
▁Vlad	-17357
曲目	-17358
▁sax	-17359
plus	-17360
onian	-17361
恋人	-17362
送给	-17363
中了	-17364
早日	-17365
说不定	-17366
简约	-17367
我这个	-17368
▁Lam	-17369
▁Pierre	-17370
▁Hend	-17371
陨石	-17372
若是	-17373
诸位	-17374
;"|	-17375
服务的	-17376
OUT	-17377
就得	-17378
投资人	-17379
NotFound	-17380
▁['_	-17381
click	-17382
机票	-17383
哥伦	-17384
圣母	-17385
之时	-17386
▁beat	-17387
尸体	-17388
女主角	-17389
四月	-17390
▁partn	-17391
年级	-17392
售后	-17393
整容	-17394
▁BE	-17395
就是因为	-17396
出去玩	-17397
▁Winners	-17398
journ	-17399
raight	-17400
istani	-17401
当年的	-17402
的事实	-17403
elements	-17404
我不会	-17405
▁Andr	-17406
建制	-17407
ocker	-17408
ln	-17409
备受	-17410
相爱	-17411
brah	-17412
年号	-17413
▁Vas	-17414
你说的	-17415
明白了	-17416
考古	-17417
Core	-17418
--<	-17419
”）	-17420
▁JSON	-17421
折磨	-17422
agg	-17423
android	-17424
opedia	-17425
▁finishing	-17426
aments	-17427
进度	-17428
个人感觉	-17429
军区	-17430
▁devices	-17431
▁executed	-17432
芝麻	-17433
▁Despite	-17434
后市	-17435
▁Dean	-17436
attach	-17437
上车	-17438
轻微	-17439
▁settled	-17440
▁destination	-17441
帮帮忙	-17442
▁alternative	-17443
投稿	-17444
手机的	-17445
抗战	-17446
跑了	-17447
最美	-17448
virt	-17449
prise	-17450
engers	-17451
secutive	-17452
VI	-17453
▁Poly	-17454
布林	-17455
中奖	-17456
screen	-17457
▁suite	-17458
丧失	-17459
反抗	-17460
achi	-17461
后会	-17462
碎片	-17463
▁prize	-17464
力学	-17465
上个	-17466
挽回	-17467
sock	-17468
▁Horn	-17469
一副	-17470
三月	-17471
▁Mi	-17472
▁scientific	-17473
校友	-17474
还是比较	-17475
在下	-17476
▁advanced	-17477
拿了	-17478
dem	-17479
为他	-17480
▁Pope	-17481
宪法	-17482
▁mand	-17483
遭受	-17484
放置	-17485
atherine	-17486
两家	-17487
额度	-17488
组织的	-17489
igg	-17490
战队	-17491
▁SQL	-17492
某一	-17493
心得	-17494
^^	-17495
嫉妒	-17496
▁Racing	-17497
东临	-17498
urray	-17499
▁Author	-17500
LOL	-17501
framework	-17502
难忘	-17503
意义的	-17504
▁astr	-17505
▁incorporated	-17506
configuration	-17507
▁losing	-17508
上说	-17509
占有	-17510
喜欢我	-17511
赞助	-17512
IAL	-17513
建国	-17514
贬值	-17515
▁Actress	-17516
火灾	-17517
Fail	-17518
珍珠	-17519
▁Elections	-17520
ige	-17521
ubs	-17522
裙子	-17523
富有	-17524
▁equivalent	-17525
▁habitat	-17526
▁passing	-17527
德华	-17528
▁Carib	-17529
公立	-17530
大国	-17531
中式	-17532
cz	-17533
izers	-17534
其实我	-17535
要多	-17536
▁dependencies	-17537
的精神	-17538
alph	-17539
▁generation	-17540
找了	-17541
▁'$	-17542
▁fresh	-17543
▁captured	-17544
unda	-17545
▁sens	-17546
当场	-17547
初衷	-17548
地狱	-17549
DATA	-17550
第三次	-17551
alam	-17552
[...]
