{
  "version": "1.0",
  "truncation": null,
  "padding": null,
  "added_tokens": [],
  "normalizer": null,
  "pre_tokenizer": {
    "type": "Sequence",
    "pretokenizers": [
      {
        "type": "Split",
        "pattern": {
          "Regex": "'(?i:[sdmt]|ll|ve|re)|\\s?+[^\\r\\n\\p{N}\\s\\p{P}\\p{S}\\u4e00-\\u9fa5]+|\\p{N}{1,3}| ?[^\\s\\p{L}\\p{N}]++[\\r\\n]*|\\s*[\\r\\n]|\\s+(?![^\\r\\n\\p{N}\\s\\p{P}\\p{S}\\u4e00-\\u9fa5])|\\s+|[\\u4e00-\\u9fa5]+"
        },
        "behavior": "Isolated",
        "invert": false
      },
      {
        "type": "ByteLevel",
        "add_prefix_space": false,
        "trim_offsets": true,
        "use_regex": false
      }
    ]
  },
  "post_processor": {
    "type": "ByteLevel",
    "add_prefix_space": true,
    "trim_offsets": false,
    "use_regex": true
  },
  "decoder": {
    "type": "ByteLevel",
    "add_prefix_space": true,
    "trim_offsets": true,
    "use_regex": true
  },
  "model": {
    "type": "BPE",
    "dropout": null,
    "unk_token": null,
    "continuing_subword_prefix": null,
    "end_of_word_suffix": null,
    "fuse_unk": false,
    "byte_fallback": false,
    "ignore_merges": false,
    "vocab": {
      "!": 0,
      "\"": 1,
      "#": 2,
      "$": 3,
      "%": 4,
      "&": 5,
      "'": 6,
      "(": 7,
      ")": 8,
      "*": 9,
      "+": 10,
      ",": 11,
      "-": 12,
      ".": 13,
      "/": 14,
      "0": 15,
      "1": 16,
      "2": 17,
      "3": 18,
      "4": 19,
      "5": 20,
      "6": 21,
      "7": 22,
      "8": 23,
      "9": 24,
      ":": 25,
      ";": 26,
      "<": 27,
      "=": 28,
      ">": 29,
      "?": 30,
      "@": 31,
      "A": 32,
      "B": 33,
      "C": 34,
      "D": 35,
      "E": 36,
      "F": 37,
      "G": 38,
      "H": 39,
      "I": 40,
      "J": 41,
      "K": 42,
      "L": 43,
      "M": 44,
      "N": 45,
      "O": 46,
      "P": 47,
      "Q": 48,
      "R": 49,
      "S": 50,
      "T": 51,
      "U": 52,
      "V": 53,
      "W": 54,
      "X": 55,
      "Y": 56,
      "Z": 57,
      "[": 58,
      "\\": 59,
      "]": 60,
      "^": 61,
      "_": 62,
      "`": 63,
      "a": 64,
      "b": 65,
      "c": 66,
      "d": 67,
      "e": 68,
      "f": 69,
      "g": 70,
      "h": 71,
      "i": 72,
      "j": 73,
      "k": 74,
      "l": 75,
      "m": 76,
      "n": 77,
      "o": 78,
      "p": 79,
      "q": 80,
      "r": 81,
      "s": 82,
      "t": 83,
      "u": 84,
      "v": 85,
      "w": 86,
      "x": 87,
      "y": 88,
      "z": 89,
      "{": 90,
      "|": 91,
      "}": 92,
      "~": 93,
      "¡": 94,
      "¢": 95,
      "£": 96,
      "¤": 97,
      "¥": 98,
      "¦": 99,
      "§": 100,
      "¨": 101,
      "©": 102,
      "ª": 103,
      "«": 104,
      "¬": 105,
      "®": 106,
      "¯": 107,
      "°": 108,
      "±": 109,
      "²": 110,
      "³": 111,
      "´": 112,
      "µ": 113,
      "¶": 114,
      "·": 115,
      "¸": 116,
      "¹": 117,
      "º": 118,
      "»": 119,
      "¼": 120,
      "½": 121,
      "¾": 122,
      "¿": 123,
      "À": 124,
      "Á": 125,
      "Â": 126,
      "Ã": 127,
      "Ä": 128,
      "Å": 129,
      "Æ": 130,
      "Ç": 131,
      "È": 132,
      "É": 133,
      "Ê": 134,
      "Ë": 135,
      "Ì": 136,
      "Í": 137,
      "Î": 138,
      "Ï": 139,
      "Ð": 140,
      "Ñ": 141,
      "Ò": 142,
      "Ó": 143,
      "Ô": 144,
      "Õ": 145,
      "Ö": 146,
      "×": 147,
      "Ø": 148,
      "Ù": 149,
      "Ú": 150,
      "Û": 151,
      "Ü": 152,
      "Ý": 153,
      "Þ": 154,
      "ß": 155,
      "à": 156,
      "á": 157,
      "â": 158,
      "ã": 159,
      "ä": 160,
      "å": 161,
      "æ": 162,
      "ç": 163,
      "è": 164,
      "é": 165,
      "ê": 166,
      "ë": 167,
      "ì": 168,
      "í": 169,
      "î": 170,
      "ï": 171,
      "ð": 172,
      "ñ": 173,
      "ò": 174,
      "ó": 175,
      "ô": 176,
      "õ": 177,
      "ö": 178,
      "÷": 179,
      "ø": 180,
      "ù": 181,
      "ú": 182,
      "û": 183,
      "ü": 184,
      "ý": 185,
      "þ": 186,
      "ÿ": 187,
      "Ā": 188,
      "ā": 189,
      "Ă": 190,
      "ă": 191,
      "Ą": 192,
      "ą": 193,
      "Ć": 194,
      "ć": 195,
      "Ĉ": 196,
      "ĉ": 197,
      "Ċ": 198,
      "ċ": 199,
      "Č": 200,
      "č": 201,
      "Ď": 202,
      "ď": 203,
      "Đ": 204,
      "đ": 205,
      "Ē": 206,
      "ē": 207,
      "Ĕ": 208,
      "ĕ": 209,
      "Ė": 210,
      "ė": 211,
      "Ę": 212,
      "ę": 213,
      "Ě": 214,
      "ě": 215,
      "Ĝ": 216,
      "ĝ": 217,
      "Ğ": 218,
      "ğ": 219,
      "Ġ": 220,
      "ġ": 221,
      "Ģ": 222,
      "ģ": 223,
      "Ĥ": 224,
      "ĥ": 225,
      "Ħ": 226,
      "ħ": 227,
      "Ĩ": 228,
      "ĩ": 229,
      "Ī": 230,
      "ī": 231,
      "Ĭ": 232,
      "ĭ": 233,
      "Į": 234,
      "į": 235,
      "İ": 236,
      "ı": 237,
      "Ĳ": 238,
      "ĳ": 239,
      "Ĵ": 240,
      "ĵ": 241,
      "Ķ": 242,
      "ķ": 243,
      "ĸ": 244,
      "Ĺ": 245,
      "ĺ": 246,
      "Ļ": 247,
      "ļ": 248,
      "Ľ": 249,
      "ľ": 250,
      "Ŀ": 251,
      "ŀ": 252,
      "Ł": 253,
      "ł": 254,
      "Ń": 255,
      "ĠĠ": 256,
      "Ġt": 257,
      "ï¼": 258,
      "ä¸": 259,
      "in": 260,
      "he": 261,
      "Ġa": 262,
      "er": 263,
      "ĠĠĠĠ": 264,
      "ï¼Į": 265,
      "on": 266,
      "Ġthe": 267,
      "re": 268,
      "çļ": 269,
      "çļĦ": 270,
      "or": 271,
      "an": 272,
      "at": 273,
      "en": 274,
      "äº": 275,
      "st": 276,
      "ãĢ": 277,
      "ed": 278,
      "Ġo": 279,
      "al": 280,
      "ar": 281,
      "it": 282,
      "Ġs": 283,
      "Ġw": 284,
      "æľ": 285,
      "es": 286,
      "Ġc": 287,
      "Ġf": 288,
      "Ġof": 289,
      "Ġin": 290,
      "is": 291,
      "nd": 292,
      "ä»": 293,
      "åı": 294,
      "ãĢĤ": 295,
      "ic": 296,
      "Ġp": 297,
      "Ġb": 298,
      "å¤": 299,
      "æĺ": 300,
      "ing": 301,
      "ion": 302,
      "as": 303,
      "ro": 304,
      "le": 305,
      "Ġand": 306,
      "è¿": 307,
      "åħ": 308,
      "ĠS": 309,
      "æĪ": 310,
      "Ġd": 311,
      "el": 312,
      "ä½": 313,
      "æĺ¯": 314,
      "ĠĠĠĠĠĠĠĠ": 315,
      "ä¹": 316,
      "åĲ": 317,
      "åĪ": 318,
      "Ġm": 319,
      "ĠC": 320,
      "ou": 321,
      "ĠA": 322,
      "ĠT": 323,
      "å®": 324,
      "Ġto": 325,
      "åľ": 326,
      "il": 327,
      "ä¸Ģ": 328,
      "ent": 329,
      "am": 330,
      "è¯": 331,
      "å°": 332,
      "çĶ": 333,
      "ĠĠĠ": 334,
      "Ġh": 335,
      "ä¸į": 336,
      "ĠM": 337,
      "âĢ": 338,
      "Ġre": 339,
      "et": 340,
      "om": 341,
      "ol": 342,
      "ct": 343,
      "æĹ": 344,
      "åĽ": 345,
      "æľī": 346,
      "ç»": 347,
      "ĠP": 348,
      "ĠB": 349,
      "Ġl": 350,
      "ad": 351,
      "20": 352,
      "å¹": 353,
      "åŃ": 354,
      "äºĨ": 355,
      "ur": 356,
      "19": 357,
      "åĬ": 358,
      "Ġn": 359,
      "æĪĳ": 360,
      "äºº": 361,
      "æĸ": 362,
      "å¾": 363,
      "ĠI": 364,
      "ĠR": 365,
      "åľ¨": 366,
      "ä¼": 367,
      "id": 368,
      "ac": 369,
      "åį": 370,
      "å¥": 371,
      "æĿ": 372,
      "ĠH": 373,
      "è®": 374,
      "ig": 375,
      "ot": 376,
      "im": 377,
      "iv": 378,
      "Ġe": 379,
      "æī": 380,
      "ation": 381,
      "ers": 382,
      "ut": 383,
      "ĥ½": 384,
      "us": 385,
      "ĠL": 386,
      "ĠD": 387,
      "ir": 388,
      "èĢ": 389,
      "å¸": 390,
      "ä¸ª": 391,
      "ĠF": 392,
      "ĠThe": 393,
      "ch": 394,
      "Ġfor": 395,
      "å·": 396,
      "Ġwas": 397,
      "Ġth": 398,
      "éĩ": 399,
      "ist": 400,
      "em": 401,
      "ay": 402,
      "ĠN": 403,
      "åĩ": 404,
      "Ġis": 405,
      "å¤§": 406,
      "Ġon": 407,
      "å¼": 408,
      "ly": 409,
      "un": 410,
      "åĨ": 411,
      "ĠG": 412,
      "è§": 413,
      "Ġg": 414,
      "ä¸º": 415,
      "ãĢģ": 416,
      "æĢ": 417,
      "ĠE": 418,
      "è¿Ļ": 419,
      "ow": 420,
      "ce": 421,
      "ĠW": 422,
      "ag": 423,
      "ul": 424,
      "Ġas": 425,
      "è¡": 426,
      "åº": 427,
      "ĠĠĠĠĠĠĠ": 428,
      "çľ": 429,
      "th": 430,
      "éĹ": 431,
      "ith": 432,
      "å¯": 433,
      ")Ċ": 434,
      "od": 435,
      "çĽ": 436,
      "Ġst": 437,
      "åĮ": 438,
      "and": 439,
      "ä¸Ń": 440,
      "éĢ": 441,
      "èµ": 442,
      "æł": 443,
      "ra": 444,
      "ter": 445,
      "Ġbe": 446,
      "um": 447,
      "åİ": 448,
      "se": 449,
      "ä¸Ĭ": 450,
      "if": 451,
      "çİ": 452,
      "æ²": 453,
      "å¹´": 454,
      "her": 455,
      "op": 456,
      "ä»¥": 457,
      "èĩ": 458,
      "ï¼Ł": 459,
      "ç§": 460,
      "åĴ": 461,
      "ĠJ": 462,
      "Ġde": 463,
      "rom": 464,
      "æĬ": 465,
      "Ġwith": 466,
      "æĹ¶": 467,
      "æķ": 468,
      "--": 469,
      "æĥ": 470,
      "Ġ=": 471,
      "Ġal": 472,
      "å°±": 473,
      "ĠO": 474,
      "¦ģ": 475,
      "elf": 476,
      "çī": 477,
      "å¿": 478,
      "ver": 479,
      "è¦ģ": 480,
      "est": 481,
      "Ġby": 482,
      "æ¯": 483,
      "åĴĮ": 484,
      "åĪ°": 485,
      "è´": 486,
      "æĿ¥": 487,
      "æŃ": 488,
      "oc": 489,
      "ä¼ļ": 490,
      "åĽ½": 491,
      "ri": 492,
      "å¦": 493,
      "ä¹Ī": 494,
      "ate": 495,
      "å½": 496,
      "åĳ": 497,
      "éĿ": 498,
      "Ġcon": 499,
      "Ġv": 500,
      "èĥ½": 501,
      "çº": 502,
      "pe": 503,
      "æĶ": 504,
      "Ġat": 505,
      "201": 506,
      "ab": 507,
      "'s": 508,
      "ort": 509,
      "æ³": 510,
      "åı¯": 511,
      "çĶŁ": 512,
      "é¢": 513,
      "res": 514,
      "å¤ļ": 515,
      ":Ċ": 516,
      "os": 517,
      "Ġan": 518,
      "ï¼ļ": 519,
      "åŃ¦": 520,
      "æ°": 521,
      "å±": 522,
      "ä½ł": 523,
      "up": 524,
      "Ġwh": 525,
      "åĲİ": 526,
      "éĻ": 527,
      "ä¹Ł": 528,
      "æŀ": 529,
      "åĵ": 530,
      "ĠK": 531,
      "æĦ": 532,
      "Ġfrom": 533,
      "all": 534,
      "ä»ĸ": 535,
      "br": 536,
      "ian": 537,
      "ĠU": 538,
      "å¥½": 539,
      "qu": 540,
      "çŃ": 541,
      "è¯´": 542,
      "ain": 543,
      "æĭ": 544,
      "è½": 545,
      "ity": 546,
      "ĠIn": 547,
      "ber": 548,
      "art": 549,
      "è¾": 550,
      "èĩª": 551,
      "ä¸ĭ": 552,
      "ame": 553,
      "Ġhe": 554,
      "åĩº": 555,
      "å¯¹": 556,
      "éĥ½": 557,
      "200": 558,
      "åī": 559,
      "Ġthat": 560,
      "æİ": 561,
      "av": 562,
      "âĢĵ": 563,
      "å®¶": 564,
      "çĶ¨": 565,
      "ies": 566,
      "ew": 567,
      "Ġpro": 568,
      "ia": 569,
      "âĢľ": 570,
      "ill": 571,
      "Ġcom": 572,
      "è¿ĩ": 573,
      "æ¬": 574,
      "ap": 575,
      "âĢĿ": 576,
      "ä¿": 577,
      "äºİ": 578,
      "çĲ": 579,
      "ï¼Ī": 580,
      "ub": 581,
      "æµ": 582,
      "ï¼ī": 583,
      "ue": 584,
      "åıĳ": 585,
      "å¦Ĥ": 586,
      "éģ": 587,
      "ĠSt": 588,
      "çľĭ": 589,
      "è¡Į": 590,
      "ip": 591,
      "Ġse": 592,
      "ak": 593,
      "nt": 594,
      "igh": 595,
      "ĠĠĠĠĠĠĠĠĠĠĠĠĠĠĠĠ": 596,
      "Ġit": 597,
      "ud": 598,
      "ces": 599,
      "ard": 600,
      "Ġr": 601,
      "åģ": 602,
      "åŃĲ": 603,
      "å¾Ī": 604,
      "00": 605,
      "Ġor": 606,
      "æ²¡": 607,
      "ä»¬": 608,
      "ore": 609,
      "ass": 610,
      "ef": 611,
      "our": 612,
      "çĤ": 613,
      "å¾Ĺ": 614,
      "è¿ĺ": 615,
      "),": 616,
      "çİ°": 617,
      "æĪĲ": 618,
      "æĮ": 619,
      "Ġself": 620,
      "end": 621,
      "Ġpl": 622,
      "og": 623,
      "æĸ¹": 624,
      "åĪĨ": 625,
      "18": 626,
      "å°ı": 627,
      "èĤ": 628,
      "åľ°": 629,
      "ov": 630,
      "ä½ľ": 631,
      "ge": 632,
      "ĠV": 633,
      "æĹ¥": 634,
      "ld": 635,
      "Ġex": 636,
      "ment": 637,
      "ary": 638,
      "è°": 639,
      "pt": 640,
      "ast": 641,
      "éĤ": 642,
      "ated": 643,
      "åŁ": 644,
      "éĺ": 645,
      "ich": 646,
      "ä¸Ģä¸ª": 647,
      "ä¸ļ": 648,
      "ant": 649,
      "ction": 650,
      "æľ¬": 651,
      "ĠCh": 652,
      "è·": 653,
      "æ¸": 654,
      "ine": 655,
      "port": 656,
      "å¤©": 657,
      "éķ": 658,
      "åĢ": 659,
      "ç«": 660,
      "ç»ı": 661,
      "ial": 662,
      "æ´": 663,
      "Ġ'": 664,
      "ive": 665,
      "çŁ": 666,
      "Ġhis": 667,
      "ç½": 668,
      "cl": 669,
      "æľĢ": 670,
      "éĹ®": 671,
      "åħ¬": 672,
      "ä»Ģ": 673,
      "é«": 674,
      "éĿ¢": 675,
      "é«ĺ": 676,
      "æĽ": 677,
      "ug": 678,
      "èĢĮ": 679,
      "ä»Ģä¹Ī": 680,
      "Ġch": 681,
      "åīį": 682,
      "ong": 683,
      "ish": 684,
      "æ±": 685,
      "éĩĮ": 686,
      "ä¹ĭ": 687,
      "ack": 688,
      "ere": 689,
      "å¼Ģ": 690,
      "æľĪ": 691,
      "',": 692,
      "mer": 693,
      "Ġare": 694,
      "æĥ³": 695,
      "ç®": 696,
      "und": 697,
      "éĥ": 698,
      "çĦ": 699,
      "ex": 700,
      "çĲĨ": 701,
      "çĤ¹": 702,
      "ç¬": 703,
      "age": 704,
      "ord": 705,
      "----": 706,
      "åĬ¨": 707,
      "ä½Ĩ": 708,
      "ĠĠĠĠĠĠĠĠĠĠĠ": 709,
      "ust": 710,
      "å¿ĥ": 711,
      "äºĭ": 712,
      "pl": 713,
      "ç¾": 714,
      "æīĢ": 715,
      "æ³ķ": 716,
      "ight": 717,
      "çĪ": 718,
      "ire": 719,
      "\"\"": 720,
      "ure": 721,
      "ell": 722,
      "ä¸»": 723,
      "é¢ĺ": 724,
      "åħ¶": 725,
      "äºĽ": 726,
      "çĦ¶": 727,
      "éĤ£": 728,
      "å®ŀ": 729,
      "ä¾": 730,
      "ear": 731,
      "åİ»": 732,
      "Ġwere": 733,
      "ran": 734,
      "ost": 735,
      "éģĵ": 736,
      "æł·": 737,
      "ess": 738,
      "æ¯Ķ": 739,
      "åĲĮ": 740,
      "Ġk": 741,
      "ult": 742,
      "ign": 743,
      "æĻ": 744,
      "è¶": 745,
      "çĿ": 746,
      "are": 747,
      "):Ċ": 748,
      "10": 749,
      "åĽł": 750,
      "ect": 751,
      "uc": 752,
      "##": 753,
      "ä½ĵ": 754,
      "ç§į": 755,
      "con": 756,
      "ks": 757,
      "æĸ°": 758,
      "iz": 759,
      "so": 760,
      "èĢħ": 761,
      "ry": 762,
      "å¸Ĥ": 763,
      "Ġy": 764,
      "urn": 765,
      "Ġnot": 766,
      "å®ļ": 767,
      "éĥ¨": 768,
      "åķ": 769,
      "ĠUn": 770,
      "ical": 771,
      "ï¼ģ": 772,
      "å·¥": 773,
      "æľº": 774,
      "å·±": 775,
      "åĬĽ": 776,
      "ĠHe": 777,
      "ff": 778,
      "Ġle": 779,
      "one": 780,
      "åħ³": 781,
      "å§": 782,
      "self": 783,
      "rit": 784,
      "æĢ§": 785,
      "èĩªå·±": 786,
      "æĥħ": 787,
      "åĿ": 788,
      "Ġsh": 789,
      "è¢": 790,
      "ount": 791,
      "ric": 792,
      "æŀľ": 793,
      "åı¯ä»¥": 794,
      "éķ¿": 795,
      "ç¤": 796,
      "å½ĵ": 797,
      "Ġcl": 798,
      "éĹ´": 799,
      "çŃī": 800,
      "æı": 801,
      "per": 802,
      "Ġwhich": 803,
      "ile": 804,
      "æĸĩ": 805,
      "199": 806,
      "ther": 807,
      "èģ": 808,
      "åĮº": 809,
      "ions": 810,
      "ath": 811,
      "é£": 812,
      "ec": 813,
      "ey": 814,
      "ang": 815,
      "æ²¡æľī": 816,
      "åħ¨": 817,
      "å¥³": 818,
      "Ġdef": 819,
      "Ġalso": 820,
      "éļ": 821,
      "ä¸İ": 822,
      "æį": 823,
      "è¿Ľ": 824,
      "Ġcomp": 825,
      "çĶµ": 826,
      "æĦı": 827,
      "åģļ": 828,
      "æģ": 829,
      "èµ·": 830,
      "æĦŁ": 831,
      "Ġar": 832,
      "ok": 833,
      "éĽ": 834,
      "æīĭ": 835,
      "åĨħ": 836,
      "ç©": 837,
      "åº¦": 838,
      "åıª": 839,
      "é¡": 840,
      "Ġun": 841,
      "ç¨": 842,
      "ens": 843,
      "ç¾İ": 844,
      "åĬł": 845,
      "çŁ¥": 846,
      "è½¦": 847,
      "ie": 848,
      "åĲĪ": 849,
      "ice": 850,
      "å¤ĸ": 851,
      "ork": 852,
      "int": 853,
      "çĻ": 854,
      "Ġus": 855,
      "orm": 856,
      "èī": 857,
      "ä½į": 858,
      "ember": 859,
      "éĶ": 860,
      "ä¸ī": 861,
      "æ¬¡": 862,
      "Ġret": 863,
      "Ġres": 864,
      "è¢«": 865,
      "ç±": 866,
      "erv": 867,
      "irst": 868,
      "ĠâĢĵ": 869,
      "èĬ": 870,
      "ç¬¬": 871,
      "ime": 872,
      "çķ": 873,
      "ĠY": 874,
      "ep": 875,
      "ory": 876,
      "eren": 877,
      "éĩį": 878,
      "out": 879,
      "Ġplay": 880,
      "èµĦ": 881,
      "æĹł": 882,
      "åĸ": 883,
      "ous": 884,
      "Ġcont": 885,
      "ç³": 886,
      ").": 887,
      "èĭ": 888,
      "çĿĢ": 889,
      "è§ī": 890,
      "ä»İ": 891,
      "Ġif": 892,
      "ph": 893,
      "åĲį": 894,
      "çĽ¸": 895,
      "ç¥": 896,
      "ide": 897,
      "own": 898,
      "æŁ": 899,
      "åĽŀ": 900,
      "hed": 901,
      "ace": 902,
      "ĠIt": 903,
      "éĩĳ": 904,
      "ĠTh": 905,
      "Ġhad": 906,
      "ations": 907,
      "Ġim": 908,
      "éĴ": 909,
      "æ¶": 910,
      "å¸¸": 911,
      "æĺİ": 912,
      "ĠAl": 913,
      ",Ċ": 914,
      "tern": 915,
      "ome": 916,
      "äº§": 917,
      "Ġhas": 918,
      "ave": 919,
      "æĪĸ": 920,
      "æĽ´": 921,
      "èº": 922,
      "to": 923,
      "éľ": 924,
      "éĢļ": 925,
      "åľº": 926,
      "åħ¥": 927,
      "å¹³": 928,
      "çł": 929,
      "èĪ": 930,
      "æľŁ": 931,
      "ĠSe": 932,
      "ib": 933,
      "åĮĸ": 934,
      "ational": 935,
      "man": 936,
      "åºĶ": 937,
      "èĢĥ": 938,
      "çľŁ": 939,
      "ob": 940,
      "é¦": 941,
      "('": 942,
      "ert": 943,
      "ican": 944,
      "å»": 945,
      "éĹ®é¢ĺ": 946,
      "land": 947,
      "åĪ«": 948,
      "æ°´": 949,
      "Ġro": 950,
      "èĦ": 951,
      "æķ°": 952,
      "te": 953,
      "åĵģ": 954,
      "Ġwhe": 955,
      "ition": 956,
      "èĥ": 957,
      "Ġfirst": 958,
      "ng": 959,
      "æŃ£": 960,
      "¥¿": 961,
      "çī¹": 962,
      "å¥¹": 963,
      "ä¸¤": 964,
      "Ġad": 965,
      "amp": 966,
      "ä½ķ": 967,
      "ach": 968,
      "12": 969,
      "èº«": 970,
      "orn": 971,
      "å¹¶": 972,
      "198": 973,
      "ree": 974,
      "ĠAr": 975,
      "è¡¨": 976,
      "ild": 977,
      "è¿Ļä¸ª": 978,
      "fter": 979,
      "è¥¿": 980,
      "æıĲ": 981,
      "ates": 982,
      "ä¿¡": 983,
      "éħ": 984,
      "å°±æĺ¯": 985,
      "çĹ": 986,
      "able": 987,
      "ater": 988,
      "å£": 989,
      "ase": 990,
      "æĢİ": 991,
      "ind": 992,
      "çī©": 993,
      "æ¡": 994,
      "åŁº": 995,
      "çĥ": 996,
      "Ġreturn": 997,
      "ool": 998,
      "ç»Ļ": 999,
      "Ġte": 1000,
      "ress": 1001,
      "ç½ĳ": 1002,
      "erences": 1003,
      "ail": 1004,
      "çĽ®": 1005,
      "Ġj": 1006,
      "é©": 1007,
      "wo": 1008,
      "èĢģ": 1009,
      "Ġap": 1010,
      "ubl": 1011,
      "ĠRef": 1012,
      "è§£": 1013,
      "Ġwho": 1014,
      "ound": 1015,
      "low": 1016,
      "èĲ": 1017,
      "éĩı": 1018,
      "åıĭ": 1019,
      "è¯Ŀ": 1020,
      "Ġpart": 1021,
      "æĪĳä»¬": 1022,
      "ç³»": 1023,
      "old": 1024,
      "å°Ĩ": 1025,
      "æ·": 1026,
      "åıĬ": 1027,
      "iel": 1028,
      "è¯¥": 1029,
      "ç²": 1030,
      "éª": 1031,
      "å¢": 1032,
      "åĪ©": 1033,
      "æīĵ": 1034,
      "ĠAmer": 1035,
      ".Ċ": 1036,
      "ors": 1037,
      "aw": 1038,
      "ä¸ľ": 1039,
      "äºĮ": 1040,
      "èį": 1041,
      "17": 1042,
      "åİŁ": 1043,
      "ik": 1044,
      "ited": 1045,
      "ance": 1046,
      "ä¸ŃåĽ½": 1047,
      "è®©": 1048,
      "act": 1049,
      "æ°ĳ": 1050,
      "ople": 1051,
      "iss": 1052,
      "ĠReferences": 1053,
      "over": 1054,
      "ĠMar": 1055,
      "ä¸įæĺ¯": 1056,
      "Ġ\"": 1057,
      "ãĢĤĊ": 1058,
      "ç´": 1059,
      "15": 1060,
      "å°ĳ": 1061,
      "å·²": 1062,
      "çŃĶ": 1063,
      "æİ¥": 1064,
      "ä»·": 1065,
      "éĵ": 1066,
      "åĢĻ": 1067,
      "ite": 1068,
      "åĪ¶": 1069,
      "Ġthis": 1070,
      "ç¡": 1071,
      "ç¼": 1072,
      "get": 1073,
      "clud": 1074,
      "Ġac": 1075,
      "ents": 1076,
      "ä»£": 1077,
      "åĳĺ": 1078,
      "çĽ´": 1079,
      "ould": 1080,
      "åı¸": 1081,
      "Ġtheir": 1082,
      "ilm": 1083,
      "æŃ¤": 1084,
      "ual": 1085,
      "è®¡": 1086,
      "16": 1087,
      "æ´»": 1088,
      "çĸ": 1089,
      "sh": 1090,
      "eg": 1091,
      "é»": 1092,
      "çģ": 1093,
      "==": 1094,
      "Ġab": 1095,
      "197": 1096,
      "æķĻ": 1097,
      "ivers": 1098,
      "ext": 1099,
      "ç»ĵ": 1100,
      "ict": 1101,
      "Ġbut": 1102,
      "ãĢĬ": 1103,
      "ãĢĭ": 1104,
      "å»º": 1105,
      "Ġen": 1106,
      "è·¯": 1107,
      "ev": 1108,
      "__": 1109,
      "inal": 1110,
      "Ġper": 1111,
      "ty": 1112,
      "ock": 1113,
      "Ġyear": 1114,
      "æĹ¶åĢĻ": 1115,
      "åı£": 1116,
      "rib": 1117,
      "ield": 1118,
      "com": 1119,
      "åĩł": 1120,
      "Ġits": 1121,
      "Ġone": 1122,
      "eople": 1123,
      "wn": 1124,
      "ĠCom": 1125,
      "Ġher": 1126,
      "å®ī": 1127,
      "str": 1128,
      "Ġsc": 1129,
      "Ġ(": 1130,
      "form": 1131,
      "åįķ": 1132,
      "ings": 1133,
      "ä¿Ŀ": 1134,
      "ĠNew": 1135,
      "äº¤": 1136,
      "çĪ±": 1137,
      "ĠAs": 1138,
      "ĠEx": 1139,
      "les": 1140,
      "ç§ĳ": 1141,
      "å¦Ĥæŀľ": 1142,
      "æµ·": 1143,
      "åĬ¡": 1144,
      "><": 1145,
      "è£": 1146,
      "æĶ¿": 1147,
      "ata": 1148,
      "åħĥ": 1149,
      "--------": 1150,
      "èĩ³": 1151,
      "\"\"\"": 1152,
      "ï¼ŁĊ": 1153,
      "ĠAmerican": 1154,
      "åĽłä¸º": 1155,
      "æ¯ı": 1156,
      "çĶ·": 1157,
      "ball": 1158,
      "ence": 1159,
      "ft": 1160,
      "ied": 1161,
      "ade": 1162,
      "ugh": 1163,
      "Ġhave": 1164,
      "å¤ª": 1165,
      "å¼ı": 1166,
      "Ġdes": 1167,
      "ern": 1168,
      "oot": 1169,
      "io": 1170,
      "Ġag": 1171,
      "ä»¶": 1172,
      "èĻ": 1173,
      "å½±": 1174,
      "ĠĠĠĠĠĠĠĠĠĠĠĠ": 1175,
      "ark": 1176,
      "çº¿": 1177,
      "åĲĦ": 1178,
      "':": 1179,
      "å²": 1180,
      "è®¾": 1181,
      "æĢ»": 1182,
      "Ġman": 1183,
      "oy": 1184,
      "ç¨ĭ": 1185,
      "cess": 1186,
      "Ġout": 1187,
      "Ġinclud": 1188,
      "æĬĬ": 1189,
      "11": 1190,
      "196": 1191,
      "we": 1192,
      "çĶ±": 1193,
      "è®¤": 1194,
      "pro": 1195,
      "Ġcomm": 1196,
      "ject": 1197,
      "çļĦäºº": 1198,
      "éĢī": 1199,
      "Ġother": 1200,
      "åĨį": 1201,
      "Ġtwo": 1202,
      "\",": 1203,
      "æ¼": 1204,
      "ward": 1205,
      "çİ°åľ¨": 1206,
      "ode": 1207,
      "ç®¡": 1208,
      "åıĹ": 1209,
      "æł¼": 1210,
      "âĢĶ": 1211,
      "Ġoff": 1212,
      "åıĺ": 1213,
      "pec": 1214,
      "æĢİä¹Ī": 1215,
      "ä¸ĩ": 1216,
      "ç¦": 1217,
      "æĸ¯": 1218,
      "chool": 1219,
      "ä»»": 1220,
      "uring": 1221,
      "red": 1222,
      "Ġrec": 1223,
      "åħĪ": 1224,
      "ĠĠĠĠĠĠĠĠĠĠĠĠĠĠĠ": 1225,
      "ä½Ĩæĺ¯": 1226,
      "åħ¬åı¸": 1227,
      "åįģ": 1228,
      "ä½¿": 1229,
      "åĵª": 1230,
      "ne": 1231,
      "ç¤¾": 1232,
      "ãĢĤ<": 1233,
      "æ°Ķ": 1234,
      "pr": 1235,
      "ased": 1236,
      "30": 1237,
      "åĮĹ": 1238,
      "å¤´": 1239,
      "Ġ[": 1240,
      "åıĤ": 1241,
      "Ġdis": 1242,
      "èİ": 1243,
      "åı°": 1244,
      "ix": 1245,
      "ç±»": 1246,
      "ose": 1247,
      "æĬ¥": 1248,
      "name": 1249,
      "å°Ķ": 1250,
      "çĭ": 1251,
      "è§ģ": 1252,
      "æ»": 1253,
      "ics": 1254,
      "å®Į": 1255,
      "åıĪ": 1256,
      "ener": 1257,
      "è¿ĺæĺ¯": 1258,
      "14": 1259,
      "gh": 1260,
      "åŀ": 1261,
      "Ġbeen": 1262,
      "Ġup": 1263,
      "çº§": 1264,
      "####": 1265,
      "çŁ¥éģĵ": 1266,
      "che": 1267,
      "åĲĹ": 1268,
      "ons": 1269,
      "vel": 1270,
      "åįĹ": 1271,
      "è¾ĥ": 1272,
      "å¤Ħ": 1273,
      "Ġnew": 1274,
      "æĤ": 1275,
      "éĹ¨": 1276,
      "æīį": 1277,
      "å¸Ī": 1278,
      "ames": 1279,
      "éŁ": 1280,
      "éľĢ": 1281,
      "ake": 1282,
      "ä¸ĸ": 1283,
      "æĶ¾": 1284,
      "ren": 1285,
      "Ġund": 1286,
      "ä¸ĵ": 1287,
      "è¯·": 1288,
      "lect": 1289,
      "æĶ¶": 1290,
      "è®°": 1291,
      "Ġafter": 1292,
      "è§Ĩ": 1293,
      "æ®": 1294,
      "outh": 1295,
      "è®º": 1296,
      "ĠLe": 1297,
      "uct": 1298,
      "ah": 1299,
      "éĿŀ": 1300,
      "att": 1301,
      "oh": 1302,
      "å±ķ": 1303,
      "ont": 1304,
      "rans": 1305,
      "Ġall": 1306,
      "è¿ĳ": 1307,
      "èī²": 1308,
      "Ġfilm": 1309,
      "arg": 1310,
      "ely": 1311,
      "å¼º": 1312,
      "åĲĳ": 1313,
      "ĠSh": 1314,
      "Ġev": 1315,
      "25": 1316,
      "æ³¨": 1317,
      "Ġbec": 1318,
      "æį®": 1319,
      "202": 1320,
      "å¦Ĥä½ķ": 1321,
      "æľį": 1322,
      "Ġover": 1323,
      "æĮģ": 1324,
      "Ġlin": 1325,
      "roup": 1326,
      "èģĶ": 1327,
      "æ±Ĥ": 1328,
      "è±": 1329,
      "Ġwe": 1330,
      "åĶ": 1331,
      "ished": 1332,
      "194": 1333,
      "ision": 1334,
      "son": 1335,
      "Ġcan": 1336,
      "uch": 1337,
      "æĪĺ": 1338,
      "Ġass": 1339,
      "è¿Ĳ": 1340,
      "13": 1341,
      "Ġserv": 1342,
      "ä¹¦": 1343,
      "åĲĥ": 1344,
      "ond": 1345,
      "Ġcol": 1346,
      "Ġpre": 1347,
      "ï¼Ľ": 1348,
      "Ġloc": 1349,
      "Ġatt": 1350,
      "æ¸¸": 1351,
      "å·¥ä½ľ": 1352,
      "Ġpr": 1353,
      "åŁİ": 1354,
      "Ġpeople": 1355,
      "lo": 1356,
      "æµģ": 1357,
      "åĽ¾": 1358,
      "è§īå¾Ĺ": 1359,
      "iversity": 1360,
      "é£İ": 1361,
      "ĠPro": 1362,
      "æĹ¶éĹ´": 1363,
      "ale": 1364,
      "åı·": 1365,
      "]Ċ": 1366,
      "gan": 1367,
      "åķĨ": 1368,
      "å¾Īå¤ļ": 1369,
      "ç»Ł": 1370,
      "çĻ½": 1371,
      "195": 1372,
      "way": 1373,
      "orld": 1374,
      "ury": 1375,
      "åĸľ": 1376,
      "åĥ": 1377,
      "å±±": 1378,
      "åŃ©": 1379,
      "å¸¦": 1380,
      "åıį": 1381,
      "ans": 1382,
      "ram": 1383,
      "çľģ": 1384,
      "çĲĥ": 1385,
      "Ġsp": 1386,
      "æ¬¢": 1387,
      "Ġtime": 1388,
      "ral": 1389,
      "||": 1390,
      "ä»Ĭ": 1391,
      "ä¹°": 1392,
      "å§ĭ": 1393,
      "Ġact": 1394,
      "olog": 1395,
      "cept": 1396,
      "Ã©": 1397,
      "åĲ§": 1398,
      "æľ¯": 1399,
      "ll": 1400,
      "ouse": 1401,
      "æĮĩ": 1402,
      "ick": 1403,
      "é¥": 1404,
      "é©¬": 1405,
      "ç«ĭ": 1406,
      "æīĢä»¥": 1407,
      "ĠUnited": 1408,
      "è´¨": 1409,
      "Ġbu": 1410,
      "è°¢": 1411,
      "eth": 1412,
      "Ġunder": 1413,
      "ä»ĸä»¬": 1414,
      "ts": 1415,
      "ĠCol": 1416,
      "Ġinto": 1417,
      "ists": 1418,
      "Ġshe": 1419,
      "tt": 1420,
      "ç¥ŀ": 1421,
      "è¯ģ": 1422,
      "Ġwork": 1423,
      "amil": 1424,
      "è¿Ļæł·": 1425,
      "ç®Ĺ": 1426,
      "åı¯èĥ½": 1427,
      "ä¸Ķ": 1428,
      "Ġtr": 1429,
      "Ġind": 1430,
      "Ġpol": 1431,
      "æ¸ħ": 1432,
      "åĨĽ": 1433,
      "alue": 1434,
      "æĬĢ": 1435,
      "è¯Ń": 1436,
      "ough": 1437,
      "æĶ¹": 1438,
      "éĻ¢": 1439,
      "orth": 1440,
      "è¾¾": 1441,
      "éĥ½æĺ¯": 1442,
      "oint": 1443,
      "æĬķ": 1444,
      "als": 1445,
      "ãĢĤ=": 1446,
      "uary": 1447,
      "Ġthey": 1448,
      "æº": 1449,
      "ĠZ": 1450,
      "ason": 1451,
      "()Ċ": 1452,
      "å¯¼": 1453,
      "åĦ": 1454,
      "ton": 1455,
      "åķĬ": 1456,
      "åħĭ": 1457,
      "hip": 1458,
      "Ġsy": 1459,
      "çħ": 1460,
      "åĽĽ": 1461,
      "az": 1462,
      "ax": 1463,
      "Ġra": 1464,
      "ĠInd": 1465,
      "cent": 1466,
      "åĥı": 1467,
      "æĺŁ": 1468,
      "è´¹": 1469,
      "ĠOn": 1470,
      "ĠAn": 1471,
      "æĪ¿": 1472,
      "ä¼ł": 1473,
      "åĮ»": 1474,
      "ç©º": 1475,
      "åŀĭ": 1476,
      "å®¹": 1477,
      "çļĦæĹ¶åĢĻ": 1478,
      "ternal": 1479,
      "ars": 1480,
      "éļ¾": 1481,
      "round": 1482,
      "ä¹ł": 1483,
      "Ġreg": 1484,
      "çķĮ": 1485,
      "èħ": 1486,
      "ĠUniversity": 1487,
      "çĮ": 1488,
      "æľĭ": 1489,
      "Ġstr": 1490,
      "ule": 1491,
      ".\"": 1492,
      "ootball": 1493,
      "ann": 1494,
      "åĦ¿": 1495,
      "ered": 1496,
      "Ġset": 1497,
      "æłĩ": 1498,
      "å¸ĥ": 1499,
      "Ġmod": 1500,
      "ative": 1501,
      "ident": 1502,
      "æĺĵ": 1503,
      "ute": 1504,
      "éĺŁ": 1505,
      "cond": 1506,
      "ç¤º": 1507,
      "Ġop": 1508,
      "æł¡": 1509,
      "è§Ĥ": 1510,
      "å¾·": 1511,
      "æľĭåıĭ": 1512,
      "use": 1513,
      "Ġform": 1514,
      "æ²»": 1515,
      "èĮ": 1516,
      "Ġsub": 1517,
      "._": 1518,
      "æĭī": 1519,
      "Ġimport": 1520,
      "è°ĥ": 1521,
      "é¦ĸ": 1522,
      "ood": 1523,
      "ince": 1524,
      "rough": 1525,
      "ise": 1526,
      "ublic": 1527,
      "æİ¨": 1528,
      "ious": 1529,
      "åĳ¨": 1530,
      "æ£": 1531,
      "èĤ¡": 1532,
      "çīĩ": 1533,
      "ĠCl": 1534,
      "mod": 1535,
      "ä¹Ĳ": 1536,
      "\"\"\"Ċ": 1537,
      "è¯ķ": 1538,
      "åĬŀ": 1539,
      "Ġname": 1540,
      "Ġsup": 1541,
      "resent": 1542,
      "raph": 1543,
      "ĠThis": 1544,
      "irect": 1545,
      "Ġqu": 1546,
      "éĴ±": 1547,
      "è¶Ĭ": 1548,
      "åİĨ": 1549,
      "åĮħ": 1550,
      "ook": 1551,
      "å¤§å®¶": 1552,
      "æĲ": 1553,
      "oci": 1554,
      "oun": 1555,
      "ities": 1556,
      "193": 1557,
      "è½¬": 1558,
      "Ġprod": 1559,
      "æĳ": 1560,
      "Ġmore": 1561,
      "ier": 1562,
      "ĠSc": 1563,
      "oth": 1564,
      "è£ħ": 1565,
      "å¤į": 1566,
      "ins": 1567,
      "åįİ": 1568,
      "åħī": 1569,
      "Ġbet": 1570,
      "ç¡®": 1571,
      "))Ċ": 1572,
      "ific": 1573,
      "èĬĤ": 1574,
      "ĠEng": 1575,
      "fer": 1576,
      "æĴ": 1577,
      "Ġwhen": 1578,
      "ç«Ļ": 1579,
      "=\"": 1580,
      "å¾®": 1581,
      "å·²ç»ı": 1582,
      "Ġyears": 1583,
      "ina": 1584,
      "Ġkn": 1585,
      "èĬ±": 1586,
      "çĬ": 1587,
      "opul": 1588,
      "::": 1589,
      "Ġnum": 1590,
      "å¿«": 1591,
      "æľĽ": 1592,
      "ife": 1593,
      "æĢĿ": 1594,
      "ash": 1595,
      "iving": 1596,
      "èµĽ": 1597,
      "åĳ¢": 1598,
      "rue": 1599,
      "å©": 1600,
      "24": 1601,
      "è§Ħ": 1602,
      "å¼ł": 1603,
      "çı": 1604,
      "inn": 1605,
      "ror": 1606,
      "èµ°": 1607,
      "Ġel": 1608,
      "æķ´": 1609,
      "aj": 1610,
      "ollow": 1611,
      "åĳĬ": 1612,
      "emb": 1613,
      "par": 1614,
      "å¨": 1615,
      "åŃĹ": 1616,
      "ç»Ħ": 1617,
      "ating": 1618,
      "æ¡Ī": 1619,
      "è¯Ħ": 1620,
      "è®®": 1621,
      "Ġco": 1622,
      "éĢł": 1623,
      "å¼Ģå§ĭ": 1624,
      "æļ": 1625,
      "(\"": 1626,
      "Ġlinks": 1627,
      "overn": 1628,
      "ä¸ºä»Ģä¹Ī": 1629,
      "Ġteam": 1630,
      "ober": 1631,
      "æ¢": 1632,
      "åĸľæ¬¢": 1633,
      "Ġspec": 1634,
      "å¹¿": 1635,
      "å½¢": 1636,
      "æī¾": 1637,
      "å£«": 1638,
      "èĭ±": 1639,
      "els": 1640,
      "The": 1641,
      "åĢ¼": 1642,
      "åħ·": 1643,
      "æĿ¡": 1644,
      "è·Ł": 1645,
      "åĻ": 1646,
      "ĠQ": 1647,
      "éªĮ": 1648,
      "50": 1649,
      "ement": 1650,
      "abl": 1651,
      "air": 1652,
      "Ġdist": 1653,
      "ween": 1654,
      "enc": 1655,
      "æĪĳçļĦ": 1656,
      "åĩĨ": 1657,
      "Ġcent": 1658,
      "å®Ŀ": 1659,
      "any": 1660,
      "çłĶ": 1661,
      "ĠExternal": 1662,
      "mp": 1663,
      "çĹħ": 1664,
      "Ġhim": 1665,
      "Ġwould": 1666,
      "Ġest": 1667,
      "Ġonly": 1668,
      "eries": 1669,
      "ional": 1670,
      "å¤ĩ": 1671,
      "ĠCount": 1672,
      "),Ċ": 1673,
      "eat": 1674,
      "å®ĥ": 1675,
      "åĨµ": 1676,
      "Ġwhere": 1677,
      "cc": 1678,
      "ä¸ĢäºĽ": 1679,
      "iew": 1680,
      "let": 1681,
      "åĨ³": 1682,
      "éľĢè¦ģ": 1683,
      "åĪĽ": 1684,
      "Ġcons": 1685,
      "100": 1686,
      "ĠShe": 1687,
      "ç²¾": 1688,
      "['": 1689,
      "atch": 1690,
      "Ġrel": 1691,
      "']": 1692,
      "è¯Ĩ": 1693,
      "Ġ+": 1694,
      "ĠStates": 1695,
      "å¤§åŃ¦": 1696,
      "æĪ·": 1697,
      "æ·±": 1698,
      "192": 1699,
      "æ¹": 1700,
      "itt": 1701,
      "put": 1702,
      "ss": 1703,
      "åıĸ": 1704,
      "21": 1705,
      "å¢ŀ": 1706,
      "æħ": 1707,
      "æģ¯": 1708,
      "rict": 1709,
      "ever": 1710,
      "çİĭ": 1711,
      "Ġme": 1712,
      "æĸĻ": 1713,
      "ĠĠĠĠĠ": 1714,
      "çļĦæĺ¯": 1715,
      "ohn": 1716,
      "æ¼Ķ": 1717,
      "ä½İ": 1718,
      "é£Ł": 1719,
      "Ġinter": 1720,
      "åĬŁ": 1721,
      "åħ±": 1722,
      "å·ŀ": 1723,
      "æķĪ": 1724,
      "Ġagain": 1725,
      "ç§°": 1726,
      "è¾¹": 1727,
      "arly": 1728,
      "Ġfound": 1729,
      "Ġused": 1730,
      "Ġtest": 1731,
      "Ġduring": 1732,
      "erm": 1733,
      "Ġend": 1734,
      "Ġso": 1735,
      "Ġthere": 1736,
      "lection": 1737,
      "åŃ©åŃĲ": 1738,
      "è¯»": 1739,
      "çª": 1740,
      "iam": 1741,
      "usic": 1742,
      "åŃĺ": 1743,
      "enn": 1744,
      "ä¹ī": 1745,
      "Ġstud": 1746,
      "å±ŀ": 1747,
      "cre": 1748,
      "ank": 1749,
      "çİ©": 1750,
      "ä¸Ģä¸ĭ": 1751,
      "der": 1752,
      "ï¼īï¼Į": 1753,
      "æ¨": 1754,
      "äºļ": 1755,
      "pos": 1756,
      "ĠPl": 1757,
      "ines": 1758,
      "åĲ¬": 1759,
      "ç±³": 1760,
      "éŁ³": 1761,
      "Ġbetween": 1762,
      "å®¢": 1763,
      "app": 1764,
      "',Ċ": 1765,
      "æ®µ": 1766,
      "ĠSp": 1767,
      "ize": 1768,
      "Ġrem": 1769,
      "Ġ%": 1770,
      "ĠĠĠĠĠĠĠĠĠĠĠĠĠĠĠĠĠĠĠ": 1771,
      "æľª": 1772,
      "ç¬¬ä¸Ģ": 1773,
      "æ¶Ī": 1774,
      "éĽĨ": 1775,
      "è¨": 1776,
      "äºĶ": 1777,
      "ck": 1778,
      "ley": 1779,
      "äººçļĦ": 1780,
      "col": 1781,
      "ç»´": 1782,
      "its": 1783,
      "ĠCon": 1784,
      "Ġplayers": 1785,
      "arn": 1786,
      "uction": 1787,
      "23": 1788,
      "ĠFor": 1789,
      "çĥŃ": 1790,
      "Ġwrit": 1791,
      "reat": 1792,
      "æĶ¯": 1793,
      "æĿĥ": 1794,
      "ient": 1795,
      "bum": 1796,
      "é¡¹": 1797,
      "èı": 1798,
      "arl": 1799,
      "éĻ¤": 1800,
      "istory": 1801,
      "æ¯Ķè¾ĥ": 1802,
      "åĻ¨": 1803,
      "191": 1804,
      "\".": 1805,
      "æł¹": 1806,
      "è¨Ģ": 1807,
      "')Ċ": 1808,
      "ype": 1809,
      "Ġed": 1810,
      "Ġfootball": 1811,
      "æŃ¥": 1812,
      "çĶŁæ´»": 1813,
      "Ġob": 1814,
      "çľ¼": 1815,
      "erman": 1816,
      "def": 1817,
      "add": 1818,
      "Ġtrans": 1819,
      "è¶ħ": 1820,
      "Ġmost": 1821,
      "Ġfamil": 1822,
      "ures": 1823,
      "000": 1824,
      "Ġcall": 1825,
      "Ġpopul": 1826,
      "Ġdo": 1827,
      "åĨĻ": 1828,
      "ä¾¿": 1829,
      "æĪĸèĢħ": 1830,
      "åĭ": 1831,
      "Ġthem": 1832,
      "iver": 1833,
      "é¾": 1834,
      "çħ§": 1835,
      "ĠComm": 1836,
      "22": 1837,
      "ĠBr": 1838,
      "äº¬": 1839,
      "æ¥": 1840,
      "Ġabout": 1841,
      "Ġint": 1842,
      "Ġadd": 1843,
      "Ġrele": 1844,
      "Ġfollow": 1845,
      "uth": 1846,
      "æºĲ": 1847,
      "Ġmed": 1848,
      "ä¸įèĥ½": 1849,
      "eneral": 1850,
      "çº¦": 1851,
      "Ġtra": 1852,
      "ç»Ń": 1853,
      "ague": 1854,
      "ĠIs": 1855,
      "ĠJohn": 1856,
      "ograph": 1857,
      "ä»½": 1858,
      "åĪĻ": 1859,
      "æŃ»": 1860,
      "hen": 1861,
      "pect": 1862,
      "å¹²": 1863,
      "eng": 1864,
      "åį³": 1865,
      "æŁ¥": 1866,
      "Ġprov": 1867,
      "Ġmade": 1868,
      "é¢Ĩ": 1869,
      "ĉĉ": 1870,
      "Ġ-": 1871,
      "è¿ŀ": 1872,
      "ived": 1873,
      "ues": 1874,
      "from": 1875,
      "å¿ħ": 1876,
      "èĩªå·±çļĦ": 1877,
      "æĦŁè§ī": 1878,
      "ull": 1879,
      "Ġthrough": 1880,
      "è¿ĺæľī": 1881,
      "éħį": 1882,
      "by": 1883,
      "inist": 1884,
      "erson": 1885,
      "ä¹Łæĺ¯": 1886,
      "ĠNational": 1887,
      "éĢŁ": 1888,
      "èĳ": 1889,
      "Ġent": 1890,
      "ç¦»": 1891,
      "ä¼ĺ": 1892,
      "Ġthree": 1893,
      "è¿Ļç§į": 1894,
      "Ġlater": 1895,
      "ĠFran": 1896,
      "Ġthen": 1897,
      "èĲ¥": 1898,
      "ä½ı": 1899,
      "stem": 1900,
      "Ġbir": 1901,
      "èĤ²": 1902,
      "çº¢": 1903,
      "åºĶè¯¥": 1904,
      "Ġinv": 1905,
      "Â·": 1906,
      "ments": 1907,
      "assert": 1908,
      "ĠCounty": 1909,
      "Ġart": 1910,
      "å¡": 1911,
      "æĺ¾": 1912,
      "oss": 1913,
      "éĤ£ä¹Ī": 1914,
      "ve": 1915,
      "éķĩ": 1916,
      "Ġmov": 1917,
      "ĠEd": 1918,
      "ys": 1919,
      "Ġsecond": 1920,
      "Ġseason": 1921,
      "ĠAust": 1922,
      "çİĩ": 1923,
      "ĠPh": 1924,
      "åį¡": 1925,
      "anc": 1926,
      "è¿Ľè¡Į": 1927,
      "ä¸įä¼ļ": 1928,
      "ĠWorld": 1929,
      "å¦Ī": 1930,
      "è±¡": 1931,
      "ĠAd": 1932,
      "äº²": 1933,
      "Ġsing": 1934,
      "28": 1935,
      "åºķ": 1936,
      "ired": 1937,
      "å¸Į": 1938,
      "ator": 1939,
      "26": 1940,
      "ths": 1941,
      "Ġcre": 1942,
      "fore": 1943,
      "ĠBrit": 1944,
      "åĪĹ": 1945,
      "æĢģ": 1946,
      "ai": 1947,
      "ç¾İåĽ½": 1948,
      "ĠNone": 1949,
      "å¥½çļĦ": 1950,
      "ĠRe": 1951,
      "uss": 1952,
      "éĶĻ": 1953,
      "ism": 1954,
      "è¶³": 1955,
      "Ġsome": 1956,
      "ä¼ģ": 1957,
      "çĦ¶åĲİ": 1958,
      "ä¼Ĺ": 1959,
      "æ²¹": 1960,
      "å±Ģ": 1961,
      "Ġrecord": 1962,
      "çĻ¾": 1963,
      "ten": 1964,
      "Ġthan": 1965,
      "æĥħåĨµ": 1966,
      "æĻ®": 1967,
      "oo": 1968,
      "åĽ¢": 1969,
      "æĪı": 1970,
      "çļĦä¸Ģ": 1971,
      "class": 1972,
      "å¤±": 1973,
      "ple": 1974,
      "Ġno": 1975,
      "omen": 1976,
      "åĲ¦": 1977,
      "Ġsuch": 1978,
      "ounc": 1979,
      "une": 1980,
      "Ġresult": 1981,
      "å¾Ģ": 1982,
      "27": 1983,
      "åįĬ": 1984,
      "ä¸ªäºº": 1985,
      "ä¸ĸçķĮ": 1986,
      "ĠMay": 1987,
      "ĠJan": 1988,
      "row": 1989,
      "æ¯į": 1990,
      "Ġph": 1991,
      "ç©¶": 1992,
      "éĻħ": 1993,
      "Ġ{": 1994,
      "Ġgroup": 1995,
      "åħ»": 1996,
      "çľĭåĪ°": 1997,
      "Ġam": 1998,
      "()": 1999,
      "ĠOr": 2000,
      "å¼ķ": 2001,
      "è¿ĻäºĽ": 2002,
      "æŀĹ": 2003,
      "éĢĤ": 2004,
      "å·®": 2005,
      "ĠGe": 2006,
      "ery": 2007,
      "stit": 2008,
      "ution": 2009,
      "çģ«": 2010,
      "ural": 2011,
      "Ġalbum": 2012,
      "Ġschool": 2013,
      "åıĳå±ķ": 2014,
      "æ¬¾": 2015,
      "æİĴ": 2016,
      "Ġknown": 2017,
      "Ġclass": 2018,
      "ined": 2019,
      "éĻĲ": 2020,
      "ĠPr": 2021,
      "40": 2022,
      "uro": 2023,
      "ike": 2024,
      "ãĥ": 2025,
      "è®¸": 2026,
      "other": 2027,
      "Ġdirect": 2028,
      "å¸Ĥåľº": 2029,
      "ç®Ģ": 2030,
      "æĹ©": 2031,
      "IN": 2032,
      "é»ĳ": 2033,
      "èģĮ": 2034,
      "Ġlist": 2035,
      "çİ¯": 2036,
      "åĩ»": 2037,
      "èĩ´": 2038,
      "ask": 2039,
      "ĠSchool": 2040,
      "..": 2041,
      "ĠWar": 2042,
      "è§Ĵ": 2043,
      "very": 2044,
      "type": 2045,
      "my": 2046,
      "Ġgr": 2047,
      "ĠCan": 2048,
      "ä¸įè¦ģ": 2049,
      "Ġbecame": 2050,
      "ages": 2051,
      "Ġwill": 2052,
      "ç´ł": 2053,
      "Ġne": 2054,
      "čĊ": 2055,
      "ari": 2056,
      "right": 2057,
      "ĠAt": 2058,
      "set": 2059,
      "ç½Ĺ": 2060,
      "åĵį": 2061,
      "ĠSouth": 2062,
      "ays": 2063,
      "Ġestabl": 2064,
      "ersion": 2065,
      "ower": 2066,
      "åĬ©": 2067,
      "lev": 2068,
      "æ»¡": 2069,
      "Ġmay": 2070,
      "âĢĿï¼Į": 2071,
      "éļı": 2072,
      "åį´": 2073,
      "Ġ==": 2074,
      "ĠPol": 2075,
      "åıĳçİ°": 2076,
      "å²ģ": 2077,
      "path": 2078,
      "ĠNov": 2079,
      "åĽ½å®¶": 2080,
      "ke": 2081,
      "ox": 2082,
      "åı²": 2083,
      "ĠGerman": 2084,
      "Ġcount": 2085,
      "ript": 2086,
      "ç¢": 2087,
      "çīĪ": 2088,
      "åĵªäºĽ": 2089,
      "åł": 2090,
      "åħ¶å®ŀ": 2091,
      "urch": 2092,
      "ĠBl": 2093,
      "ternational": 2094,
      "----------------": 2095,
      "å¤Ł": 2096,
      "Ġbeing": 2097,
      "åĪĿ": 2098,
      "ather": 2099,
      "åħ¶ä»ĸ": 2100,
      "åĳ½": 2101,
      "Ġincluding": 2102,
      "éĥ¨åĪĨ": 2103,
      "Ġlead": 2104,
      "å¾ħ": 2105,
      "è¡Ģ": 2106,
      "Ġnumber": 2107,
      "ER": 2108,
      "sc": 2109,
      "Ġseries": 2110,
      "æ¦": 2111,
      "Ġoper": 2112,
      "åĺ": 2113,
      "190": 2114,
      "Ġbl": 2115,
      "'Ċ": 2116,
      "æµİ": 2117,
      "ron": 2118,
      "qual": 2119,
      "æŀģ": 2120,
      "æŁĲ": 2121,
      "unction": 2122,
      "åī§": 2123,
      "ç»Ĩ": 2124,
      "å¸®": 2125,
      "ĠTe": 2126,
      "rent": 2127,
      "åįĩ": 2128,
      "amed": 2129,
      "ract": 2130,
      "ange": 2131,
      "æ¨¡": 2132,
      "èİ·": 2133,
      "Ġwhile": 2134,
      "åįļ": 2135,
      "arri": 2136,
      "çľŁçļĦ": 2137,
      "ä¾Ľ": 2138,
      "ized": 2139,
      "ĠWh": 2140,
      "ç§¯": 2141,
      "60": 2142,
      "ĠWest": 2143,
      "ç½®": 2144,
      "ault": 2145,
      "ĠDec": 2146,
      "ove": 2147,
      "ps": 2148,
      "Ġfour": 2149,
      "åĬ¿": 2150,
      "ĠAss": 2151,
      "ä½¿çĶ¨": 2152,
      "æķħ": 2153,
      "Ġwell": 2154,
      "ĠJu": 2155,
      "Ġbuild": 2156,
      "29": 2157,
      "ä¸ĢçĽ´": 2158,
      "ãĢĮ": 2159,
      "ãĢį": 2160,
      "æĭ©": 2161,
      "ç¿": 2162,
      "èĪ¬": 2163,
      "æĸ¹éĿ¢": 2164,
      "å£°": 2165,
      "ethod": 2166,
      "Ġem": 2167,
      "åĪļ": 2168,
      "St": 2169,
      "########": 2170,
      "å·´": 2171,
      "ales": 2172,
      "éĵ¶": 2173,
      "æĮī": 2174,
      "Ġsign": 2175,
      "Ġexp": 2176,
      "åĪĴ": 2177,
      "Ġdesc": 2178,
      "====": 2179,
      "til": 2180,
      "Ġbefore": 2181,
      "Ġpass": 2182,
      "Ġfl": 2183,
      "arch": 2184,
      "Ġchar": 2185,
      "field": 2186,
      "æĬķèµĦ": 2187,
      "éĿŀå¸¸": 2188,
      "ĠOct": 2189,
      "fl": 2190,
      "ices": 2191,
      "çıŃ": 2192,
      "ãģ": 2193,
      "au": 2194,
      "Ġrequ": 2195,
      "ptember": 2196,
      "ugust": 2197,
      "ä¿®": 2198,
      "éĺ¿": 2199,
      "sp": 2200,
      "ives": 2201,
      "Ġappe": 2202,
      "åıĮ": 2203,
      "çĶ»": 2204,
      "Ġext": 2205,
      "é¦Ļ": 2206,
      "éĢļè¿ĩ": 2207,
      "Ġagainst": 2208,
      "è®²": 2209,
      "Ġdata": 2210,
      "èį¯": 2211,
      "ä¾ĭ": 2212,
      "ible": 2213,
      "aint": 2214,
      "æĺ¯ä¸Ģ": 2215,
      "gram": 2216,
      "Ġpolit": 2217,
      "overnment": 2218,
      "ek": 2219,
      "è®¤ä¸º": 2220,
      "ology": 2221,
      "],": 2222,
      "æĬ¤": 2223,
      "Ġsong": 2224,
      "æĻļ": 2225,
      "alse": 2226,
      "velop": 2227,
      "ourn": 2228,
      "ĠYork": 2229,
      "read": 2230,
      "Ġdeath": 2231,
      "Ġfamily": 2232,
      "ampions": 2233,
      "åıĤèĢĥ": 2234,
      "è¿ľ": 2235,
      "Ġstart": 2236,
      "ĠAfter": 2237,
      "æŀĦ": 2238,
      "ense": 2239,
      "ç¼ĸ": 2240,
      "ä¼ģä¸ļ": 2241,
      "å¢ĥ": 2242,
      "arr": 2243,
      "åĽŀçŃĶ": 2244,
      "ians": 2245,
      "èĢĮä¸Ķ": 2246,
      "ĠCent": 2247,
      "Ġorig": 2248,
      "Ġsur": 2249,
      "Ġcap": 2250,
      "çĪ¶": 2251,
      "ä»ħ": 2252,
      "é²": 2253,
      "ä¸Ģå®ļ": 2254,
      "çķĻ": 2255,
      "çīĮ": 2256,
      "born": 2257,
      "Ġrun": 2258,
      "Ġpar": 2259,
      "å¤§çļĦ": 2260,
      "éĢīæĭ©": 2261,
      "é»Ħ": 2262,
      "ĠDe": 2263,
      "ĠSeptember": 2264,
      "ä¸»è¦ģ": 2265,
      "Ġback": 2266,
      "é¢Ħ": 2267,
      "Ġshow": 2268,
      "ĠBritish": 2269,
      "yl": 2270,
      "ĠOctober": 2271,
      "Ġtown": 2272,
      "pon": 2273,
      "ä¹ĭåĲİ": 2274,
      "AT": 2275,
      "åı¦": 2276,
      "ets": 2277,
      "ä½ľä¸º": 2278,
      "ĠAugust": 2279,
      "Ġdevelop": 2280,
      "æĭ¿": 2281,
      "Ġstate": 2282,
      "ĠGr": 2283,
      "åĩºæĿ¥": 2284,
      "æĸŃ": 2285,
      "åºĹ": 2286,
      "ä¸ĵä¸ļ": 2287,
      "è½»": 2288,
      "å¯¹äºİ": 2289,
      "aces": 2290,
      "éĶĢ": 2291,
      "é¸": 2292,
      "ä½łçļĦ": 2293,
      "çĵ": 2294,
      "aid": 2295,
      "ĠSee": 2296,
      "test": 2297,
      "ï¼Ł<": 2298,
      "Ġuse": 2299,
      "çĬ¶": 2300,
      "Ġline": 2301,
      "areer": 2302,
      "Ġ_": 2303,
      "æ±Ł": 2304,
      "ä¸Ģæł·": 2305,
      "ica": 2306,
      "Ġcur": 2307,
      "Ġmany": 2308,
      "embers": 2309,
      "ission": 2310,
      "åĵĪ": 2311,
      "ç¥¨": 2312,
      "ns": 2313,
      "çļ®": 2314,
      "å©ļ": 2315,
      "ott": 2316,
      "Ġown": 2317,
      "Ġany": 2318,
      "å®ĺ": 2319,
      "ĠAustral": 2320,
      "Ġrep": 2321,
      "**": 2322,
      "éĺ²": 2323,
      "ĠMan": 2324,
      "Ġcity": 2325,
      "è¡¥": 2326,
      "Er": 2327,
      "file": 2328,
      "ä¸ĬçļĦ": 2329,
      "Ġhigh": 2330,
      "ç®¡çĲĨ": 2331,
      "owever": 2332,
      "æĿĳ": 2333,
      "Ġhouse": 2334,
      "å¸ĮæľĽ": 2335,
      "è´Ń": 2336,
      "è¿Ļä¹Ī": 2337,
      "ĠMarch": 2338,
      "Ġgo": 2339,
      "ants": 2340,
      "ilt": 2341,
      "True": 2342,
      "ĠAll": 2343,
      "key": 2344,
      "yn": 2345,
      "Ġopen": 2346,
      "æĻ¯": 2347,
      "ç»Ī": 2348,
      "æ¯ķ": 2349,
      "åı¤": 2350,
      "å½±åĵį": 2351,
      "æĽ¾": 2352,
      "rist": 2353,
      "åİĭ": 2354,
      "Ġuntil": 2355,
      "åĪ°äºĨ": 2356,
      "arm": 2357,
      "çĨ": 2358,
      "ĠJanuary": 2359,
      "AR": 2360,
      "åŃ¦ä¹ł": 2361,
      "Ġarea": 2362,
      "åħħ": 2363,
      "æ¸¸æĪı": 2364,
      "Ġdif": 2365,
      "çłĶç©¶": 2366,
      "ret": 2367,
      "ä¸įåĲĮ": 2368,
      "Ġboth": 2369,
      "Ġage": 2370,
      "Ġdec": 2371,
      "ä¸Ģèµ·": 2372,
      "èŀ": 2373,
      "Ġmon": 2374,
      "åıªæĺ¯": 2375,
      "éĿĴ": 2376,
      "Ġbro": 2377,
      "af": 2378,
      "èĻ½": 2379,
      "ium": 2380,
      "èĦĳ": 2381,
      "val": 2382,
      "vent": 2383,
      "ĠNorth": 2384,
      "æį¢": 2385,
      "æĵ": 2386,
      "ae": 2387,
      "ç»ıæµİ": 2388,
      "ãĢĤâĢĿ": 2389,
      "ĠFe": 2390,
      "istor": 2391,
      "ä¼¼": 2392,
      "Ġrece": 2393,
      "):": 2394,
      "por": 2395,
      "lish": 2396,
      "ç³»ç»Ł": 2397,
      "oman": 2398,
      "lege": 2399,
      "ä¸ĢèĪ¬": 2400,
      "åħ°": 2401,
      "æŃĮ": 2402,
      "pril": 2403,
      "ause": 2404,
      "ä¸ŃçļĦ": 2405,
      "ared": 2406,
      ",\"": 2407,
      "æľįåĬ¡": 2408,
      "æİ§": 2409,
      "ç¤¾ä¼ļ": 2410,
      "ä¸ºäºĨ": 2411,
      "Ġmusic": 2412,
      "ross": 2413,
      "imes": 2414,
      "fess": 2415,
      "ç¦ı": 2416,
      "ĠNovember": 2417,
      "çŁ³": 2418,
      "ior": 2419,
      "éĺ³": 2420,
      "Ġsystem": 2421,
      "ital": 2422,
      "ĠEuro": 2423,
      "Ġacc": 2424,
      "çļĦè¯Ŀ": 2425,
      "ained": 2426,
      "éĻ©": 2427,
      "Error": 2428,
      "ĠJune": 2429,
      "çłģ": 2430,
      "ility": 2431,
      "æĬĢæľ¯": 2432,
      "Ġyou": 2433,
      "Ġoffic": 2434,
      "wards": 2435,
      "çĽ®åīį": 2436,
      "ä¸įçŁ¥éģĵ": 2437,
      "ĠGu": 2438,
      "ä¸įè¿ĩ": 2439,
      "ç¾¤": 2440,
      "ĠJuly": 2441,
      "ĠX": 2442,
      "Ġann": 2443,
      "çĽĺ": 2444,
      "ä»¥åıĬ": 2445,
      "äº§åĵģ": 2446,
      "yle": 2447,
      "èĴ": 2448,
      "work": 2449,
      "ä¸¾": 2450,
      "äºĨä¸Ģ": 2451,
      "ajor": 2452,
      "äºī": 2453,
      "åĪĩ": 2454,
      "è¿Ļæĺ¯": 2455,
      "å¥ĩ": 2456,
      "Ġhead": 2457,
      "ãĤ": 2458,
      "èĽ": 2459,
      "Ġfeat": 2460,
      "é¾Ļ": 2461,
      "Ġlong": 2462,
      "Ġchild": 2463,
      "ĠState": 2464,
      "ĠDecember": 2465,
      "ote": 2466,
      "ç»Ŀ": 2467,
      "éĩįè¦ģ": 2468,
      "rop": 2469,
      "ĠApril": 2470,
      "èŃ": 2471,
      "Ġgu": 2472,
      "='": 2473,
      "ä¼¤": 2474,
      "å®³": 2475,
      "ports": 2476,
      "åı¥": 2477,
      "ĠCity": 2478,
      "Ġsame": 2479,
      "è®¾è®¡": 2480,
      "çĭ¬": 2481,
      "80": 2482,
      "ved": 2483,
      "Ġsever": 2484,
      "ĠDist": 2485,
      "ä¸ľè¥¿": 2486,
      "ular": 2487,
      "ĠAf": 2488,
      "atic": 2489,
      "ĠWill": 2490,
      "Ġbirths": 2491,
      "ĠAm": 2492,
      "åºľ": 2493,
      "line": 2494,
      "è´£": 2495,
      "è´¢": 2496,
      "Ġdr": 2497,
      "the": 2498,
      "èĲ½": 2499,
      "cont": 2500,
      "Ġdesign": 2501,
      "ĠTr": 2502,
      "resident": 2503,
      "ON": 2504,
      "ats": 2505,
      "ĠCanad": 2506,
      "led": 2507,
      "æĿ¿": 2508,
      "Ġpopulation": 2509,
      "uced": 2510,
      "å§Ķ": 2511,
      "åħ´": 2512,
      "æĹ¥æľ¬": 2513,
      "Ġget": 2514,
      "ĠReg": 2515,
      "ĠEnglish": 2516,
      "Ġplayed": 2517,
      "icip": 2518,
      "que": 2519,
      "eter": 2520,
      "ually": 2521,
      "éŃ": 2522,
      "ĠPar": 2523,
      "co": 2524,
      "Ġsm": 2525,
      "Ġcalled": 2526,
      "è´Ł": 2527,
      "äºĴ": 2528,
      "angu": 2529,
      "ĠLeague": 2530,
      "åİ¿": 2531,
      "ography": 2532,
      "oard": 2533,
      "Ġcontin": 2534,
      "ner": 2535,
      "=*": 2536,
      "åĳ³": 2537,
      "me": 2538,
      "å±ħ": 2539,
      "æ²³": 2540,
      "Ġperform": 2541,
      "çªģ": 2542,
      "ument": 2543,
      "åģ¥": 2544,
      "bs": 2545,
      "å±Ĥ": 2546,
      "åŃ¦çĶŁ": 2547,
      "Ġorgan": 2548,
      "éħĴ": 2549,
      "ĠCal": 2550,
      "189": 2551,
      "ampionship": 2552,
      "Ġpubl": 2553,
      "æīĢæľī": 2554,
      "Ġformer": 2555,
      "de": 2556,
      "uff": 2557,
      "Ġpublic": 2558,
      "Ġmin": 2559,
      "åŁºæľ¬": 2560,
      "éĵģ": 2561,
      "ety": 2562,
      "åĩºçİ°": 2563,
      "Ġreleased": 2564,
      "Ġconf": 2565,
      "æ¥¼": 2566,
      "ird": 2567,
      "ven": 2568,
      "ç¤¾åĮº": 2569,
      "âĢĶ|": 2570,
      "ains": 2571,
      "èŃ¦": 2572,
      "æĹı": 2573,
      "çĸĹ": 2574,
      "Ġmet": 2575,
      "åįĥ": 2576,
      "Ġref": 2577,
      "æĿİ": 2578,
      "åģĩ": 2579,
      "æľĢåĲİ": 2580,
      "hes": 2581,
      "amb": 2582,
      "Ġinst": 2583,
      "ĠII": 2584,
      "Ġelse": 2585,
      "apan": 2586,
      "orks": 2587,
      "èīº": 2588,
      "Ġlife": 2589,
      "æ¸©": 2590,
      "view": 2591,
      "ĠBro": 2592,
      "Ġwon": 2593,
      "âĢĻ": 2594,
      "ĠCar": 2595,
      "Ġmain": 2596,
      "åŃ¦æł¡": 2597,
      "åĲĮæĹ¶": 2598,
      "ung": 2599,
      "Ġfollowing": 2600,
      "ource": 2601,
      "ĠĠĠĠĠĠĠĠĠĠĠĠĠĠĠĠĠĠĠĠĠĠĠĠĠĠĠĠĠĠĠĠ": 2602,
      "å¿µ": 2603,
      "çī¹åĪ«": 2604,
      "Ġelect": 2605,
      "éº": 2606,
      "IT": 2607,
      "æ¯Ķå¦Ĥ": 2608,
      "Ġalign": 2609,
      "Ġbel": 2610,
      "Ġgame": 2611,
      "æĢİæł·": 2612,
      "In": 2613,
      "å¤«": 2614,
      "ĠCo": 2615,
      "åĽ´": 2616,
      "bruary": 2617,
      "32": 2618,
      "inc": 2619,
      "æµĭ": 2620,
      "å½ķ": 2621,
      "å¯Į": 2622,
      "ink": 2623,
      "åĿĩ": 2624,
      "ĠKing": 2625,
      "ĠHis": 2626,
      "æĺ¯åĲ¦": 2627,
      "Ġsuc": 2628,
      "å·¦": 2629,
      "èĻ½çĦ¶": 2630,
      "31": 2631,
      "çĽĬ": 2632,
      "è¯¾": 2633,
      "èµ·æĿ¥": 2634,
      "æĩ": 2635,
      "Ġfinal": 2636,
      "é£ŀ": 2637,
      "ä¾Ŀ": 2638,
      "åħ³ç³»": 2639,
      "ĠBe": 2640,
      "Ġdep": 2641,
      "æĪĲä¸º": 2642,
      "ĠThere": 2643,
      "åħį": 2644,
      "åĽŃ": 2645,
      "back": 2646,
      "Ġprogram": 2647,
      "Ġcommun": 2648,
      "color": 2649,
      "åı³": 2650,
      "url": 2651,
      "æŃ¢": 2652,
      "éģĩ": 2653,
      "åŃ£": 2654,
      "èŀį": 2655,
      "å°¼": 2656,
      "yp": 2657,
      "Ġapp": 2658,
      "æ¸¯": 2659,
      "ww": 2660,
      "çļĦäºĭ": 2661,
      "ided": 2662,
      "Ġlocal": 2663,
      "åĩı": 2664,
      "ĠEurope": 2665,
      "ä½łä»¬": 2666,
      "ĠWe": 2667,
      "ised": 2668,
      "Ġu": 2669,
      "çĶµå½±": 2670,
      "å®¤": 2671,
      "ified": 2672,
      "Ġsupport": 2673,
      "éĻį": 2674,
      "æĻº": 2675,
      "ribut": 2676,
      "æĺ¯ä»Ģä¹Ī": 2677,
      "åı«": 2678,
      "çĽ¸åħ³": 2679,
      "ĠRep": 2680,
      "Ġfield": 2681,
      "ble": 2682,
      "ĠFebruary": 2683,
      "levision": 2684,
      "ape": 2685,
      "ilit": 2686,
      "ä¹ħ": 2687,
      "ony": 2688,
      "ä¸¥": 2689,
      "module": 2690,
      "ES": 2691,
      "aking": 2692,
      "Ġinc": 2693,
      "ane": 2694,
      "chn": 2695,
      "ms": 2696,
      "Ġsince": 2697,
      "åŁİå¸Ĥ": 2698,
      "æŃ¦": 2699,
      "Ġair": 2700,
      "ĠFl": 2701,
      "ially": 2702,
      "ĠAir": 2703,
      "(Ċ": 2704,
      "ĠSw": 2705,
      "Ġseveral": 2706,
      "åŁŁ": 2707,
      "ĠRes": 2708,
      "Ġpos": 2709,
      "èĥĮ": 2710,
      "ended": 2711,
      "Ġold": 2712,
      "ç»ĥ": 2713,
      "åį°": 2714,
      "century": 2715,
      "45": 2716,
      "ç¬¬äºĮ": 2717,
      "ster": 2718,
      "hold": 2719,
      "Ġoriginal": 2720,
      "è°Ī": 2721,
      "ä¹Łä¸į": 2722,
      "åħ³æ³¨": 2723,
      "ĠJapan": 2724,
      "æľīä¸Ģ": 2725,
      "Ġearly": 2726,
      "èĤī": 2727,
      "å¯Ĩ": 2728,
      "è¯į": 2729,
      "Ã¡": 2730,
      "Ġvill": 2731,
      "åĮĹäº¬": 2732,
      "ille": 2733,
      "æ¿": 2734,
      "value": 2735,
      "//": 2736,
      "rench": 2737,
      "Ġfilms": 2738,
      "ĠMed": 2739,
      "'t": 2740,
      "åŁºéĩĳ": 2741,
      "éĩĩ": 2742,
      "Ġland": 2743,
      "è¯ī": 2744,
      "ped": 2745,
      "Ġx": 2746,
      "reg": 2747,
      "åľŁ": 2748,
      "iter": 2749,
      "itions": 2750,
      "èĥ½åĬĽ": 2751,
      "çĶļ": 2752,
      "çºª": 2753,
      "ham": 2754,
      "åĤ": 2755,
      "åħ«": 2756,
      "Ġthese": 2757,
      "ä»ĸçļĦ": 2758,
      "æĭį": 2759,
      "ä¹İ": 2760,
      "ĠUS": 2761,
      "ued": 2762,
      "è´§": 2763,
      "Ġeach": 2764,
      "æķĻèĤ²": 2765,
      "ful": 2766,
      "è°ģ": 2767,
      "æĭ¬": 2768,
      "ze": 2769,
      "æ¦Ĥ": 2770,
      "ĠPart": 2771,
      "ĠHistory": 2772,
      "Ġpoint": 2773,
      "data": 2774,
      "ĠAnd": 2775,
      "å°½": 2776,
      "ler": 2777,
      "çł´": 2778,
      "||-": 2779,
      "ino": 2780,
      "ally": 2781,
      "ç²ī": 2782,
      "Ġfin": 2783,
      "188": 2784,
      "90": 2785,
      "ured": 2786,
      "esc": 2787,
      "ience": 2788,
      "ĠGeor": 2789,
      "Ġtit": 2790,
      "åİŁåĽł": 2791,
      "ese": 2792,
      "çĽĳ": 2793,
      "uthor": 2794,
      "Ġnamed": 2795,
      "reen": 2796,
      "å¾ĭ": 2797,
      "Ġsim": 2798,
      "éĢģ": 2799,
      "ights": 2800,
      "Ġnear": 2801,
      "64": 2802,
      "ä¸¤ä¸ª": 2803,
      "æĸ½": 2804,
      "çŁŃ": 2805,
      "ĠEl": 2806,
      "èĮĥ": 2807,
      "args": 2808,
      "æĽ²": 2809,
      "åľ°æĸ¹": 2810,
      "ĠĊ": 2811,
      "Ġcareer": 2812,
      "åįĸ": 2813,
      "ĠChrist": 2814,
      "uk": 2815,
      "ison": 2816,
      "ä¹ĭåīį": 2817,
      "ival": 2818,
      "åħŃ": 2819,
      "åĶ®": 2820,
      "ĠAfric": 2821,
      "æīĭæľº": 2822,
      "ically": 2823,
      "è¡£": 2824,
      "åĨľ": 2825,
      "è¦ģæ±Ĥ": 2826,
      "Ġcr": 2827,
      "Ġplace": 2828,
      "Ġcharact": 2829,
      "ç¬ĳ": 2830,
      "æĿĢ": 2831,
      "Ġalong": 2832,
      "æ³¢": 2833,
      "Ġbased": 2834,
      "Ġeff": 2835,
      "35": 2836,
      "Ġbr": 2837,
      "Ġvalue": 2838,
      "uck": 2839,
      "Ġlocated": 2840,
      "ship": 2841,
      "med": 2842,
      "æĿ¥è¯´": 2843,
      "ä¿¡æģ¯": 2844,
      "70": 2845,
      "æ½": 2846,
      "åıĳçĶŁ": 2847,
      "åº§": 2848,
      "sk": 2849,
      "ger": 2850,
      "çīĽ": 2851,
      "ç©¿": 2852,
      "åħļ": 2853,
      "å¥ĸ": 2854,
      "\"|": 2855,
      "æ£Ģ": 2856,
      "æĹħ": 2857,
      "ches": 2858,
      "param": 2859,
      "Ġfunction": 2860,
      "ä»ĭ": 2861,
      "Ġarg": 2862,
      "Ġgovernment": 2863,
      "ature": 2864,
      "æĸ¹æ³ķ": 2865,
      "Ġmembers": 2866,
      "æĸ¹å¼ı": 2867,
      "åĲĦç§į": 2868,
      "Ġevent": 2869,
      ")(": 2870,
      "äºĨè§£": 2871,
      "ä¸ĢçĤ¹": 2872,
      "ĠAb": 2873,
      "ĠFrench": 2874,
      "åº·": 2875,
      "ĠThey": 2876,
      "ington": 2877,
      "ĠMc": 2878,
      "çŃĸ": 2879,
      "æ±ī": 2880,
      "aced": 2881,
      "äººæ°ĳ": 2882,
      "ĠBar": 2883,
      "æħ¢": 2884,
      "é¢Ŀ": 2885,
      "Ġwomen": 2886,
      "ivision": 2887,
      "Ġhel": 2888,
      "æĦ¿": 2889,
      "Ġeng": 2890,
      "Ch": 2891,
      "iles": 2892,
      "çº³": 2893,
      "å¿Ĺ": 2894,
      "æĿĲ": 2895,
      "umn": 2896,
      "rol": 2897,
      "Ġprom": 2898,
      "ody": 2899,
      "lex": 2900,
      "Ġmember": 2901,
      "Ġbegan": 2902,
      "å½ĵæĹ¶": 2903,
      "ĠHer": 2904,
      "ç»§": 2905,
      "è½¯": 2906,
      "lement": 2907,
      "])Ċ": 2908,
      "åĮħæĭ¬": 2909,
      "\"(": 2910,
      "âĢĿãĢĤ": 2911,
      "æĢķ": 2912,
      "Ġkm": 2913,
      "æī¿": 2914,
      "ĠEast": 2915,
      "æ¿Ģ": 2916,
      "Ġlaw": 2917,
      "iness": 2918,
      "iven": 2919,
      "for": 2920,
      "æĭħ": 2921,
      "ana": 2922,
      "None": 2923,
      "Ġterm": 2924,
      "65": 2925,
      "é¥Ń": 2926,
      "äºĳ": 2927,
      "raft": 2928,
      "\":": 2929,
      "ĠDistrict": 2930,
      "list": 2931,
      "date": 2932,
      "å¥Ĺ": 2933,
      "ĠWilliam": 2934,
      "ĠSy": 2935,
      "Ġfr": 2936,
      "ene": 2937,
      "æĪĳæĺ¯": 2938,
      "Ġcompet": 2939,
      "åıªæľī": 2940,
      "æľīåĵªäºĽ": 2941,
      "åģľ": 2942,
      "Equal": 2943,
      "éĹ®çŃĶ": 2944,
      "é¢ĳ": 2945,
      "oad": 2946,
      "Ã¥": 2947,
      "bl": 2948,
      "Ġheld": 2949,
      "ĠPeople": 2950,
      "Ġocc": 2951,
      "å¼Ĥ": 2952,
      "gr": 2953,
      "Ġclub": 2954,
      "äº¿": 2955,
      "æ´»åĬ¨": 2956,
      "alth": 2957,
      "èĢģå¸Ī": 2958,
      "æķ°æį®": 2959,
      "Ġdet": 2960,
      "Ġestablished": 2961,
      "æ´Ĺ": 2962,
      "Ġ<": 2963,
      "struct": 2964,
      "åħ¶ä¸Ń": 2965,
      "ored": 2966,
      "æĴŃ": 2967,
      "ĠCollege": 2968,
      "Ġdid": 2969,
      "Ġval": 2970,
      "æľīäºº": 2971,
      "è½½": 2972,
      "äº«": 2973,
      "æ¬§": 2974,
      "æĿ¥çļĦ": 2975,
      "èĹ": 2976,
      "è·ĳ": 2977,
      "æĶ¿åºľ": 2978,
      "ç«ł": 2979,
      "é¼": 2980,
      "idd": 2981,
      "ï¼ļâĢľ": 2982,
      "è¡¨ç¤º": 2983,
      "ering": 2984,
      "Ġpresent": 2985,
      "gy": 2986,
      "ĠRec": 2987,
      "æł¸": 2988,
      "fo": 2989,
      "èıľ": 2990,
      "augh": 2991,
      "éĹ®çŃĶç¤¾åĮº": 2992,
      "\")Ċ": 2993,
      "gcolor": 2994,
      "å¥¥": 2995,
      "Ġversion": 2996,
      "ford": 2997,
      "Ġdisc": 2998,
      "æĭĽ": 2999,
      "ĠHigh": 3000,
      "çĽ´æİ¥": 3001,
      "éĨ": 3002,
      "33": 3003,
      "ization": 3004,
      "çĪ¸": 3005,
      "py": 3006,
      "ĠRuss": 3007,
      "adem": 3008,
      "ords": 3009,
      "çĶļèĩ³": 3010,
      "li": 3011,
      "è¿½": 3012,
      "Ġlast": 3013,
      "åĿĹ": 3014,
      "import": 3015,
      ".,": 3016,
      "Ġpublished": 3017,
      "ides": 3018,
      "ondon": 3019,
      "ä»¥åĲİ": 3020,
      "èĭı": 3021,
      "vers": 3022,
      "ociation": 3023,
      "ä»ĺ": 3024,
      "Ġdescrib": 3025,
      "åĲ¸": 3026,
      "anguage": 3027,
      "iet": 3028,
      "åİĨåı²": 3029,
      "ister": 3030,
      "æľĿ": 3031,
      "Ġcond": 3032,
      "è¡Įä¸ļ": 3033,
      "ording": 3034,
      "rew": 3035,
      "Ġkey": 3036,
      "Ġhome": 3037,
      "unc": 3038,
      "é¡¹çĽ®": 3039,
      "186": 3040,
      "æ¯Ľ": 3041,
      "erence": 3042,
      "Ġvar": 3043,
      "ream": 3044,
      "éĿł": 3045,
      "Ġstation": 3046,
      "ency": 3047,
      "Ġreceived": 3048,
      "Ġmajor": 3049,
      "side": 3050,
      "é±": 3051,
      "Ġcurrent": 3052,
      "Ġexcept": 3053,
      "time": 3054,
      "ç´¢": 3055,
      "aving": 3056,
      "urg": 3057,
      "äººåı£": 3058,
      "æĸĩåĮĸ": 3059,
      "Ġtype": 3060,
      "Ġbgcolor": 3061,
      "å»ºè®®": 3062,
      "Ġelection": 3063,
      "çķ¥": 3064,
      "Ġbus": 3065,
      "Ġbuilt": 3066,
      "Ġsuccess": 3067,
      "Ġstat": 3068,
      "Ġpo": 3069,
      "Ġred": 3070,
      "åĵ¥": 3071,
      "çļĦä¸Ģä¸ª": 3072,
      "ĠChampionship": 3073,
      "æŀĲ": 3074,
      "arge": 3075,
      "Ġcour": 3076,
      "ĠInternational": 3077,
      "ĠItal": 3078,
      "å®īåħ¨": 3079,
      "æĺ¥": 3080,
      "ç¯": 3081,
      "æľīä»Ģä¹Ī": 3082,
      "çĶ±äºİ": 3083,
      "é±¼": 3084,
      "Ġsmall": 3085,
      "ponse": 3086,
      "\"Ċ": 3087,
      "çĹĽ": 3088,
      "Ġche": 3089,
      "ä»¤": 3090,
      "idge": 3091,
      "ĠArt": 3092,
      "å¹´çļĦ": 3093,
      "187": 3094,
      "Ġcould": 3095,
      "æİī": 3096,
      "åįı": 3097,
      "Ġperson": 3098,
      "Ġworld": 3099,
      "çĿ¡": 3100,
      "Ġappro": 3101,
      "Ġnational": 3102,
      "è¿Ļæł·çļĦ": 3103,
      "ĠComp": 3104,
      "Ġsingle": 3105,
      "Ġband": 3106,
      "è¯Ħä»·": 3107,
      "Ġer": 3108,
      "ases": 3109,
      "éĴŁ": 3110,
      "åĸĦ": 3111,
      "ttp": 3112,
      "Ġserved": 3113,
      "ucation": 3114,
      "etwork": 3115,
      "iod": 3116,
      "Ġtook": 3117,
      "Ġleg": 3118,
      "ç»ĵæŀľ": 3119,
      "OR": 3120,
      "ining": 3121,
      "Ġborn": 3122,
      "37": 3123,
      "æ¤": 3124,
      "requ": 3125,
      "off": 3126,
      "Ġmanag": 3127,
      "illion": 3128,
      "Ġnon": 3129,
      "åį«": 3130,
      "Ġnow": 3131,
      "ĠSup": 3132,
      "opt": 3133,
      "Ġcentury": 3134,
      "ief": 3135,
      "ï¼īãĢĤ": 3136,
      "34": 3137,
      "Ġgeneral": 3138,
      "ĠLondon": 3139,
      "aul": 3140,
      "èĦ¸": 3141,
      "Ġdeb": 3142,
      "Ġmake": 3143,
      "åŃĺåľ¨": 3144,
      "æ´²": 3145,
      "åĲİæĿ¥": 3146,
      "éĹ»": 3147,
      "ling": 3148,
      "writ": 3149,
      "ĠDav": 3150,
      "arried": 3151,
      "ĠHouse": 3152,
      "ST": 3153,
      "ĠNot": 3154,
      "ĠOff": 3155,
      "æıĲä¾Ľ": 3156,
      "åħ³äºİ": 3157,
      "æľ¨": 3158,
      "opy": 3159,
      "çĮ®": 3160,
      "è¿°": 3161,
      "ä»·æł¼": 3162,
      "å½ĵçĦ¶": 3163,
      "Ġcompany": 3164,
      "Ġ__": 3165,
      "Ġfem": 3166,
      "empt": 3167,
      "Ã³": 3168,
      "ĠLa": 3169,
      "é¡»": 3170,
      "ample": 3171,
      "åĲ«": 3172,
      "ma": 3173,
      "eder": 3174,
      "Ġrest": 3175,
      "Ġjo": 3176,
      "Ġopt": 3177,
      "plic": 3178,
      "æģĭ": 3179,
      "vir": 3180,
      "åĿļ": 3181,
      "ideo": 3182,
      "Ġhand": 3183,
      "hel": 3184,
      "ä¸Ģæ¬¡": 3185,
      "Ġav": 3186,
      "åª": 3187,
      "ops": 3188,
      "æ±½": 3189,
      "é¢ĺä¸»": 3190,
      "Ã¤": 3191,
      "ï¼ģĊ": 3192,
      "ĠLiving": 3193,
      "ouncil": 3194,
      "ä¹¡": 3195,
      "ĠHowever": 3196,
      "ett": 3197,
      "ĠLi": 3198,
      "ĠAc": 3199,
      "ara": 3200,
      "Ġdue": 3201,
      "ç«¯": 3202,
      "Ġaround": 3203,
      "ately": 3204,
      "ilitary": 3205,
      "Ġrepresent": 3206,
      "Ġinclude": 3207,
      "åĪ«äºº": 3208,
      "ocial": 3209,
      "assertEqual": 3210,
      "umb": 3211,
      "èĭ¦": 3212,
      "ald": 3213,
      "ead": 3214,
      "éĻĨ": 3215,
      "é¡º": 3216,
      "Ġns": 3217,
      "Ġprofess": 3218,
      "èįĲ": 3219,
      "å®Įåħ¨": 3220,
      "å²Ľ": 3221,
      "Ġallow": 3222,
      "ä»Ĭå¤©": 3223,
      "ĠPark": 3224,
      "ĠIndian": 3225,
      "Ġtelevision": 3226,
      "çĳ": 3227,
      "ID": 3228,
      "ç«Ł": 3229,
      "ç§»": 3230,
      "Ġvillage": 3231,
      "ä½ĵéªĮ": 3232,
      "Ġcor": 3233,
      "uf": 3234,
      "Ġleft": 3235,
      "ality": 3236,
      "Ġtop": 3237,
      "rick": 3238,
      "tr": 3239,
      "ify": 3240,
      "ĠHar": 3241,
      "èĪª": 3242,
      "ĠOly": 3243,
      "å®¹æĺĵ": 3244,
      "ĠYou": 3245,
      "ctions": 3246,
      "ĠFilm": 3247,
      "åĨħå®¹": 3248,
      "arent": 3249,
      "omin": 3250,
      "ĠNo": 3251,
      "ferent": 3252,
      "èĵ": 3253,
      "aim": 3254,
      "mon": 3255,
      "Ġla": 3256,
      "AL": 3257,
      "ĠGeneral": 3258,
      "ĠCor": 3259,
      "æ¯ķä¸ļ": 3260,
      "èµĦæĸĻ": 3261,
      "åįł": 3262,
      "Ġfile": 3263,
      "æľīäºĽ": 3264,
      "è¡Ĺ": 3265,
      "ĠList": 3266,
      "apt": 3267,
      "æ³¨æĦı": 3268,
      "aus": 3269,
      "ĠPhil": 3270,
      "æī¹": 3271,
      "Ġsix": 3272,
      "reet": 3273,
      "ml": 3274,
      "å¤ľ": 3275,
      "ries": 3276,
      "çļĦéĹ®é¢ĺ": 3277,
      "éĵ¶è¡Į": 3278,
      "æł¹æį®": 3279,
      "day": 3280,
      "Ġ*": 3281,
      "SE": 3282,
      "æ¹¾": 3283,
      "aster": 3284,
      "Ġgames": 3285,
      "åĽ½éĻħ": 3286,
      "Ġchildren": 3287,
      "ĠEn": 3288,
      "ĠOlymp": 3289,
      "ĠPre": 3290,
      "=#": 3291,
      "of": 3292,
      "åĨ·": 3293,
      "æĵį": 3294,
      "akes": 3295,
      "tal": 3296,
      "åºŃ": 3297,
      "Ġpost": 3298,
      "Ġbecause": 3299,
      "æ¯ıå¤©": 3300,
      "ä¸ĥ": 3301,
      "Ġassert": 3302,
      "AC": 3303,
      "ĠRiver": 3304,
      "ĠAng": 3305,
      "è®°èĢħ": 3306,
      "Ġsl": 3307,
      "ĠAp": 3308,
      "è¿ĲåĬ¨": 3309,
      "åľĪ": 3310,
      "inst": 3311,
      "è¶£": 3312,
      "Ġread": 3313,
      "Ġwithin": 3314,
      "raw": 3315,
      "èī¯": 3316,
      "åľ°åĮº": 3317,
      "ummer": 3318,
      "æ¯Ĵ": 3319,
      "isc": 3320,
      "Ġthose": 3321,
      "æİ¨èįĲ": 3322,
      "ç¼º": 3323,
      "åĿĲ": 3324,
      "æĿ¾": 3325,
      "çŃĶæ¡Ī": 3326,
      "Ġi": 3327,
      "Ġmark": 3328,
      "çĪ¶æ¯į": 3329,
      "è°¢è°¢": 3330,
      "ones": 3331,
      "Ġport": 3332,
      "ĠCup": 3333,
      "Ġdel": 3334,
      "æĪĳæĥ³": 3335,
      "85": 3336,
      "è´µ": 3337,
      "Ġmat": 3338,
      "Ġhistory": 3339,
      "Ġdown": 3340,
      "å¯Ł": 3341,
      "éĻĪ": 3342,
      "ĠAct": 3343,
      "å¦¹": 3344,
      "Ġshort": 3345,
      "ä¸Ńå¿ĥ": 3346,
      "è¿ĻéĩĮ": 3347,
      "åĩłä¸ª": 3348,
      "Ġcar": 3349,
      "Ġnorth": 3350,
      "lin": 3351,
      "èĸ": 3352,
      "leg": 3353,
      "na": 3354,
      "æĩĤ": 3355,
      "EN": 3356,
      "ä¸įå¥½": 3357,
      "artment": 3358,
      "æĤ¨": 3359,
      "èĤ¯": 3360,
      "alk": 3361,
      "\",Ċ": 3362,
      "44": 3363,
      "ĠGl": 3364,
      "åĪĨæŀĲ": 3365,
      "dom": 3366,
      "ä¸´": 3367,
      "åĽ½åĨħ": 3368,
      "åĪ»": 3369,
      "}Ċ": 3370,
      "Ġsett": 3371,
      "Ġplayer": 3372,
      "éĤ£ä¸ª": 3373,
      "ĠDep": 3374,
      "ä»»ä½ķ": 3375,
      "å³": 3376,
      "Ġhousehold": 3377,
      "å¾®ä¿¡": 3378,
      "Ġep": 3379,
      "ç¬Ķ": 3380,
      "çīĻ": 3381,
      "Ġday": 3382,
      "urs": 3383,
      "çĸĳ": 3384,
      "rap": 3385,
      "Ġstyle": 3386,
      "ĠRoy": 3387,
      "Ġcamp": 3388,
      "è®¨": 3389,
      "oph": 3390,
      "çĻ»": 3391,
      "vious": 3392,
      "Ġshould": 3393,
      "ä¸įåĪ°": 3394,
      "Ġservice": 3395,
      "åĨ²": 3396,
      "')": 3397,
      "çĹĩ": 3398,
      "èĨ": 3399,
      "ä¸Ŀ": 3400,
      "Ġreport": 3401,
      "ä½Ļ": 3402,
      "æīĺ": 3403,
      "ĠDr": 3404,
      "äººåĳĺ": 3405,
      "ware": 3406,
      "Ġtem": 3407,
      "min": 3408,
      "Ġmen": 3409,
      "500": 3410,
      "ĠMich": 3411,
      "38": 3412,
      "ush": 3413,
      "Ã¼": 3414,
      "ĠĠĠĠĠĠ": 3415,
      "ĠMount": 3416,
      "rod": 3417,
      "åºı": 3418,
      "=Ċ": 3419,
      "æĶ»": 3420,
      "å¥¶": 3421,
      "ĠSan": 3422,
      "ä¸Ĭæµ·": 3423,
      "conom": 3424,
      "èĥ½å¤Ł": 3425,
      "Ġstand": 3426,
      "Ġprint": 3427,
      "AN": 3428,
      "ç»ľ": 3429,
      "Ġobject": 3430,
      "ĠDuring": 3431,
      "æľĢè¿ĳ": 3432,
      "ĠTrue": 3433,
      "Ġdifferent": 3434,
      "99": 3435,
      "urther": 3436,
      "ç»ĩ": 3437,
      "Ġsaid": 3438,
      "||âĢĶ|": 3439,
      "ĠMe": 3440,
      "init": 3441,
      "éĤ£äºĽ": 3442,
      "36": 3443,
      "å¤ļå°ĳ": 3444,
      "arget": 3445,
      "éĢĢ": 3446,
      "ĠDem": 3447,
      "ç´§": 3448,
      "å®£": 3449,
      "``": 3450,
      "ĠBy": 3451,
      "vert": 3452,
      "åħ¸": 3453,
      "ently": 3454,
      "play": 3455,
      "äº®": 3456,
      "æ¹ĸ": 3457,
      "çģµ": 3458,
      "alt": 3459,
      "Ġjust": 3460,
      "èĻĳ": 3461,
      "itional": 3462,
      "é¦Ĩ": 3463,
      "ription": 3464,
      "æĺ¯ä¸įæĺ¯": 3465,
      "æķħäºĭ": 3466,
      "Ġdied": 3467,
      "fig": 3468,
      "è¿Ľåħ¥": 3469,
      "ively": 3470,
      "æĪĳè§īå¾Ĺ": 3471,
      "èİ·å¾Ĺ": 3472,
      "Ġconsid": 3473,
      "Ġorder": 3474,
      "ç®Ģåįķ": 3475,
      "è®Ń": 3476,
      "è¿Ļä¸Ģ": 3477,
      "ä»¥ä¸ĭ": 3478,
      "å¼¹": 3479,
      "Ġincluded": 3480,
      "ĠPer": 3481,
      "ÃŃ": 3482,
      "odes": 3483,
      "Ġlarge": 3484,
      "Ġproject": 3485,
      "æĽ´å¤ļ": 3486,
      "æĹłæ³ķ": 3487,
      "Ġadv": 3488,
      "Ġarch": 3489,
      "è¿ĩç¨ĭ": 3490,
      "ee": 3491,
      "Ġz": 3492,
      "ards": 3493,
      "Ġâ": 3494,
      "Ġgiven": 3495,
      "ration": 3496,
      "ances": 3497,
      "Ġfive": 3498,
      "Ġlike": 3499,
      "çĶ³": 3500,
      "Ġvis": 3501,
      "though": 3502,
      "ground": 3503,
      "ope": 3504,
      "ĠSch": 3505,
      "ĠChar": 3506,
      "epend": 3507,
      "Ġcomplet": 3508,
      "ĠAg": 3509,
      "ç§Ģ": 3510,
      "åįķä½į": 3511,
      "iforn": 3512,
      "db": 3513,
      "Ġbuilding": 3514,
      "åĢĴ": 3515,
      "ensus": 3516,
      "ĠAssociation": 3517,
      "Ġdem": 3518,
      "icense": 3519,
      "|-": 3520,
      "é¦ĸåħĪ": 3521,
      "èĳĹ": 3522,
      "ĠTown": 3523,
      "attle": 3524,
      "Ġsouth": 3525,
      "åħ¬éĩĮ": 3526,
      "struction": 3527,
      "Ġsk": 3528,
      "åħµ": 3529,
      "çĶµè§Ĩ": 3530,
      "Ġevery": 3531,
      "rest": 3532,
      "éĽ·": 3533,
      "åįĪ": 3534,
      "æĢĢ": 3535,
      "uman": 3536,
      "ĠIsland": 3537,
      "adio": 3538,
      "å¤ı": 3539,
      "ĠEngland": 3540,
      "åĽłæŃ¤": 3541,
      "éĻ¤äºĨ": 3542,
      "äº¤æĺĵ": 3543,
      "185": 3544,
      "æ´¾": 3545,
      "ily": 3546,
      "å¨ģ": 3547,
      "ifornia": 3548,
      "head": 3549,
      "çİ¯å¢ĥ": 3550,
      "è¾ĵ": 3551,
      "Ġlarg": 3552,
      "å½©": 3553,
      "çĨŁ": 3554,
      "åı¯æĺ¯": 3555,
      "åī¯": 3556,
      "ness": 3557,
      "Ġiss": 3558,
      "å¸ģ": 3559,
      "Ġthird": 3560,
      "Ġhost": 3561,
      "æ²Ļ": 3562,
      "ico": 3563,
      "AS": 3564,
      "Ġwater": 3565,
      "ooks": 3566,
      "osp": 3567,
      "ien": 3568,
      "uild": 3569,
      "Ġbook": 3570,
      "ĠAcc": 3571,
      "Ġperiod": 3572,
      "éŁ©": 3573,
      "Ġrepl": 3574,
      "ä¹Łæľī": 3575,
      "UT": 3576,
      "ä»Ĭå¹´": 3577,
      "æ°¸": 3578,
      "fr": 3579,
      "ï¼ī*": 3580,
      "ĠPort": 3581,
      "Ã¨": 3582,
      "æĪĲåĬŁ": 3583,
      "è½®": 3584,
      "è¿Ļä¸ªéĹ®é¢ĺ": 3585,
      "å«": 3586,
      "èĥľ": 3587,
      "__(": 3588,
      "ĠMon": 3589,
      "riend": 3590,
      "ç¨İ": 3591,
      "ĠQu": 3592,
      "å®¡": 3593,
      "Ġinit": 3594,
      "å°ıæĹ¶": 3595,
      "çĶ¨æĪ·": 3596,
      "ä¸Ģç§į": 3597,
      "Ġtry": 3598,
      "è®¯": 3599,
      "å¥³çĶŁ": 3600,
      "ĠCalifornia": 3601,
      "ET": 3602,
      "èľ": 3603,
      "olic": 3604,
      "æī§": 3605,
      "Ġincre": 3606,
      "çļĦå¤§": 3607,
      "inter": 3608,
      "Ġdistrict": 3609,
      "essage": 3610,
      "inning": 3611,
      "Ġadm": 3612,
      "éĻĦ": 3613,
      "formation": 3614,
      "å°Ħ": 3615,
      "ç»ıå¸¸": 3616,
      "nect": 3617,
      "çĶ°": 3618,
      "aff": 3619,
      "useum": 3620,
      "Ġcommand": 3621,
      "ĠChe": 3622,
      "çļĦå°ı": 3623,
      "Ġprocess": 3624,
      "39": 3625,
      "47": 3626,
      "Ġauthor": 3627,
      "dir": 3628,
      "åĪĺ": 3629,
      "IC": 3630,
      "comp": 3631,
      "èĽĭ": 3632,
      "Ġtotal": 3633,
      "ĠParty": 3634,
      "æĢ¥": 3635,
      "åĳĬè¯ī": 3636,
      "ï¼ĮâĢľ": 3637,
      "åĮ»éĻ¢": 3638,
      "ĠNe": 3639,
      "load": 3640,
      "omet": 3641,
      "è§£åĨ³": 3642,
      "æīįèĥ½": 3643,
      "æ¢¦": 3644,
      "Ġfac": 3645,
      "Ġpower": 3646,
      "åĸĿ": 3647,
      "åĪ¤": 3648,
      "48": 3649,
      "Ġpat": 3650,
      "Ġusing": 3651,
      "ĠMinist": 3652,
      "åĲĮåŃ¦": 3653,
      "uit": 3654,
      "olution": 3655,
      "çĭĹ": 3656,
      "append": 3657,
      "Ġ:": 3658,
      "Ġcrit": 3659,
      "Ġdescribed": 3660,
      "ä¹Ŀ": 3661,
      "ç»©": 3662,
      "è¯¯": 3663,
      "ĠOne": 3664,
      "55": 3665,
      "Ġraise": 3666,
      "ĠRoman": 3667,
      "alf": 3668,
      "èĤ¤": 3669,
      "text": 3670,
      "#Ċ": 3671,
      "Ġstill": 3672,
      "Ġlevel": 3673,
      "å·¦åı³": 3674,
      "Ġlog": 3675,
      "itor": 3676,
      "ids": 3677,
      "oon": 3678,
      "Ġson": 3679,
      "Ġtitle": 3680,
      "Ġspecies": 3681,
      "Ġaver": 3682,
      "ç¨³": 3683,
      "çĪĨ": 3684,
      "ength": 3685,
      "æįŁ": 3686,
      "ĠPe": 3687,
      "Ġmatch": 3688,
      "Ġannounc": 3689,
      "éĩĬ": 3690,
      "ociety": 3691,
      "åľ£": 3692,
      "å¹³åı°": 3693,
      "uel": 3694,
      "Ġos": 3695,
      "Ġanother": 3696,
      "Ġtri": 3697,
      ">Ċ": 3698,
      "ĠĠĠĠĠĠĠĠĠ": 3699,
      "¤Ĳ": 3700,
      "ĠAustralia": 3701,
      "ray": 3702,
      "ced": 3703,
      "ç½ĳç»ľ": 3704,
      "éĥ½æľī": 3705,
      "Ġchang": 3706,
      "å¿ħé¡»": 3707,
      "è¡Įä¸º": 3708,
      "Ġactiv": 3709,
      "ĠArmy": 3710,
      "åĬŁèĥ½": 3711,
      "Ġcharacter": 3712,
      "ä¼Ĭ": 3713,
      "Ġship": 3714,
      "ception": 3715,
      "ç¤¼": 3716,
      "å¸Ĥéķĩ": 3717,
      "çĲĨè§£": 3718,
      "åŁºç¡": 3719,
      "æĪĳå°±": 3720,
      "Ġvol": 3721,
      "éĥ½ä¸į": 3722,
      "ĠBel": 3723,
      "ä»¥ä¸Ĭ": 3724,
      "avy": 3725,
      "ç»ıåİĨ": 3726,
      "æŀ¶": 3727,
      "åŁºç¡Ģ": 3728,
      "éķľ": 3729,
      "ç¿»": 3730,
      "ploy": 3731,
      "æĳĦ": 3732,
      "ama": 3733,
      "ä¹ĭéĹ´": 3734,
      "gin": 3735,
      "Ġkill": 3736,
      "æĶ¯æĮģ": 3737,
      "æ²»çĸĹ": 3738,
      "åĪ¸": 3739,
      "iction": 3740,
      "Ġeven": 3741,
      "Ġappear": 3742,
      "å±ŀäºİ": 3743,
      "ĠEm": 3744,
      "ĠSm": 3745,
      ".(": 3746,
      "ãĢĤ*": 3747,
      "ç£": 3748,
      "========": 3749,
      "ç¡¬": 3750,
      "è¿·": 3751,
      "ãĢĤâĢľ": 3752,
      "ç»§ç»Ń": 3753,
      "è¡ĮæĺŁ": 3754,
      "aining": 3755,
      "éĶ®": 3756,
      "Ġneed": 3757,
      "method": 3758,
      "be": 3759,
      "åĬª": 3760,
      "ä½įäºİ": 3761,
      "æĬĹ": 3762,
      "hern": 3763,
      "cast": 3764,
      "sy": 3765,
      "èģĬ": 3766,
      "ä»£è¡¨": 3767,
      "æŃ£å¸¸": 3768,
      "Ġdate": 3769,
      "è¾ĳ": 3770,
      "åªĴ": 3771,
      "çĺ": 3772,
      "Ġwar": 3773,
      "ĠChurch": 3774,
      "å§Ĳ": 3775,
      "Ġconst": 3776,
      "cur": 3777,
      "åıªèĥ½": 3778,
      "æĸĹ": 3779,
      "åĩĢ": 3780,
      "BC": 3781,
      "æļ´": 3782,
      "Ġgener": 3783,
      "Ġdeaths": 3784,
      "ocr": 3785,
      "ories": 3786,
      "éĺħ": 3787,
      "éĿ©": 3788,
      "cle": 3789,
      "çŁ¥è¯Ĩ": 3790,
      "ring": 3791,
      "æĤ£": 3792,
      "ä»į": 3793,
      "ivid": 3794,
      "ole": 3795,
      "ournal": 3796,
      "ius": 3797,
      "æľīçļĦ": 3798,
      "å¯¼èĩ´": 3799,
      "Ġhistor": 3800,
      "Ġwest": 3801,
      "ems": 3802,
      "Ã¶": 3803,
      ">>": 3804,
      "ves": 3805,
      "ref": 3806,
      "Ġcountry": 3807,
      "åģı": 3808,
      "ĠIf": 3809,
      "Ġnov": 3810,
      "Ġpolitic": 3811,
      "æ¶¨": 3812,
      "Ġexper": 3813,
      "reak": 3814,
      "èĭ¥": 3815,
      "é²ľ": 3816,
      "jo": 3817,
      "æģ¶": 3818,
      "å¾ģ": 3819,
      "Ġmillion": 3820,
      "Ġstruct": 3821,
      "æ°´å¹³": 3822,
      "èĹı": 3823,
      "Ġbusiness": 3824,
      "åĩĨå¤ĩ": 3825,
      "Ġmoved": 3826,
      "å°±ä¼ļ": 3827,
      "ĠAnt": 3828,
      "ament": 3829,
      "å¸Ŀ": 3830,
      "ivil": 3831,
      "bert": 3832,
      "åĶ±": 3833,
      "ris": 3834,
      "ĠFalse": 3835,
      "Ġmale": 3836,
      "ä»¥åīį": 3837,
      "ãĢĤãĢĤ": 3838,
      "Ġbest": 3839,
      "ots": 3840,
      "ä½Ľ": 3841,
      "Ġnext": 3842,
      "acy": 3843,
      "ils": 3844,
      "Ġled": 3845,
      "ume": 3846,
      "ĠJames": 3847,
      "ĠPal": 3848,
      "é¤Ĳ": 3849,
      "ĠAward": 3850,
      "ĠRober": 3851,
      "åĢŁ": 3852,
      "ours": 3853,
      "log": 3854,
      "ribute": 3855,
      "å¼Ł": 3856,
      "ĠVal": 3857,
      "search": 3858,
      "ango": 3859,
      "Ġposs": 3860,
      "################": 3861,
      "éĺ¶": 3862,
      "åŁ¹": 3863,
      "Ġrefer": 3864,
      "ows": 3865,
      "Ġvery": 3866,
      "ĠBer": 3867,
      "ĠRoyal": 3868,
      "æ±½è½¦": 3869,
      "Ġlab": 3870,
      "Ġcompos": 3871,
      "Ġprevious": 3872,
      "Ġtrad": 3873,
      "åºĵ": 3874,
      "ä¸½": 3875,
      "ĠWhen": 3876,
      "çĶ²": 3877,
      "adu": 3878,
      "åı¦å¤ĸ": 3879,
      "Ġgl": 3880,
      "åıªè¦ģ": 3881,
      "è´´": 3882,
      "omb": 3883,
      "éĩĳèŀį": 3884,
      "01": 3885,
      "Ġeast": 3886,
      "ugg": 3887,
      "yth": 3888,
      "Ġfe": 3889,
      "å¹¸": 3890,
      "Ġtrack": 3891,
      "Ġcommon": 3892,
      "75": 3893,
      "Ġworks": 3894,
      "ael": 3895,
      "Ġpath": 3896,
      "ĠHol": 3897,
      "èĩªçĦ¶": 3898,
      "ĠFrance": 3899,
      "lected": 3900,
      "Ġside": 3901,
      "çŃ¾": 3902,
      "oe": 3903,
      "([": 3904,
      "ville": 3905,
      "Ġwithout": 3906,
      "ĠThom": 3907,
      "ĠQue": 3908,
      "é¦Ļæ¸¯": 3909,
      "æĪĳä¹Ł": 3910,
      "comm": 3911,
      "ĠRev": 3912,
      "éľ²": 3913,
      "Ġrole": 3914,
      "ç»Ħç»ĩ": 3915,
      "Ġspe": 3916,
      "éģ¿": 3917,
      "ç§ģ": 3918,
      "Ġmethod": 3919,
      "æķĪæŀľ": 3920,
      "Ġfact": 3921,
      "æł·çļĦ": 3922,
      "å´": 3923,
      "ä½ľçĶ¨": 3924,
      "Test": 3925,
      "Ġmag": 3926,
      "unicip": 3927,
      "éħ¸": 3928,
      "æĻ®éĢļ": 3929,
      "Ġliving": 3930,
      "çĶµè¯Ŀ": 3931,
      "å·Ŀ": 3932,
      "Ġdoc": 3933,
      "Ġreturned": 3934,
      "Ġcult": 3935,
      "ãĢĲ": 3936,
      "state": 3937,
      "rc": 3938,
      "ĠPresident": 3939,
      "Ġsqu": 3940,
      "ĠGeorge": 3941,
      "Ġsold": 3942,
      "pected": 3943,
      "ĠAustralian": 3944,
      "ources": 3945,
      "ãĢĳ": 3946,
      "éŁ³ä¹Ĳ": 3947,
      "Ġsize": 3948,
      "ĠEuropean": 3949,
      "rain": 3950,
      "å®ģ": 3951,
      "Ġmarried": 3952,
      "èįī": 3953,
      "Ġaverage": 3954,
      "object": 3955,
      "æİ§åĪ¶": 3956,
      "ĠMor": 3957,
      "æľīçĤ¹": 3958,
      "åłĤ": 3959,
      "é¹": 3960,
      "è§¦": 3961,
      "åĲī": 3962,
      "oid": 3963,
      "iment": 3964,
      "ĠYear": 3965,
      "ĠPublic": 3966,
      "ĠCour": 3967,
      "Ġround": 3968,
      "åĿı": 3969,
      "Ġbase": 3970,
      "éĥ½ä¼ļ": 3971,
      "Ġfather": 3972,
      "with": 3973,
      "ä»·åĢ¼": 3974,
      "ĠRed": 3975,
      "Ġinternational": 3976,
      "orthern": 3977,
      "Ġamong": 3978,
      "Ġengine": 3979,
      "aut": 3980,
      "Ġoften": 3981,
      "ania": 3982,
      "Ġestablish": 3983,
      "Ġgen": 3984,
      "å°ıè¡ĮæĺŁ": 3985,
      "åĲĦä½į": 3986,
      "æĦıæĢĿ": 3987,
      "å®¶åºŃ": 3988,
      "Ġattack": 3989,
      "è®¡åĪĴ": 3990,
      "ators": 3991,
      "æĮº": 3992,
      "éĩĮéĿ¢": 3993,
      "Ġwhat": 3994,
      "iff": 3995,
      "Ġpe": 3996,
      "300": 3997,
      "ser": 3998,
      "ä¸Ģä¸ªäºº": 3999,
      "Ġmult": 4000,
      "è¡ĮæĶ¿": 4001,
      "ift": 4002,
      "å¿ĥçĲĨ": 4003,
      "ç»į": 4004,
      "çº¯": 4005,
      "lete": 4006,
      "è´¥": 4007,
      "é¸¡": 4008,
      "Ġthough": 4009,
      "Ġcreated": 4010,
      "åĨ³å®ļ": 4011,
      "æłĩåĩĨ": 4012,
      "æĭ¥": 4013,
      "ĠIndia": 4014,
      "è¸": 4015,
      "anish": 4016,
      "viron": 4017,
      "ãĢĤï¼Ī": 4018,
      "ached": 4019,
      "åĪĨéĴŁ": 4020,
      "åı°æ¹¾": 4021,
      "å®ŀéĻħ": 4022,
      "Ġaff": 4023,
      "ä¸°": 4024,
      "èĦļ": 4025,
      "æĶ¿æ²»": 4026,
      "ĠSen": 4027,
      "å¤®": 4028,
      "ç§ĳåŃ¦": 4029,
      "éĿĻ": 4030,
      "ification": 4031,
      "184": 4032,
      "ç¬¬ä¸ī": 4033,
      "Ġsite": 4034,
      "icle": 4035,
      "ĠCouncil": 4036,
      "å½Ĵ": 4037,
      "ĠMusic": 4038,
      "ĠÐ": 4039,
      "AP": 4040,
      "LE": 4041,
      "äº§çĶŁ": 4042,
      "],Ċ": 4043,
      "éº»": 4044,
      "ä¸ªæľĪ": 4045,
      "Ġlate": 4046,
      "æĺ¯åľ¨": 4047,
      "ç»ıéªĮ": 4048,
      "Ã§": 4049,
      "ades": 4050,
      "49": 4051,
      "å¹¶ä¸Ķ": 4052,
      "org": 4053,
      "åĵģçīĮ": 4054,
      "é¡¾": 4055,
      "æ¾": 4056,
      "åĪ°åºķ": 4057,
      "Ġwritten": 4058,
      "è·Ŀ": 4059,
      "è¯´çļĦ": 4060,
      "éĽ¨": 4061,
      "Ġtechn": 4062,
      "align": 4063,
      "å¤ĦçĲĨ": 4064,
      "å·¥ç¨ĭ": 4065,
      "åİĤ": 4066,
      "å¸®åĬ©": 4067,
      "é¡¶": 4068,
      "info": 4069,
      "Ġeffect": 4070,
      "åĬªåĬĽ": 4071,
      "ither": 4072,
      "Ġproduced": 4073,
      "ĠDes": 4074,
      "Ġmodel": 4075,
      "ĠDivision": 4076,
      "Ġproper": 4077,
      "roll": 4078,
      "less": 4079,
      "å®Ī": 4080,
      "ecut": 4081,
      "èĢĥèĻĳ": 4082,
      "å¼Ģåıĳ": 4083,
      "Ġcommunity": 4084,
      "Field": 4085,
      "ĠRail": 4086,
      "ĠLou": 4087,
      "ination": 4088,
      "ç«ŀ": 4089,
      "Ġtext": 4090,
      "ipp": 4091,
      "ĠTrans": 4092,
      "Ex": 4093,
      "æľīéĻĲ": 4094,
      "åĲ¯": 4095,
      "æĹ§": 4096,
      "æķĳ": 4097,
      "èĮ¶": 4098,
      "é¥°": 4099,
      "Ġcls": 4100,
      "ney": 4101,
      "å¢ŀåĬł": 4102,
      "æĺ¯ä¸Ģä¸ª": 4103,
      "ĠWith": 4104,
      "ĠRich": 4105,
      "èº«ä½ĵ": 4106,
      "ĠCanada": 4107,
      "ĠÃ": 4108,
      "Ġlim": 4109,
      "Ġproduction": 4110,
      "Ġannounced": 4111,
      "å¡Ķ": 4112,
      "ij": 4113,
      "éĩĮçļĦ": 4114,
      "Ġinvol": 4115,
      "Ġofficial": 4116,
      "çľĭçľĭ": 4117,
      "ache": 4118,
      "çŀ": 4119,
      "stitute": 4120,
      "æĿĤ": 4121,
      "wh": 4122,
      "RE": 4123,
      "Ġmiss": 4124,
      "oll": 4125,
      "reek": 4126,
      "not": 4127,
      "åħ·ä½ĵ": 4128,
      "æĢª": 4129,
      "ston": 4130,
      "ividual": 4131,
      "ä½ľåĵģ": 4132,
      "ged": 4133,
      "ĠStreet": 4134,
      "åıĤåĬł": 4135,
      "AM": 4136,
      "ĠPaul": 4137,
      "ĠMal": 4138,
      "Ġdebut": 4139,
      "ä¹±": 4140,
      "Ġrequest": 4141,
      "Ġfore": 4142,
      "Ġrail": 4143,
      "west": 4144,
      "æĲŀ": 4145,
      "æ³ķåĽ½": 4146,
      "åĽ°": 4147,
      "dd": 4148,
      "jango": 4149,
      "éŃĶ": 4150,
      "ĠClub": 4151,
      "ĠCanadian": 4152,
      "éĴĪ": 4153,
      "ha": 4154,
      "å¥³æĢ§": 4155,
      "æİ¥åıĹ": 4156,
      "ya": 4157,
      "æľīæ²¡æľī": 4158,
      "Ġhelp": 4159,
      "èİ±": 4160,
      "Ġaward": 4161,
      "Ġdoes": 4162,
      "é½": 4163,
      "æĿ¡ä»¶": 4164,
      "éĩİ": 4165,
      "éĢłæĪĲ": 4166,
      "thern": 4167,
      "éĤĢ": 4168,
      "èģĶç½ĳ": 4169,
      "bsite": 4170,
      "Ġspecial": 4171,
      "æ··": 4172,
      "éĿ¢ç§¯": 4173,
      "Ġfail": 4174,
      "Ġcover": 4175,
      "ĠAfrican": 4176,
      "Ġpolitical": 4177,
      "ĠFirst": 4178,
      "Ġaut": 4179,
      "Ġsw": 4180,
      "posed": 4181,
      "ning": 4182,
      "Ġturn": 4183,
      "éĢ¼": 4184,
      "çľĭå¾ħ": 4185,
      "è¡¨çİ°": 4186,
      "ĠĠĠĠĠĠĠĠĠĠĠĠĠĠĠĠĠĠĠĠĠĠĠ": 4187,
      "ç´¯": 4188,
      "å»ºè®¾": 4189,
      "å¾ĹåĪ°": 4190,
      "Pro": 4191,
      "ago": 4192,
      "ĠDavid": 4193,
      "ĠVir": 4194,
      "ç»¿": 4195,
      "Ġclos": 4196,
      "Ġmuch": 4197,
      "False": 4198,
      "ises": 4199,
      "dict": 4200,
      "å®Ĺ": 4201,
      "åıĳå¸ĥ": 4202,
      "Ġstarted": 4203,
      "èĴĻ": 4204,
      "åģ¥åº·": 4205,
      "Ġ('": 4206,
      "now": 4207,
      "Ġtw": 4208,
      "æıĲé«ĺ": 4209,
      "å®ŀçİ°": 4210,
      "Ġepis": 4211,
      "ĠStud": 4212,
      "Ġmust": 4213,
      "outhern": 4214,
      "Ġappoint": 4215,
      "åĬ³": 4216,
      "æĸ°éĹ»": 4217,
      "æľºæŀĦ": 4218,
      "reed": 4219,
      "èĦ±": 4220,
      "éĢı": 4221,
      "ams": 4222,
      "Ġcame": 4223,
      "Ġposition": 4224,
      "Ġprim": 4225,
      "å®ľ": 4226,
      "ĠIm": 4227,
      "Ġexpl": 4228,
      "æľ«": 4229,
      "--------------------------------": 4230,
      "ä¼¦": 4231,
      "ĠCont": 4232,
      "èµŀ": 4233,
      "ites": 4234,
      "Ġdevelopment": 4235,
      "æľĢå¥½": 4236,
      "å®ĮæĪĲ": 4237,
      "Ġvideo": 4238,
      "IS": 4239,
      "ä½³": 4240,
      "sequ": 4241,
      "è¯º": 4242,
      "ocal": 4243,
      "ĠUnion": 4244,
      "ban": 4245,
      "ĠFrom": 4246,
      "æµª": 4247,
      "åħ¨åĽ½": 4248,
      "Ã¦": 4249,
      "Ġfull": 4250,
      "å¹¶ä¸į": 4251,
      "å°ļ": 4252,
      "ĠAmerica": 4253,
      "Ġenc": 4254,
      "left": 4255,
      "66": 4256,
      "Ġsent": 4257,
      "ateg": 4258,
      "rel": 4259,
      "ux": 4260,
      "æ´ĭ": 4261,
      "ĠGroup": 4262,
      "æĺ¾ç¤º": 4263,
      "Ġser": 4264,
      "éģį": 4265,
      "Ġpri": 4266,
      "ĠAcadem": 4267,
      "Ġvari": 4268,
      "Ġpres": 4269,
      "iol": 4270,
      "æĲŃ": 4271,
      "æĥĬ": 4272,
      "Ġyoung": 4273,
      "ä¼°": 4274,
      "face": 4275,
      "çľŁæŃ£": 4276,
      "ĠAccording": 4277,
      "rote": 4278,
      "Ġvarious": 4279,
      "åı¶": 4280,
      "iddle": 4281,
      "itte": 4282,
      "Ġ{'": 4283,
      "ta": 4284,
      "ç½ĳç«Ļ": 4285,
      "æľ¬äºº": 4286,
      "itect": 4287,
      "è¿İ": 4288,
      "ĠBra": 4289,
      "Ġdefault": 4290,
      "88": 4291,
      "æľªæĿ¥": 4292,
      "Type": 4293,
      "ä¸ĭæĿ¥": 4294,
      "men": 4295,
      "ĠSer": 4296,
      "æĸĩçĮ®": 4297,
      "ique": 4298,
      "æķ£": 4299,
      "uce": 4300,
      "è°ĵ": 4301,
      "itar": 4302,
      "Ġresp": 4303,
      "éĺ´": 4304,
      "ä¹ĭä¸Ģ": 4305,
      "ç«¥": 4306,
      "ending": 4307,
      "lab": 4308,
      "å³°": 4309,
      "Ġcase": 4310,
      "Ġwent": 4311,
      "ĠHistor": 4312,
      "ogn": 4313,
      "è®©æĪĳ": 4314,
      "æ¶Īè´¹": 4315,
      "å°¤": 4316,
      "çĽĸ": 4317,
      "Ġmilitary": 4318,
      "\")": 4319,
      "å±Ĭ": 4320,
      "é¥®": 4321,
      "ĠProv": 4322,
      "Con": 4323,
      "åĮ»çĶŁ": 4324,
      "Ġbecome": 4325,
      "åĨ°": 4326,
      "äºĭæĥħ": 4327,
      "âĢ¦": 4328,
      "èĵĿ": 4329,
      "Ġident": 4330,
      "éª¨": 4331,
      "Ġbeh": 4332,
      "ĠRoad": 4333,
      "Ġfind": 4334,
      "æĶ¿çŃĸ": 4335,
      "éĵ¾": 4336,
      "180": 4337,
      "ological": 4338,
      "æĲľ": 4339,
      "çĩ": 4340,
      "ĠOp": 4341,
      "ĠGermany": 4342,
      "ida": 4343,
      "atri": 4344,
      "Ġtake": 4345,
      "Ġway": 4346,
      "ples": 4347,
      "åĪ·": 4348,
      "Ð°": 4349,
      "irl": 4350,
      "å¹³æĸ¹": 4351,
      "åĩºäºĨ": 4352,
      "eal": 4353,
      "atter": 4354,
      "è±Ĩ": 4355,
      "ilar": 4356,
      "Ġhaving": 4357,
      "Ġview": 4358,
      "zer": 4359,
      "æģ©": 4360,
      "brary": 4361,
      "ĠSing": 4362,
      "æ¥ļ": 4363,
      "çĶŁäº§": 4364,
      "ĠDev": 4365,
      "cer": 4366,
      "ĠThese": 4367,
      "ways": 4368,
      "ä»ĭç»į": 4369,
      "met": 4370,
      "åºĬ": 4371,
      "Ġli": 4372,
      "hers": 4373,
      "ervice": 4374,
      "bor": 4375,
      "ç¯ĩ": 4376,
      "ĠKh": 4377,
      "ĠMag": 4378,
      "ĠLicense": 4379,
      "umni": 4380,
      "user": 4381,
      "Ġbas": 4382,
      "ming": 4383,
      "183": 4384,
      "hib": 4385,
      "çĶ¨çļĦ": 4386,
      "çľĭäºĨ": 4387,
      "Ġclaim": 4388,
      "æ¯ĶèµĽ": 4389,
      "Ġevents": 4390,
      "ailable": 4391,
      "Ġequ": 4392,
      "åĵĪåĵĪ": 4393,
      "æľºä¼ļ": 4394,
      "Ġworked": 4395,
      "group": 4396,
      "go": 4397,
      "éĢĤåĲĪ": 4398,
      "ĠRobert": 4399,
      "è´Łè´£": 4400,
      "é¢ľ": 4401,
      "count": 4402,
      "Ġant": 4403,
      "ander": 4404,
      "ym": 4405,
      "ä¸įéĶĻ": 4406,
      "å®«": 4407,
      "æ¶²": 4408,
      "åķ¦": 4409,
      "ele": 4410,
      "èĢ³": 4411,
      "æĪĳä¸į": 4412,
      ":\"": 4413,
      "ĠOther": 4414,
      "ĠHen": 4415,
      "():Ċ": 4416,
      "çŃĳ": 4417,
      "çŃīçŃī": 4418,
      "year": 4419,
      "ĠPri": 4420,
      "ĠNor": 4421,
      "æķ¢": 4422,
      "äºĴèģĶç½ĳ": 4423,
      "used": 4424,
      "å¡ŀ": 4425,
      "Ġdev": 4426,
      "åĪº": 4427,
      "æ¼«": 4428,
      "Ġjoined": 4429,
      "ĠBlack": 4430,
      "æŁĵ": 4431,
      "Ġfew": 4432,
      "ĠTur": 4433,
      "æĢİä¹ĪåĬŀ": 4434,
      "ota": 4435,
      "è¿ĩåİ»": 4436,
      "unt": 4437,
      "ä¼´": 4438,
      "atus": 4439,
      "ä¸ļåĬ¡": 4440,
      "Th": 4441,
      "ĠMy": 4442,
      "æ´Ľ": 4443,
      "Ġrange": 4444,
      "Ġright": 4445,
      "ules": 4446,
      "å·¨": 4447,
      "ĠArch": 4448,
      "è¾Ĩ": 4449,
      "å¦Īå¦Ī": 4450,
      "ump": 4451,
      "èĲ¨": 4452,
      "çĵ¦": 4453,
      "ala": 4454,
      "æĹ¢": 4455,
      "å¼±": 4456,
      "aken": 4457,
      "Ġtimes": 4458,
      "ĠMary": 4459,
      "Ġsol": 4460,
      ".__": 4461,
      "ĠMart": 4462,
      "unk": 4463,
      "OS": 4464,
      "åºĨ": 4465,
      "ĠJapanese": 4466,
      "Ġintrod": 4467,
      "Ġtyp": 4468,
      "ani": 4469,
      "nder": 4470,
      "ittle": 4471,
      "ĠHall": 4472,
      "å¹ħ": 4473,
      "ait": 4474,
      "åıĺåĮĸ": 4475,
      "instance": 4476,
      "Cl": 4477,
      "img": 4478,
      "arliam": 4479,
      "çĶ·äºº": 4480,
      "çļĦæĥħåĨµ": 4481,
      "aper": 4482,
      "èĻļ": 4483,
      "ä¸»ä¹ī": 4484,
      "ĠChina": 4485,
      "Ġbeg": 4486,
      "ĠWomen": 4487,
      "çĬ¯": 4488,
      "è¯¢": 4489,
      "è¯´æĺİ": 4490,
      "no": 4491,
      "Ġpresident": 4492,
      "å¼ĥ": 4493,
      "Ġaccess": 4494,
      "ivate": 4495,
      "ĠMex": 4496,
      "78": 4497,
      "å°ģ": 4498,
      "flu": 4499,
      "æĶ¹åıĺ": 4500,
      "Ġexist": 4501,
      "è¶ħè¿ĩ": 4502,
      "Ġcontrol": 4503,
      "cy": 4504,
      "æĶ¶åħ¥": 4505,
      "ession": 4506,
      "æ³°": 4507,
      "46": 4508,
      "asket": 4509,
      "æłĳ": 4510,
      "eters": 4511,
      "åĲĪä½ľ": 4512,
      "ĠĠĠĠĠĠĠĠĠĠĠĠĠĠĠĠĠĠĠĠ": 4513,
      "Ġprofessional": 4514,
      "è¾¾åĪ°": 4515,
      "çĮ«": 4516,
      "ç»¼": 4517,
      "ĠSec": 4518,
      "ä¼ĳ": 4519,
      "Ġhig": 4520,
      "ĠItalian": 4521,
      "Ġindividual": 4522,
      "ä¸įäºĨ": 4523,
      "åĭĴ": 4524,
      "æĥ¯": 4525,
      "æĸ°çļĦ": 4526,
      "å¦Ĥä½ķè¯Ħä»·": 4527,
      "arliament": 4528,
      "ç¾İåħĥ": 4529,
      "ĠWash": 4530,
      "éģĹ": 4531,
      "åĩºçļĦ": 4532,
      "ĠCommun": 4533,
      "æĿ¨": 4534,
      "ä¿ĿæĬ¤": 4535,
      "éĥ¨éĹ¨": 4536,
      "ĠLaw": 4537,
      "iers": 4538,
      "gether": 4539,
      "irc": 4540,
      "Ġtogether": 4541,
      "ention": 4542,
      "uz": 4543,
      "ĠMet": 4544,
      "Ġdest": 4545,
      "Ġservices": 4546,
      "igned": 4547,
      "æĪĳåľ¨": 4548,
      "éĢĲ": 4549,
      "Ġwin": 4550,
      "mar": 4551,
      "æľŁéĹ´": 4552,
      "ç²¾ç¥ŀ": 4553,
      "wood": 4554,
      "ä¸Ģå¹´": 4555,
      "rian": 4556,
      "Ġbody": 4557,
      "band": 4558,
      "ĠLeg": 4559,
      "plit": 4560,
      "Ġopened": 4561,
      "æĵįä½ľ": 4562,
      "æ¨¡å¼ı": 4563,
      "çªģçĦ¶": 4564,
      "Ġ+=": 4565,
      "Ġwrote": 4566,
      "config": 4567,
      "å»¶": 4568,
      "é»ĺ": 4569,
      "rd": 4570,
      "Ġmodule": 4571,
      "è¯·éĹ®": 4572,
      "order": 4573,
      "aged": 4574,
      "æĸĩç«ł": 4575,
      "ĠVol": 4576,
      "num": 4577,
      "Ġreal": 4578,
      "å¤§å¤ļ": 4579,
      "Ġcapt": 4580,
      "Ġpopular": 4581,
      "æĢ§çļĦ": 4582,
      "Ġdiff": 4583,
      "Ġlanguage": 4584,
      "Ġresponse": 4585,
      "ĠFootball": 4586,
      "isl": 4587,
      "çĥĪ": 4588,
      "Ġcontext": 4589,
      "è®¡ç®Ĺ": 4590,
      "éļľ": 4591,
      "?Â": 4592,
      "Ġconc": 4593,
      "çº¸": 4594,
      "oice": 4595,
      "èĢĥè¯ķ": 4596,
      "ç½ª": 4597,
      "åªĴä½ĵ": 4598,
      "å¤§æ¦Ĥ": 4599,
      "Ġregion": 4600,
      "Ġattempt": 4601,
      "ç»ĻæĪĳ": 4602,
      "ä¼łç»Ł": 4603,
      "ĠSl": 4604,
      "çİī": 4605,
      "æİĪ": 4606,
      "è·³": 4607,
      "å¸Ń": 4608,
      "Ġinf": 4609,
      "ĠMiss": 4610,
      "çļĩ": 4611,
      "stitut": 4612,
      "åĢº": 4613,
      "è§Ĩé¢ĳ": 4614,
      "èĤ¯å®ļ": 4615,
      "ä¼ļæľī": 4616,
      "ka": 4617,
      "éĤ£ç§į": 4618,
      "å¾®åįļ": 4619,
      "éĽħ": 4620,
      "é¡¿": 4621,
      "è®¤è¯Ĩ": 4622,
      "Ġstudents": 4623,
      "æ¸Ĳ": 4624,
      "åĽº": 4625,
      "Ġflo": 4626,
      "æģĲ": 4627,
      "è¿ª": 4628,
      "åĨł": 4629,
      "è´·": 4630,
      "Ġcomb": 4631,
      "ellow": 4632,
      "ĠCath": 4633,
      "æ¡¥": 4634,
      "ç§ĳæĬĢ": 4635,
      "05": 4636,
      "Ġhous": 4637,
      "æĺİæĺ¾": 4638,
      "ges": 4639,
      "çļĦäºĭæĥħ": 4640,
      "åıĤèĢĥæĸĩçĮ®": 4641,
      "Ġins": 4642,
      "berg": 4643,
      "ĠCenter": 4644,
      "Ġstory": 4645,
      "Ġmer": 4646,
      "éĽĦ": 4647,
      "èµĦéĩĳ": 4648,
      "ç³»åĪĹ": 4649,
      "rec": 4650,
      "ĠCompany": 4651,
      "eh": 4652,
      "rem": 4653,
      "Ġchurch": 4654,
      "ĠWashington": 4655,
      "æĿŁ": 4656,
      "Ġteams": 4657,
      "itive": 4658,
      "æ±ĩ": 4659,
      "'),Ċ": 4660,
      "ĠOffic": 4661,
      "ĠDepartment": 4662,
      "åħ·æľī": 4663,
      "æĸ¹åĲĳ": 4664,
      "èģĶç³»": 4665,
      "è½¯ä»¶": 4666,
      "æĬĺ": 4667,
      "æĹ¶ä»£": 4668,
      "Ġsocial": 4669,
      "95": 4670,
      "å©Ĩ": 4671,
      "æĬ±": 4672,
      "Ġgroups": 4673,
      "ä¸¥éĩį": 4674,
      "ç³ĸ": 4675,
      "vey": 4676,
      "è§Ħå®ļ": 4677,
      "éĨĴ": 4678,
      "çĽ®æłĩ": 4679,
      "æľīåħ³": 4680,
      "è´Ŀ": 4681,
      "åĬŀæ³ķ": 4682,
      "ĠBest": 4683,
      "ç¬¦": 4684,
      "å¯¹æĸ¹": 4685,
      "äºĭä»¶": 4686,
      "ĠScott": 4687,
      "è¶ĬæĿ¥": 4688,
      "Ġrace": 4689,
      "Ġhowever": 4690,
      "æĺ¨": 4691,
      "å¿Ļ": 4692,
      "åŃķ": 4693,
      "ĠSam": 4694,
      "lands": 4695,
      "da": 4696,
      "Ġ>": 4697,
      "Ġlen": 4698,
      "å¦ĤæŃ¤": 4699,
      "éŀ": 4700,
      "ĠJack": 4701,
      "èīºæľ¯": 4702,
      "æ£®": 4703,
      "èµĦæºĲ": 4704,
      "æ¶¦": 4705,
      "aur": 4706,
      "Ġparty": 4707,
      "Ġpartic": 4708,
      "Ġgreat": 4709,
      "ç©ºéĹ´": 4710,
      "ĠHill": 4711,
      "ittee": 4712,
      "fil": 4713,
      "çĽ¸ä¿¡": 4714,
      "Ġcensus": 4715,
      "Ġdays": 4716,
      "Ġexample": 4717,
      "Ġparticip": 4718,
      "Ð¾": 4719,
      "mb": 4720,
      "ĠPlay": 4721,
      "Ġdirector": 4722,
      "è¶ĬæĿ¥è¶Ĭ": 4723,
      "Ġter": 4724,
      "å¥³äºº": 4725,
      "éĶĢåĶ®": 4726,
      "çĶµèĦĳ": 4727,
      "ĠGrand": 4728,
      "éģĩåĪ°": 4729,
      "æĹħæ¸¸": 4730,
      "size": 4731,
      "ç¬¬ä¸Ģæ¬¡": 4732,
      "http": 4733,
      "AA": 4734,
      "çĬ¶æĢģ": 4735,
      "ĠSociety": 4736,
      "most": 4737,
      "Ġpract": 4738,
      "è®¸å¤ļ": 4739,
      "é²ģ": 4740,
      "Ġroad": 4741,
      "default": 4742,
      "èĤ¥": 4743,
      "ftware": 4744,
      "Ġinvest": 4745,
      "burg": 4746,
      "42": 4747,
      "å®¶éĩĮ": 4748,
      "Ġeconom": 4749,
      "Ġinterest": 4750,
      "éĽ¶": 4751,
      "Ġsongs": 4752,
      "Ġfriend": 4753,
      "ĠSur": 4754,
      "ä¸įå°ĳ": 4755,
      "Ġindust": 4756,
      "action": 4757,
      "string": 4758,
      "åĳ¼": 4759,
      "å¢ŀéķ¿": 4760,
      "åį±": 4761,
      "ĠSim": 4762,
      "åŃ¦éĻ¢": 4763,
      "ä»¥ä¸º": 4764,
      "II": 4765,
      "ĠSk": 4766,
      "ells": 4767,
      "ename": 4768,
      "èģĮä¸ļ": 4769,
      "ising": 4770,
      "Ġmid": 4771,
      "ĠThomas": 4772,
      "äºİæĺ¯": 4773,
      "å¹ķ": 4774,
      "ä¾§": 4775,
      "uation": 4776,
      "uments": 4777,
      "annel": 4778,
      "rab": 4779,
      "å¾Īå¥½": 4780,
      "æĿ¥èĩª": 4781,
      "éĿ¢çļĦ": 4782,
      "èĭ±è¯Ń": 4783,
      "ĠCast": 4784,
      "Ġresid": 4785,
      "craft": 4786,
      "ĠKingdom": 4787,
      "æĺ¯åĽłä¸º": 4788,
      "åĹ": 4789,
      "ĠCourt": 4790,
      "è´¨éĩı": 4791,
      "ĠCentral": 4792,
      "Ġcontinued": 4793,
      "Ġadminist": 4794,
      "å°±åı¯ä»¥": 4795,
      "Ġbroad": 4796,
      "run": 4797,
      "æĪĲäºĨ": 4798,
      "æľĹ": 4799,
      "éĽª": 4800,
      "ç¡®å®ŀ": 4801,
      "ĠMont": 4802,
      "Ġprot": 4803,
      "è¡¥åħħ": 4804,
      "è¯Ĺ": 4805,
      "å»ºçŃĳ": 4806,
      "ç§Ł": 4807,
      "ential": 4808,
      "ä¸įåı¯": 4809,
      "Ġhalf": 4810,
      "æıı": 4811,
      "www": 4812,
      "åĪĨäº«": 4813,
      "fields": 4814,
      "RO": 4815,
      "arts": 4816,
      "æĽ¾ç»ı": 4817,
      "ç±»ä¼¼": 4818,
      "uture": 4819,
      "nown": 4820,
      "roy": 4821,
      "aughter": 4822,
      "400": 4823,
      "ĠWhite": 4824,
      "æĺ¯ä¸ª": 4825,
      ")-": 4826,
      "ĠIr": 4827,
      "Ġresearch": 4828,
      "inese": 4829,
      "sub": 4830,
      "ini": 4831,
      "ç»ĵå©ļ": 4832,
      "://": 4833,
      "æĺ¯ä¸Ģç§į": 4834,
      "èį£": 4835,
      "aign": 4836,
      "åľĨ": 4837,
      "arth": 4838,
      "Ġconsidered": 4839,
      "ression": 4840,
      "Ġelected": 4841,
      "ĠSal": 4842,
      "asketball": 4843,
      "æĮĤ": 4844,
      "ctor": 4845,
      "'):": 4846,
      "host": 4847,
      "å¤ļçļĦ": 4848,
      "Ġfounded": 4849,
      "ĠDon": 4850,
      "Ġsee": 4851,
      "æļĹ": 4852,
      "ĠMuseum": 4853,
      "ĠCam": 4854,
      "Ġpoints": 4855,
      "Ġcle": 4856,
      "ĠCharles": 4857,
      "ç±»çļĦ": 4858,
      "æĻļä¸Ĭ": 4859,
      "Ġet": 4860,
      "Ġ['": 4861,
      "äº§ä¸ļ": 4862,
      "ĠMac": 4863,
      "hi": 4864,
      "Ġfootballers": 4865,
      "æİ¢": 4866,
      "Ġrequired": 4867,
      "åľ¨ä¸Ģèµ·": 4868,
      "Ġeducation": 4869,
      "è¾ĸ": 4870,
      "itted": 4871,
      "vironment": 4872,
      "Ġavailable": 4873,
      "ĠRussian": 4874,
      "å¨ĺ": 4875,
      "åģ¶": 4876,
      "ĠFr": 4877,
      "98": 4878,
      "Ġcompleted": 4879,
      "çĥ§": 4880,
      "anies": 4881,
      "çĤİ": 4882,
      "Ġimp": 4883,
      "[\"": 4884,
      "Ġwebsite": 4885,
      "oper": 4886,
      "èĪŀ": 4887,
      "ĠDemocr": 4888,
      "å¥¹çļĦ": 4889,
      "CT": 4890,
      "èĶ": 4891,
      "Ġcaus": 4892,
      "ĠVirgin": 4893,
      "ĠJew": 4894,
      "Ġdiv": 4895,
      "Ġpaint": 4896,
      "èħ¿": 4897,
      "ä¸ĢæŃ¥": 4898,
      "Ġinformation": 4899,
      "èİ«": 4900,
      "oted": 4901,
      "å¿ĺ": 4902,
      "ension": 4903,
      "Ġrelations": 4904,
      "atural": 4905,
      "rip": 4906,
      "Ġlost": 4907,
      "æł¹æľ¬": 4908,
      "åİħ": 4909,
      "Ġbrother": 4910,
      "ĠTex": 4911,
      "Ġelif": 4912,
      "Ġ#": 4913,
      "Ar": 4914,
      "ä¸įæĸŃ": 4915,
      "å¾Īå¤ļäºº": 4916,
      "Ġeither": 4917,
      "Ġhold": 4918,
      "æľĢç»Ī": 4919,
      "aly": 4920,
      "æĬ¥åĳĬ": 4921,
      "çĽŁ": 4922,
      "alls": 4923,
      "Ġrev": 4924,
      ")|": 4925,
      "arian": 4926,
      "éĺħè¯»": 4927,
      "éĢĶ": 4928,
      "ç¨ĭåº¦": 4929,
      "ï¼ļĊ": 4930,
      "ĠTo": 4931,
      "dis": 4932,
      "Ġwife": 4933,
      "Ġsimilar": 4934,
      "ĠAwards": 4935,
      "æĪĲç»©": 4936,
      "ĠBi": 4937,
      "ements": 4938,
      "å¦Ĥæŀľä½ł": 4939,
      "hem": 4940,
      "eturn": 4941,
      "åķ¥": 4942,
      "Ġfurther": 4943,
      "ĠInter": 4944,
      "ĠCr": 4945,
      "ĠDef": 4946,
      "èĪį": 4947,
      "net": 4948,
      "ĠMer": 4949,
      "ean": 4950,
      "BA": 4951,
      "estival": 4952,
      "].": 4953,
      "77": 4954,
      "å®Ŀå®Ŀ": 4955,
      "ç®±": 4956,
      "ĠFlor": 4957,
      "ishing": 4958,
      "150": 4959,
      "Ġaction": 4960,
      "åĩłä¹İ": 4961,
      "new": 4962,
      "asc": 4963,
      "Ġfree": 4964,
      "çģ¯": 4965,
      "Ġ`": 4966,
      "Ġresults": 4967,
      "itch": 4968,
      "ä¿ĿæĮģ": 4969,
      "ĠAlex": 4970,
      "æĦıä¹ī": 4971,
      "ider": 4972,
      "çĶ·çĶŁ": 4973,
      "ĠLouis": 4974,
      "Ġarr": 4975,
      "ED": 4976,
      "version": 4977,
      "è¯Ħè®º": 4978,
      "å¦ĩ": 4979,
      "ĠMus": 4980,
      "Ġfil": 4981,
      "ĠGreat": 4982,
      "é©¾": 4983,
      "éľĢæ±Ĥ": 4984,
      "Ġproduc": 4985,
      "aries": 4986,
      "çĦ¶èĢĮ": 4987,
      "è®¿": 4988,
      "é¾Ħ": 4989,
      "ä¸įå¾Ĺ": 4990,
      "æĥ³è¦ģ": 4991,
      "æĿ¯": 4992,
      "ĠAcademy": 4993,
      "çļĦåľ°æĸ¹": 4994,
      "Ġmy": 4995,
      "oz": 4996,
      "ç§ĭ": 4997,
      "ude": 4998,
      "éĤ®": 4999,
      "ĠPress": 5000,
      "Ġke": 5001,
      "ĠLat": 5002,
      "Ġdi": 5003,
      "ĠTV": 5004,
      "ä¸įä»ħ": 5005,
      "ĠCong": 5006,
      "code": 5007,
      "å®¢æĪ·": 5008,
      "èĥ¡": 5009,
      "ĠCarol": 5010,
      "æķı": 5011,
      "åŃĲçļĦ": 5012,
      "ributed": 5013,
      "é£İéĻ©": 5014,
      "é«ĺä¸Ń": 5015,
      "ç§ĺ": 5016,
      "Ġareas": 5017,
      "ĠGreen": 5018,
      "æľīæķĪ": 5019,
      "æ¯ıæ¬¡": 5020,
      "èĢĮæĺ¯": 5021,
      "center": 5022,
      "ĠInstitute": 5023,
      "æĢ»æĺ¯": 5024,
      "Ġmar": 5025,
      "èĭ±åĽ½": 5026,
      "äº¡": 5027,
      "æĮĳ": 5028,
      "cis": 5029,
      "è¯Ńè¨Ģ": 5030,
      "ĠMad": 5031,
      "inary": 5032,
      "format": 5033,
      "ĠBay": 5034,
      "ï¼į": 5035,
      "181": 5036,
      "ĠBen": 5037,
      "è®©äºº": 5038,
      "åĿļæĮģ": 5039,
      "Ġparent": 5040,
      "Ġstring": 5041,
      "Ġoffice": 5042,
      "æ¶ī": 5043,
      "äºĨä¸Ģä¸ª": 5044,
      "''": 5045,
      "Ġhon": 5046,
      "Ġimportant": 5047,
      "ĠSummer": 5048,
      "Ġappointed": 5049,
      "board": 5050,
      "ictor": 5051,
      "èµĦäº§": 5052,
      "Ġrelease": 5053,
      "ĠWestern": 5054,
      "è¿ĩçļĦ": 5055,
      "Ġless": 5056,
      "Ġincome": 5057,
      "ĠMark": 5058,
      "ĠChristian": 5059,
      "asons": 5060,
      "ht": 5061,
      "Ġalbums": 5062,
      "çĥ¦": 5063,
      "Ġfemale": 5064,
      "FA": 5065,
      "here": 5066,
      "182": 5067,
      "Ġgood": 5068,
      "Ġrecorded": 5069,
      "Ġmem": 5070,
      "Un": 5071,
      "Ġnames": 5072,
      "ership": 5073,
      "è·Į": 5074,
      "imate": 5075,
      "ably": 5076,
      "Ġtarget": 5077,
      "atives": 5078,
      "Ġcoach": 5079,
      "ado": 5080,
      "ä¸ĩåħĥ": 5081,
      "print": 5082,
      "å°±ä¸į": 5083,
      "åı¥è¯Ŀ": 5084,
      "ĠĠĠĠĠĠĠĠĠĠ": 5085,
      "èĤĮ": 5086,
      "ags": 5087,
      "ĠEarly": 5088,
      "Ġuser": 5089,
      "æ§": 5090,
      "gl": 5091,
      "ĠGold": 5092,
      "å·§": 5093,
      "02": 5094,
      "å¹´è½»": 5095,
      "Ġalumni": 5096,
      "ä¸ĭçļĦ": 5097,
      "ĠRecords": 5098,
      "Ġten": 5099,
      "IP": 5100,
      "Ġdecl": 5101,
      "aps": 5102,
      "Ġdeveloped": 5103,
      "ç½ĳä¸Ĭ": 5104,
      "ĠMinister": 5105,
      "ĠAngel": 5106,
      "æīĢè°ĵ": 5107,
      "æľĢé«ĺ": 5108,
      "Ġder": 5109,
      "ĠGames": 5110,
      "models": 5111,
      "aker": 5112,
      "Ġoutput": 5113,
      "nection": 5114,
      "è®©ä½ł": 5115,
      "æī¾åĪ°": 5116,
      "åĪĽä¸ļ": 5117,
      "Ġlow": 5118,
      "çħ§çīĩ": 5119,
      "68": 5120,
      "ability": 5121,
      "ribution": 5122,
      "join": 5123,
      "nel": 5124,
      "å¥½åĥı": 5125,
      "ula": 5126,
      ");": 5127,
      "bb": 5128,
      "ertain": 5129,
      "æĦŁåıĹ": 5130,
      "Ã£": 5131,
      "%ï¼Į": 5132,
      "é¢ĨåŁŁ": 5133,
      "Ġreported": 5134,
      "Ġworking": 5135,
      "word": 5136,
      "ita": 5137,
      "Ġreview": 5138,
      "æĽ´æĸ°": 5139,
      "attr": 5140,
      "Ġinflu": 5141,
      "æĦŁè°¢": 5142,
      "Ġphys": 5143,
      "aterial": 5144,
      "Get": 5145,
      "Ġleague": 5146,
      "ĠRepublic": 5147,
      "oul": 5148,
      "58": 5149,
      "Ġnovel": 5150,
      "ada": 5151,
      "èģļ": 5152,
      "é¢Ĩå¯¼": 5153,
      "ĠPenn": 5154,
      "era": 5155,
      "å¦Ĥä½ķçľĭå¾ħ": 5156,
      "Ġformed": 5157,
      "æĢİæł·çļĦ": 5158,
      "äº¤éĢļ": 5159,
      "ä¿Ħ": 5160,
      "Ġaddition": 5161,
      "ç»ıè¿ĩ": 5162,
      "Ġplaces": 5163,
      "41": 5164,
      "ĠChinese": 5165,
      "Ġweek": 5166,
      "Ġdeg": 5167,
      "æĳ©": 5168,
      "åĶ¯": 5169,
      "ournament": 5170,
      "ĠPat": 5171,
      "ĠMichael": 5172,
      "é¡µ": 5173,
      "ç¦ģ": 5174,
      "DE": 5175,
      "äº¦": 5176,
      "istic": 5177,
      "Ġstudy": 5178,
      "Ġfamilies": 5179,
      "å¯»": 5180,
      "Ġmeet": 5181,
      "æİĮ": 5182,
      "åıĤèĢĥèµĦæĸĻ": 5183,
      "Ġsuper": 5184,
      "Ġsuff": 5185,
      "åĪĢ": 5186,
      "ua": 5187,
      "wargs": 5188,
      "Re": 5189,
      "Ġbirth": 5190,
      "Ġhuman": 5191,
      "çļĦä¸ľè¥¿": 5192,
      "gress": 5193,
      "yd": 5194,
      "Ġord": 5195,
      "ĠTra": 5196,
      "Ġappeared": 5197,
      "ĠTexas": 5198,
      "ceed": 5199,
      "æĭ¥æľī": 5200,
      "ĠTest": 5201,
      "idth": 5202,
      "ependent": 5203,
      "ched": 5204,
      "tem": 5205,
      "æĿ¥äºĨ": 5206,
      "è¿Ŀ": 5207,
      "Ġmot": 5208,
      "Ġsigned": 5209,
      "Ġproduct": 5210,
      "è®¢": 5211,
      "å°¾": 5212,
      "æĥ³åĪ°": 5213,
      "Ġcast": 5214,
      "å°¤åħ¶": 5215,
      "æĮīçħ§": 5216,
      "arter": 5217,
      "Ġschools": 5218,
      "ĠAfrica": 5219,
      "æĪª": 5220,
      "ä¹łæĥ¯": 5221,
      "ederal": 5222,
      "Ġgrow": 5223,
      "Ġhow": 5224,
      "ä¼Ļ": 5225,
      "æŀª": 5226,
      "Ġdirected": 5227,
      "08": 5228,
      "çĪ·": 5229,
      "æķ´ä¸ª": 5230,
      "Ġfire": 5231,
      "éļĲ": 5232,
      "å¿į": 5233,
      "mark": 5234,
      ")\"": 5235,
      "ĠGo": 5236,
      "å®½": 5237,
      "æ³ķå¾ĭ": 5238,
      "è¾Ī": 5239,
      "æĪĳè¯´": 5240,
      "ables": 5241,
      "ĠUK": 5242,
      "ĠSpanish": 5243,
      "æ±¤": 5244,
      "ĠTom": 5245,
      "çĥŁ": 5246,
      "ĠZeal": 5247,
      "ender": 5248,
      "ĠVill": 5249,
      "Ġemploy": 5250,
      "Ġsepar": 5251,
      "çĳŀ": 5252,
      "ï¼İ": 5253,
      "andid": 5254,
      "ĠMod": 5255,
      "æ¯«": 5256,
      "èĩªçĶ±": 5257,
      "Ġgradu": 5258,
      "len": 5259,
      "write": 5260,
      "Ġphot": 5261,
      "ç¨ĭåºı": 5262,
      "ona": 5263,
      "Ġsource": 5264,
      "ken": 5265,
      "CO": 5266,
      "ĠCatholic": 5267,
      "éĽĨåĽ¢": 5268,
      "çĽĽ": 5269,
      "Ġmaking": 5270,
      "ĠDel": 5271,
      "Ġassoci": 5272,
      "Ġothers": 5273,
      "æĹłè®º": 5274,
      "çĶ³è¯·": 5275,
      "Ġunits": 5276,
      "ĠKore": 5277,
      "ĠTer": 5278,
      "och": 5279,
      "å¤§éĥ¨åĪĨ": 5280,
      "æ¸ħæ¥ļ": 5281,
      "åİ»äºĨ": 5282,
      "æī©": 5283,
      "ĠZealand": 5284,
      "Ġ{Ċ": 5285,
      "acing": 5286,
      "åıĤä¸İ": 5287,
      "Ġcollection": 5288,
      "ï½": 5289,
      "Ġconfig": 5290,
      "anted": 5291,
      "\\Ċ": 5292,
      "å°Ĭ": 5293,
      "å±ı": 5294,
      "åİĭåĬĽ": 5295,
      "atory": 5296,
      "airs": 5297,
      "ylv": 5298,
      "67": 5299,
      "åĵªéĩĮ": 5300,
      "thlet": 5301,
      "å½¢æĪĲ": 5302,
      "']Ċ": 5303,
      "ensive": 5304,
      "åĿĢ": 5305,
      "ç»ĵæŀĦ": 5306,
      "éľĩ": 5307,
      "ospital": 5308,
      "èµļ": 5309,
      "ĠWhile": 5310,
      "Ġpolitician": 5311,
      "overnor": 5312,
      "heast": 5313,
      "rey": 5314,
      "è²": 5315,
      "åĨ¬": 5316,
      "èĪĴ": 5317,
      "æ²ī": 5318,
      "ols": 5319,
      "å¦»": 5320,
      "imately": 5321,
      "ĠDan": 5322,
      "imal": 5323,
      "æ·¡": 5324,
      "ĠCons": 5325,
      "æıĲåįĩ": 5326,
      "Ġmother": 5327,
      "æ³¡": 5328,
      "Ġmodern": 5329,
      "Ġfund": 5330,
      "Ġtour": 5331,
      "'}": 5332,
      "iple": 5333,
      "åĢ¼å¾Ĺ": 5334,
      "lim": 5335,
      "Ġnp": 5336,
      "ĠCro": 5337,
      "Ġbi": 5338,
      "Ġcreate": 5339,
      "åĬłåħ¥": 5340,
      "ä¸ģ": 5341,
      "å§Ĩ": 5342,
      "æı¡": 5343,
      "43": 5344,
      "æ¢ħ": 5345,
      "oney": 5346,
      "ä¹Łä¼ļ": 5347,
      "Ġrecogn": 5348,
      "æŃ£åľ¨": 5349,
      "æĥł": 5350,
      "Ġarchitect": 5351,
      "ĠFore": 5352,
      "è¯¦": 5353,
      "æľīä¸ª": 5354,
      "æĺ¯æĪĳ": 5355,
      "ili": 5356,
      "embly": 5357,
      "CC": 5358,
      "ĠSome": 5359,
      "PS": 5360,
      "azine": 5361,
      "olf": 5362,
      "åĪ©çĶ¨": 5363,
      "åħ¨çĲĥ": 5364,
      "ä¸Ńå¤®": 5365,
      "è´¦": 5366,
      "ĠSpec": 5367,
      "æĪĲæľ¬": 5368,
      "Ġnever": 5369,
      "æĬĵ": 5370,
      "ä¹Łåı¯ä»¥": 5371,
      "ĠJose": 5372,
      "æľīéĻĲåħ¬åı¸": 5373,
      "Ġlive": 5374,
      "åĵŃ": 5375,
      "æĦ¿æĦı": 5376,
      "Ġground": 5377,
      "ilities": 5378,
      "ĠFrank": 5379,
      "call": 5380,
      "ĠArg": 5381,
      "èª": 5382,
      "åĿ¦": 5383,
      "uns": 5384,
      "ä¸Ģå®ļè¦ģ": 5385,
      "Ġmunicip": 5386,
      "éĩįçĤ¹": 5387,
      "åħ¨éĥ¨": 5388,
      "Ġacross": 5389,
      "éĺµ": 5390,
      "è¯ģåĪ¸": 5391,
      "ands": 5392,
      "ĠSwed": 5393,
      "æ¤į": 5394,
      "åĪĨåĪ«": 5395,
      "Ġblack": 5396,
      "ĠFound": 5397,
      "æĿ¥çľĭ": 5398,
      "æ½®": 5399,
      "ĠWil": 5400,
      "earch": 5401,
      "ĠConf": 5402,
      "ĠOlympics": 5403,
      "59": 5404,
      "core": 5405,
      "åĶĲ": 5406,
      "US": 5407,
      "obal": 5408,
      "ny": 5409,
      "è¯ĳ": 5410,
      "gen": 5411,
      "Ġmedian": 5412,
      "ria": 5413,
      "ĠBur": 5414,
      "æ£ĢæŁ¥": 5415,
      "Ġbuildings": 5416,
      "ä¼¯": 5417,
      "çĶµåŃĲ": 5418,
      "ĠSo": 5419,
      "ION": 5420,
      "Ġdocument": 5421,
      "Ġprovided": 5422,
      "ĠSuper": 5423,
      "ä»»åĬ¡": 5424,
      "Ġassist": 5425,
      "ĠLake": 5426,
      "æĮ¥": 5427,
      "ä¹ĺ": 5428,
      "å¤ļäºĨ": 5429,
      "ranch": 5430,
      "éªĹ": 5431,
      "ĠBill": 5432,
      "ixed": 5433,
      "anding": 5434,
      "äººä»¬": 5435,
      "åĲİçļĦ": 5436,
      "reland": 5437,
      "ĠHenry": 5438,
      "åħ´è¶£": 5439,
      "å¼ķèµ·": 5440,
      "ĠTor": 5441,
      "ĠEducation": 5442,
      "åŃĻ": 5443,
      "Ġsrc": 5444,
      "ĠPeter": 5445,
      "Ġhimself": 5446,
      "è®¨è®º": 5447,
      "å¥½äºĨ": 5448,
      "æľ¬èº«": 5449,
      "è´£ä»»": 5450,
      "eff": 5451,
      "çĭ¬ç«ĭ": 5452,
      "Ġguitar": 5453,
      "çĿ£": 5454,
      "Ġrock": 5455,
      "Ġvict": 5456,
      "åĪ¶ä½ľ": 5457,
      "æĦŁæĥħ": 5458,
      "éļĶ": 5459,
      "max": 5460,
      "ĠBut": 5461,
      "Ġcontract": 5462,
      "Ġhouseholds": 5463,
      "ĠRichard": 5464,
      "æŃ£å¼ı": 5465,
      "IL": 5466,
      "09": 5467,
      "Ġsuccessful": 5468,
      "atal": 5469,
      "Ġbecom": 5470,
      "Ġeight": 5471,
      "éĥ½åľ¨": 5472,
      "åºĶçĶ¨": 5473,
      "umm": 5474,
      "Ġcou": 5475,
      "âĹ": 5476,
      "æĿ¥æºĲ": 5477,
      "Ġlight": 5478,
      "edy": 5479,
      "ä¹Į": 5480,
      "Ġclose": 5481,
      "oding": 5482,
      "ä¿ĥ": 5483,
      "éĴ¢": 5484,
      "åĨĮ": 5485,
      "ager": 5486,
      "Ġliter": 5487,
      "ĠFrancis": 5488,
      "oviet": 5489,
      "çĸ¾": 5490,
      "ĠMass": 5491,
      "ï¼ļ<": 5492,
      "shire": 5493,
      "ero": 5494,
      "udd": 5495,
      "åĵ¦": 5496,
      "å»ºç«ĭ": 5497,
      "åħĪçĶŁ": 5498,
      "çļ®èĤ¤": 5499,
      "éĢŁåº¦": 5500,
      "åį·": 5501,
      "ĠLab": 5502,
      "Id": 5503,
      "ç¡®å®ļ": 5504,
      "Ġcode": 5505,
      "Ġ[]Ċ": 5506,
      "Ġtro": 5507,
      "åħ³éĶ®": 5508,
      "atre": 5509,
      "07": 5510,
      "pite": 5511,
      "æ¡£": 5512,
      "Ġstations": 5513,
      "utes": 5514,
      "Al": 5515,
      "icy": 5516,
      "serv": 5517,
      "Ġfeatures": 5518,
      "ires": 5519,
      "ustom": 5520,
      "AB": 5521,
      "Ġrights": 5522,
      "Ġqual": 5523,
      "çİ°ä»£": 5524,
      "ĠSports": 5525,
      "Ġfront": 5526,
      "ç»¼åĲĪ": 5527,
      "rael": 5528,
      "æ¶Īæģ¯": 5529,
      "ĠVirginia": 5530,
      "Ġvers": 5531,
      "èĪ¹": 5532,
      "ĠEr": 5533,
      "'),": 5534,
      "Ġide": 5535,
      "ĠPan": 5536,
      "èĮĥåĽ´": 5537,
      "TV": 5538,
      "æľīä¸Ģä¸ª": 5539,
      "é½Ĳ": 5540,
      "ĠSecond": 5541,
      "request": 5542,
      "Ġdaughter": 5543,
      "(),": 5544,
      "icles": 5545,
      "ockey": 5546,
      "69": 5547,
      "æĸĩä»¶": 5548,
      "ano": 5549,
      "ends": 5550,
      "åĳµ": 5551,
      "md": 5552,
      "bour": 5553,
      "ura": 5554,
      "ails": 5555,
      "part": 5556,
      "AD": 5557,
      "ä¸įçĶ¨": 5558,
      "arning": 5559,
      "ĠDo": 5560,
      "éĺ¶æ®µ": 5561,
      "Ġcross": 5562,
      "igr": 5563,
      "Ġparam": 5564,
      "Ġolder": 5565,
      "?Ċ": 5566,
      "ging": 5567,
      "éļıçĿĢ": 5568,
      "Ġmax": 5569,
      "ouble": 5570,
      "éķ¿æľŁ": 5571,
      "æ¯ķç«Ł": 5572,
      "57": 5573,
      "Ġsit": 5574,
      "æĮģç»Ń": 5575,
      "Ġstage": 5576,
      "OT": 5577,
      "ĠParis": 5578,
      "ĠSmith": 5579,
      "æĽ´åĬł": 5580,
      "Ġrank": 5581,
      "æ´¥": 5582,
      "å¿Ĩ": 5583,
      "Ġbelie": 5584,
      "æĪĳä»¬çļĦ": 5585,
      "Ġcompanies": 5586,
      "è¯ļ": 5587,
      "Ġcheck": 5588,
      "ĠVictor": 5589,
      "ç¼©": 5590,
      "|âĢĶ|": 5591,
      "ä½įç½®": 5592,
      "ali": 5593,
      "è§£éĩĬ": 5594,
      "å¾Īéļ¾": 5595,
      "600": 5596,
      "äºĪ": 5597,
      "cher": 5598,
      "atform": 5599,
      "':Ċ": 5600,
      "è´Ńä¹°": 5601,
      "plied": 5602,
      "ĠSong": 5603,
      "Ġradio": 5604,
      "å®ŀåľ¨": 5605,
      "å¤§éĩı": 5606,
      "è°·": 5607,
      "oma": 5608,
      "Ġstrong": 5609,
      "Ġtransl": 5610,
      "sec": 5611,
      "Ġcampaign": 5612,
      "List": 5613,
      "Ġexecut": 5614,
      "Ġbreak": 5615,
      "Amer": 5616,
      "Ġcost": 5617,
      "Ġonce": 5618,
      "andom": 5619,
      "ĠCamp": 5620,
      "Ġchange": 5621,
      "ä¸Ģå¤©": 5622,
      "éĩĩçĶ¨": 5623,
      "ĠSant": 5624,
      "Ġalthough": 5625,
      "Ġsports": 5626,
      "Ġput": 5627,
      "03": 5628,
      "ĠGovernment": 5629,
      "Ġut": 5630,
      "æĽ¼": 5631,
      "èº«è¾¹": 5632,
      "Ġproble": 5633,
      "å¹¿åĳĬ": 5634,
      "Ġ->": 5635,
      "Com": 5636,
      "ĠDirect": 5637,
      "ĠMel": 5638,
      "ä»ĸä»¬çļĦ": 5639,
      "road": 5640,
      "Ġboard": 5641,
      "aval": 5642,
      "Ġconstruction": 5643,
      "Ġplaying": 5644,
      "Ġepisode": 5645,
      "ä¸ĭéĿ¢": 5646,
      "èĩªåĬ¨": 5647,
      "ĠDay": 5648,
      "igan": 5649,
      "Ġaccept": 5650,
      "down": 5651,
      "åķĨä¸ļ": 5652,
      "hood": 5653,
      "Ġadded": 5654,
      "Ġwind": 5655,
      "æ¬²": 5656,
      "çİ°åľº": 5657,
      "CH": 5658,
      "Ġabove": 5659,
      "ä¿ĿéĻ©": 5660,
      "çĸ¼": 5661,
      "Ġtaken": 5662,
      "aves": 5663,
      "èĬĤçĽ®": 5664,
      "äººçĶŁ": 5665,
      "è±ª": 5666,
      "éĶħ": 5667,
      "Ġviol": 5668,
      "iding": 5669,
      "æĺ¯ä¸į": 5670,
      "Ġmaterial": 5671,
      "æĹĹ": 5672,
      "Ġplan": 5673,
      "Ġperformed": 5674,
      "æĬ½": 5675,
      "æĿ°": 5676,
      "Ġincludes": 5677,
      "å§Ķåĳĺ": 5678,
      "Ġcy": 5679,
      "è°ĥæķ´": 5680,
      "index": 5681,
      "å±ĭ": 5682,
      "ificant": 5683,
      "ĠForce": 5684,
      "ĠSaint": 5685,
      "æĿĲæĸĻ": 5686,
      ".\"\"\"Ċ": 5687,
      "ought": 5688,
      "ena": 5689,
      "istics": 5690,
      "Ġmedal": 5691,
      "åĵªä¸ª": 5692,
      "ç»ª": 5693,
      "eck": 5694,
      "point": 5695,
      "context": 5696,
      "èĦĤ": 5697,
      "äº¿åħĥ": 5698,
      "ĠMill": 5699,
      "Ġjournal": 5700,
      "Ġflow": 5701,
      "æĬ¥éģĵ": 5702,
      "éģŃ": 5703,
      "ĠEv": 5704,
      "çİ°å®ŀ": 5705,
      "äº¤æµģ": 5706,
      "Add": 5707,
      "Ġmonths": 5708,
      "åĲ´": 5709,
      "ores": 5710,
      "Ġfight": 5711,
      "FL": 5712,
      "å¹³æĹ¶": 5713,
      "ios": 5714,
      "chie": 5715,
      "Äģ": 5716,
      "Ġrelig": 5717,
      "æ¯ıä¸ª": 5718,
      "éĹŃ": 5719,
      "éŁ©åĽ½": 5720,
      "elling": 5721,
      "ç¥ĸ": 5722,
      "Ġacqu": 5723,
      "å¾·åĽ½": 5724,
      "å®¶çļĦ": 5725,
      "éĿ¢å¯¹": 5726,
      "Ġaccount": 5727,
      "ç±į": 5728,
      "æļĸ": 5729,
      "err": 5730,
      "Ġwinn": 5731,
      "Ġfollowed": 5732,
      "ĠHon": 5733,
      "±ä¹Ĳ": 5734,
      "IM": 5735,
      "æ»ĳ": 5736,
      "çĽ¸å¯¹": 5737,
      "idence": 5738,
      "create": 5739,
      "åĢį": 5740,
      "Ġconduct": 5741,
      "ĠRock": 5742,
      "ĠChic": 5743,
      "èĢħçļĦ": 5744,
      "é©¶": 5745,
      "ĠMin": 5746,
      "ola": 5747,
      "éŀĭ": 5748,
      "è¿ĺè¦ģ": 5749,
      "åıįåºĶ": 5750,
      "Ġaway": 5751,
      "member": 5752,
      "known": 5753,
      "Ġperformance": 5754,
      "åĪĽæĸ°": 5755,
      "åİļ": 5756,
      "Ð¸": 5757,
      "Ġgave": 5758,
      "ĠIreland": 5759,
      "æľīå¤ļ": 5760,
      "Ġfoc": 5761,
      "ros": 5762,
      "ĠLife": 5763,
      "utch": 5764,
      "istan": 5765,
      "èĪ°": 5766,
      "pre": 5767,
      "Ġkilled": 5768,
      "ĠOrder": 5769,
      "ĠNotes": 5770,
      "ĠMen": 5771,
      "yr": 5772,
      "çĭĤ": 5773,
      "hand": 5774,
      "ä¼ļè®®": 5775,
      "åĲįåŃĹ": 5776,
      ".)": 5777,
      "Ġcopy": 5778,
      "å¥³åŃ©": 5779,
      "AG": 5780,
      "åĲĽ": 5781,
      "åĺĽ": 5782,
      "ella": 5783,
      "Ġlargest": 5784,
      "èµ¶": 5785,
      "Ġdram": 5786,
      "Ġimpro": 5787,
      "Åį": 5788,
      "å¿ĥéĩĮ": 5789,
      "ĠĠĠĠĠĠĠĠĠĠĠĠĠ": 5790,
      "Ġdefe": 5791,
      "æĹ¶æľŁ": 5792,
      "Ġforces": 5793,
      "ĠLos": 5794,
      "ca": 5795,
      "Ġmus": 5796,
      "06": 5797,
      "ä¸Ńåįİ": 5798,
      "Ġconnect": 5799,
      "Ġtre": 5800,
      "Ġdesigned": 5801,
      "èĩ³å°ĳ": 5802,
      "Ġbooks": 5803,
      "179": 5804,
      "ç¨³å®ļ": 5805,
      "Ðµ": 5806,
      "ĠIll": 5807,
      "åĳĢ": 5808,
      "ĠOper": 5809,
      "æķ°éĩı": 5810,
      "za": 5811,
      "èħ¾": 5812,
      "Ġexpected": 5813,
      "Name": 5814,
      "Ġcandid": 5815,
      "plate": 5816,
      "ults": 5817,
      "Ġge": 5818,
      "èĥİ": 5819,
      "åĺī": 5820,
      "ĠRob": 5821,
      "è½¨": 5822,
      "ĠOut": 5823,
      "51": 5824,
      "Ġpress": 5825,
      "idae": 5826,
      "Ġlo": 5827,
      "ä¹³": 5828,
      "ĠProvince": 5829,
      "obj": 5830,
      "Ġshows": 5831,
      "ĠJust": 5832,
      "ç»ĵæĿŁ": 5833,
      "å½ĵåľ°": 5834,
      "ĠSqu": 5835,
      "ç¼ĺ": 5836,
      "ä¹Łæ²¡": 5837,
      "spec": 5838,
      "ylvania": 5839,
      "win": 5840,
      "ĠMa": 5841,
      "ç»ıèĲ¥": 5842,
      "ishop": 5843,
      "Ġhealth": 5844,
      "æĺł": 5845,
      "Ġestablishments": 5846,
      "zil": 5847,
      "ĠClass": 5848,
      "é¬": 5849,
      "Ġtraining": 5850,
      "çİ°è±¡": 5851,
      "lements": 5852,
      "ĠIsrael": 5853,
      "æľĢå¤§": 5854,
      "ĠRailway": 5855,
      "ened": 5856,
      "ĠSoviet": 5857,
      "Ġnetwork": 5858,
      "Ġoriginally": 5859,
      "ready": 5860,
      "Ġsil": 5861,
      "Ġinstead": 5862,
      "è¡ĮçļĦ": 5863,
      "åıĹåĪ°": 5864,
      "æļĤ": 5865,
      "ply": 5866,
      "Ġfinished": 5867,
      "ä¹Łå°±æĺ¯": 5868,
      "120": 5869,
      "'\\": 5870,
      "èĿ": 5871,
      "ä¸įæĥ³": 5872,
      "åºĦ": 5873,
      "æ³½": 5874,
      "Ġwriter": 5875,
      "Ġleast": 5876,
      "position": 5877,
      "ython": 5878,
      "Ġmedia": 5879,
      "åħįè´¹": 5880,
      "éªĤ": 5881,
      "æĥ³æ³ķ": 5882,
      "è§Ĵåº¦": 5883,
      "ĠChampionships": 5884,
      "Ġdat": 5885,
      "elop": 5886,
      "åħ¬ä¼Ĺ": 5887,
      "merc": 5888,
      "å¦Ĩ": 5889,
      "ä»ª": 5890,
      "Ġseen": 5891,
      "Ġmount": 5892,
      "Ġleading": 5893,
      "start": 5894,
      "pring": 5895,
      "å¹³æĸ¹åħ¬éĩĮ": 5896,
      "Ġapplic": 5897,
      "éªĳ": 5898,
      "æ´ģ": 5899,
      "è¡£æľį": 5900,
      "ĠAtl": 5901,
      "çĤ¹åĩ»": 5902,
      "UR": 5903,
      "Ġinj": 5904,
      "Ġaircraft": 5905,
      "Ġmarket": 5906,
      "Ġsignificant": 5907,
      "orpor": 5908,
      "ĠFinal": 5909,
      "æ®ĭ": 5910,
      "ä¸¹": 5911,
      "ĠĠĠĠĠĠĠĠĠĠĠĠĠĠĠĠĠĠ": 5912,
      "å®¿": 5913,
      "ç¼ĵ": 5914,
      "return": 5915,
      "Ġ**": 5916,
      "ĠEmp": 5917,
      "Ġpur": 5918,
      "èĤ¡ç¥¨": 5919,
      "Ġcivil": 5920,
      "medi": 5921,
      "åĽ¾çīĩ": 5922,
      "arser": 5923,
      "Ġprivate": 5924,
      "æ½ľ": 5925,
      "çļĦæĹ¶éĹ´": 5926,
      "Ġmissing": 5927,
      "çĤ¸": 5928,
      "ayer": 5929,
      "ĠSince": 5930,
      "çļĦä¸į": 5931,
      "ye": 5932,
      "uggest": 5933,
      "ients": 5934,
      "ĠTechn": 5935,
      "())Ċ": 5936,
      "Ġremained": 5937,
      "ĠSub": 5938,
      "æ·ĺ": 5939,
      "æ¡Į": 5940,
      "ĠGeorg": 5941,
      "ĠCur": 5942,
      "èĥ¸": 5943,
      "frac": 5944,
      "iÄ": 5945,
      "'.": 5946,
      "éº¦": 5947,
      "ĠCommission": 5948,
      "oken": 5949,
      "åĩºåİ»": 5950,
      "ĠStr": 5951,
      "aching": 5952,
      "check": 5953,
      "åĲĲ": 5954,
      "Ġill": 5955,
      "åį³ä½¿": 5956,
      "Ġconsist": 5957,
      "Ġstatus": 5958,
      "å§ĳ": 5959,
      "ç»Ŀå¯¹": 5960,
      "æĦıè¯Ĩ": 5961,
      "å¹¶æ²¡æľī": 5962,
      "çļĦå¥½": 5963,
      "olk": 5964,
      "IG": 5965,
      "Ġstates": 5966,
      "åĬ±": 5967,
      "Ġreplaced": 5968,
      "åįģåĪĨ": 5969,
      "Ġrespons": 5970,
      "Ġsys": 5971,
      "ä¸ĬäºĨ": 5972,
      "().": 5973,
      "ĠTour": 5974,
      "å°±èĥ½": 5975,
      "do": 5976,
      "åĽłç´ł": 5977,
      "Ġvot": 5978,
      "Ġbar": 5979,
      "æĺİçĻ½": 5980,
      "ĠScot": 5981,
      "Ġgoal": 5982,
      "56": 5983,
      "æĽ¿": 5984,
      "asing": 5985,
      "æĭĴ": 5986,
      "Ġbo": 5987,
      "ĠAN": 5988,
      "Ġentire": 5989,
      "ocals": 5990,
      "!=": 5991,
      "å¿ĥçļĦ": 5992,
      "ensity": 5993,
      "upt": 5994,
      "å¤ĸéĥ¨": 5995,
      "æĤī": 5996,
      "Ġseven": 5997,
      "å¹¼": 5998,
      "ä¿Ŀè¯ģ": 5999,
      "ĠParliament": 6000,
      "Ġbelow": 6001,
      "Value": 6002,
      "etime": 6003,
      "ĠÂ": 6004,
      "æĦıè§ģ": 6005,
      "Mod": 6006,
      "èĩ³äºİ": 6007,
      "ĠProfess": 6008,
      "è¡¡": 6009,
      "è¯ģæĺİ": 6010,
      "ĠCarolina": 6011,
      "ĠTwo": 6012,
      "Ġvalues": 6013,
      "Ġearl": 6014,
      "æ¾³": 6015,
      "bit": 6016,
      "ãĢĭï¼Į": 6017,
      "Ġdom": 6018,
      "ĠHistoric": 6019,
      "åİ»å¹´": 6020,
      "porary": 6021,
      "æĭľ": 6022,
      "FF": 6023,
      "çĲĨè®º": 6024,
      "åŁĥ": 6025,
      "ĠOlympic": 6026,
      "ĠNavy": 6027,
      "range": 6028,
      "Ġsound": 6029,
      "orial": 6030,
      "Ġsection": 6031,
      "ki": 6032,
      "****": 6033,
      "Ġcourt": 6034,
      "icro": 6035,
      "ĠDu": 6036,
      "Ġartists": 6037,
      "ormal": 6038,
      "è®¾å¤ĩ": 6039,
      "Ġcurrently": 6040,
      "ĠKn": 6041,
      "èĳ£": 6042,
      "aches": 6043,
      "ĠArts": 6044,
      "Ġdam": 6045,
      "sylvania": 6046,
      "Ã³n": 6047,
      "elt": 6048,
      "enced": 6049,
      "âĨ": 6050,
      "æĪĲç«ĭ": 6051,
      "æŃ£ç¡®": 6052,
      "ä»¥æĿ¥": 6053,
      "Ph": 6054,
      "level": 6055,
      "Ġprote": 6056,
      "æĬ¢": 6057,
      "ĠChicago": 6058,
      "American": 6059,
      "Ġspace": 6060,
      "Ġawarded": 6061,
      "Ġable": 6062,
      "ĠLem": 6063,
      "èĻİ": 6064,
      "æİ¥è§¦": 6065,
      "ï¼īãĢģ": 6066,
      "æ®µæĹ¶éĹ´": 6067,
      "Ġpolice": 6068,
      "Ġindic": 6069,
      "è¹": 6070,
      "Ġsubject": 6071,
      "Ġpred": 6072,
      "è§ĤçĤ¹": 6073,
      "ä¸īä¸ª": 6074,
      "ĠGall": 6075,
      "åĤ¨": 6076,
      "Ġlisted": 6077,
      "ounter": 6078,
      "Cont": 6079,
      "Ġfeatured": 6080,
      "erous": 6081,
      "ether": 6082,
      "ĠBrown": 6083,
      "çİ°åľ¨çļĦ": 6084,
      "ties": 6085,
      "Ġid": 6086,
      "ected": 6087,
      "æ´ŀ": 6088,
      "äººçī©": 6089,
      "ĠOl": 6090,
      "ĠMur": 6091,
      "like": 6092,
      "Ġsen": 6093,
      "ufact": 6094,
      "Ġes": 6095,
      "Ġmodels": 6096,
      "ping": 6097,
      "ä¼ĺç§Ģ": 6098,
      "ä¼ĺåĬ¿": 6099,
      "æķ°åŃ¦": 6100,
      "SS": 6101,
      "ç»Ļä½ł": 6102,
      "é£Łçī©": 6103,
      "Ġcenter": 6104,
      "åĺ´": 6105,
      "æĻºèĥ½": 6106,
      "Ġvia": 6107,
      "å¹¶ä¸įæĺ¯": 6108,
      "plement": 6109,
      "Ġtransfer": 6110,
      "âĢĿâĢľ": 6111,
      "é¼ĵ": 6112,
      "Ġsuggest": 6113,
      "æĪ´": 6114,
      "åĩłå¹´": 6115,
      "æ¼Ĥ": 6116,
      "Ġchanged": 6117,
      "Ġthroughout": 6118,
      "æľīäºĨ": 6119,
      "Ġcharacters": 6120,
      "ä¸įåĲĮçļĦ": 6121,
      "å¿ħè¦ģ": 6122,
      "97": 6123,
      "è°ĥæŁ¥": 6124,
      "å®ĺæĸ¹": 6125,
      "aught": 6126,
      "ĠCD": 6127,
      ":/": 6128,
      "ii": 6129,
      "åĪ¶åº¦": 6130,
      "Ġsem": 6131,
      "Ġpay": 6132,
      "æ°ĳæĹı": 6133,
      "Ġhttp": 6134,
      "Ġjud": 6135,
      "çĶ·æľĭåıĭ": 6136,
      "ĠPerson": 6137,
      "trans": 6138,
      "Ġsinger": 6139,
      "Ġrespect": 6140,
      "ä¸įç®¡": 6141,
      "ĠTownship": 6142,
      "åīĤ": 6143,
      "æ°ı": 6144,
      "TER": 6145,
      "ĠProd": 6146,
      "åĭĩ": 6147,
      "ING": 6148,
      "èµµ": 6149,
      "é«ĺçļĦ": 6150,
      "ĠPennsylvania": 6151,
      "åĩıå°ĳ": 6152,
      "ving": 6153,
      "ĠBase": 6154,
      "Ġforce": 6155,
      "lines": 6156,
      "LO": 6157,
      "çĽ®çļĦ": 6158,
      "ĠMexico": 6159,
      "å§ĵ": 6160,
      "Ġver": 6161,
      "éĩįæĸ°": 6162,
      "iences": 6163,
      "æĶ¹éĿ©": 6164,
      "å¥³æľĭåıĭ": 6165,
      "Ġsubsequ": 6166,
      "Ġmean": 6167,
      "æĬĢèĥ½": 6168,
      "ĠAlthough": 6169,
      "Ġintroduced": 6170,
      "ä¹Łè®¸": 6171,
      "rs": 6172,
      "èı²": 6173,
      "è¿ĩç¨ĭä¸Ń": 6174,
      "Ġfig": 6175,
      "iting": 6176,
      "Ġdiscover": 6177,
      "Ġcountries": 6178,
      "ä¸ĸçºª": 6179,
      "å¤§å¤ļæķ°": 6180,
      "ĠMo": 6181,
      "çĮª": 6182,
      "ĠPolit": 6183,
      "ĠCareer": 6184,
      "çĪ¶äº²": 6185,
      "åľ¨æĪĳ": 6186,
      "Ġlines": 6187,
      "rial": 6188,
      "åģ·": 6189,
      "ĠOver": 6190,
      "åīĳ": 6191,
      "cret": 6192,
      "çľŁå®ŀ": 6193,
      "Ġpast": 6194,
      "ĠOh": 6195,
      "ĠItaly": 6196,
      "ĠCongress": 6197,
      "</": 6198,
      "äººç±»": 6199,
      "ĠBrazil": 6200,
      "Ġinvolved": 6201,
      "è¯¸": 6202,
      "è§Ħæ¨¡": 6203,
      "ky": 6204,
      "è²Į": 6205,
      "ĠFlorida": 6206,
      "ĠMil": 6207,
      "ä¸Ĭå¸Ĥ": 6208,
      "Sh": 6209,
      "é¬¼": 6210,
      "Ġpack": 6211,
      "valid": 6212,
      "Ġoccur": 6213,
      "ensor": 6214,
      "Ġaud": 6215,
      "æ¹¿": 6216,
      "ĠAnn": 6217,
      "ĠService": 6218,
      "å¹´ä»£": 6219,
      "ä¸įå¤ļ": 6220,
      "ĠGod": 6221,
      "lor": 6222,
      "Ġparts": 6223,
      "Ġartist": 6224,
      "ĠBus": 6225,
      "æ²Ł": 6226,
      "sl": 6227,
      "ĠScience": 6228,
      "è¾Ľ": 6229,
      "ä¼Ł": 6230,
      "Ġconstruct": 6231,
      "å·¥èµĦ": 6232,
      "ĠAv": 6233,
      "node": 6234,
      "ĠCommittee": 6235,
      "çıł": 6236,
      "åĩłå¤©": 6237,
      "MP": 6238,
      "ä¿Ĺ": 6239,
      "|-|": 6240,
      "build": 6241,
      "people": 6242,
      "åĬ¨çī©": 6243,
      "Ġlook": 6244,
      "çĽ¸å½ĵ": 6245,
      "Ġeventually": 6246,
      "Ġcirc": 6247,
      "ein": 6248,
      "å¾Īå¤§": 6249,
      "Ġblock": 6250,
      "ugby": 6251,
      "oms": 6252,
      "Ġabs": 6253,
      "æ¬¢è¿İ": 6254,
      "sel": 6255,
      "Ġdivision": 6256,
      "html": 6257,
      "ulty": 6258,
      "ĠSir": 6259,
      "è®°å¾Ĺ": 6260,
      "çĶŁåĳ½": 6261,
      "ä¹Łæ²¡æľī": 6262,
      "iation": 6263,
      "åħ±åĲĮ": 6264,
      "æĪĺäºī": 6265,
      "Ġran": 6266,
      "ady": 6267,
      "bur": 6268,
      "å·¥ä¸ļ": 6269,
      "Ġloss": 6270,
      "cons": 6271,
      "éĴĪå¯¹": 6272,
      "ĠMost": 6273,
      "cel": 6274,
      "Ġdon": 6275,
      "wer": 6276,
      "èģĶåĲĪ": 6277,
      "Ġgold": 6278,
      "çļĦé«ĺ": 6279,
      "oke": 6280,
      "Ġwriting": 6281,
      "åĮºåĪ«": 6282,
      "Ġ!=": 6283,
      "iana": 6284,
      "Ġinstance": 6285,
      "Ġeduc": 6286,
      "åģļçļĦ": 6287,
      "ĠWales": 6288,
      "æľ¬æĿ¥": 6289,
      "æıĲåĩº": 6290,
      "ularly": 6291,
      "usband": 6292,
      "èĨľ": 6293,
      "ĠIrish": 6294,
      "dev": 6295,
      "Ġcentral": 6296,
      "erve": 6297,
      "agon": 6298,
      "Ġste": 6299,
      "å°¿": 6300,
      "ĠPac": 6301,
      "well": 6302,
      "hest": 6303,
      "å¯Ĵ": 6304,
      "æĶ¯ä»ĺ": 6305,
      "æ±ł": 6306,
      "Ġknow": 6307,
      "èĥĮæĻ¯": 6308,
      "Ġrailway": 6309,
      "ĠIts": 6310,
      "Ġbasketball": 6311,
      "Ġhom": 6312,
      "Ġactress": 6313,
      "Ġpossible": 6314,
      "oved": 6315,
      "å¢Ļ": 6316,
      "èī²çļĦ": 6317,
      "ĠInc": 6318,
      "ressed": 6319,
      "ĠOpen": 6320,
      "å¾Ħ": 6321,
      "ĠUp": 6322,
      "ĠLand": 6323,
      "Ġsurv": 6324,
      "åĪł": 6325,
      "æīĵå¼Ģ": 6326,
      "04": 6327,
      "åĲĮæł·": 6328,
      "ĉĉĉ": 6329,
      "iano": 6330,
      "ĠFC": 6331,
      "Ġstated": 6332,
      "ibility": 6333,
      "Ġpot": 6334,
      "mercial": 6335,
      "æĭŁ": 6336,
      "Ġcollege": 6337,
      "Ġdescription": 6338,
      "è¿¹": 6339,
      "Ġtreat": 6340,
      "root": 6341,
      "Ġstop": 6342,
      "ï½ŀ": 6343,
      "ĠAsian": 6344,
      "æĭĶ": 6345,
      "åħ¼": 6346,
      "çĪ±æĥħ": 6347,
      "Ġcritic": 6348,
      "Ġsch": 6349,
      "error": 6350,
      "change": 6351,
      "antic": 6352,
      "æ±¡": 6353,
      "sych": 6354,
      "éĻĦè¿ĳ": 6355,
      "base": 6356,
      "stra": 6357,
      "mi": 6358,
      "amples": 6359,
      "Ġdict": 6360,
      "ĠCO": 6361,
      "æĸ¹æ¡Ī": 6362,
      "tit": 6363,
      "Ġfemales": 6364,
      "Ġwhite": 6365,
      "å¹³åĿĩ": 6366,
      "sg": 6367,
      "Ġtable": 6368,
      "pp": 6369,
      "ĠNorthern": 6370,
      "æĻ¨": 6371,
      "Ġinput": 6372,
      "ĠOld": 6373,
      "aud": 6374,
      "èĤ¡ä»½": 6375,
      "model": 6376,
      "ä¾µ": 6377,
      "stitution": 6378,
      "éģ¿åħį": 6379,
      "è·Ŀç¦»": 6380,
      "'])Ċ": 6381,
      "ĠBo": 6382,
      "ĠFestival": 6383,
      "ĠPeak": 6384,
      "æĬµ": 6385,
      "ä½ľèĢħ": 6386,
      "see": 6387,
      "Ġcases": 6388,
      "ç§Ĵ": 6389,
      "Ġcourse": 6390,
      "place": 6391,
      "MA": 6392,
      "å®ĩ": 6393,
      "ato": 6394,
      "çªĹ": 6395,
      "Ġpoet": 6396,
      "Ġmeas": 6397,
      "éĺ»": 6398,
      "è¶ĭ": 6399,
      "Ġdegree": 6400,
      "Ġren": 6401,
      "ä»Ģä¹ĪçļĦ": 6402,
      "è´«": 6403,
      "æĤ£èĢħ": 6404,
      "ava": 6405,
      "ĠColumb": 6406,
      "ĠSecret": 6407,
      "pass": 6408,
      "å¸ħ": 6409,
      "Ġterms": 6410,
      "åĪ°çļĦ": 6411,
      "osh": 6412,
      "ĠPet": 6413,
      "åĽ¢éĺŁ": 6414,
      "array": 6415,
      "ĠFilms": 6416,
      "åĸ·": 6417,
      "ĠAssembly": 6418,
      "Ġlocation": 6419,
      "ĠDen": 6420,
      "é©±": 6421,
      "ä»ĸè¯´": 6422,
      "prod": 6423,
      "æıĴ": 6424,
      "èº«ä»½": 6425,
      "Ġalready": 6426,
      "ç©·": 6427,
      "Ġfields": 6428,
      "âĸ": 6429,
      "Ġprimary": 6430,
      "ä¸ĵå®¶": 6431,
      "arned": 6432,
      "itz": 6433,
      "å¹¸ç¦ı": 6434,
      "ection": 6435,
      "Ġactive": 6436,
      "åı¦ä¸Ģ": 6437,
      "Ġprovide": 6438,
      "ĠPopul": 6439,
      "èĭ¹": 6440,
      "Ð¾Ð": 6441,
      "quest": 6442,
      "ĠMain": 6443,
      "Ġproperty": 6444,
      "åĴ¨": 6445,
      "Ġneg": 6446,
      "æĹģ": 6447,
      "Ġlength": 6448,
      "Ġmessage": 6449,
      "ĠSil": 6450,
      "é¼»": 6451,
      "ä½ĵèĤ²": 6452,
      "Ġsquare": 6453,
      "æľĢå¤§çļĦ": 6454,
      "chan": 6455,
      "èĥŀ": 6456,
      "ç¹": 6457,
      "Ġesc": 6458,
      "Ġusually": 6459,
      "æĪ¿åŃĲ": 6460,
      "Res": 6461,
      "length": 6462,
      "ked": 6463,
      "Ġfav": 6464,
      "django": 6465,
      "åĽŀå®¶": 6466,
      "ĠFin": 6467,
      "éĹ¹": 6468,
      "çº·": 6469,
      "ulation": 6470,
      "ĠOfficial": 6471,
      "Ġcompetition": 6472,
      "Ġupon": 6473,
      "book": 6474,
      "ĠRussia": 6475,
      "Ġbroadcast": 6476,
      "èµĦæľ¬": 6477,
      "BS": 6478,
      "ç«ŀäºī": 6479,
      "EC": 6480,
      "ersey": 6481,
      "ĠFort": 6482,
      "cell": 6483,
      "oys": 6484,
      "çļĦåİŁåĽł": 6485,
      "æķĮ": 6486,
      "Ġwriters": 6487,
      "ĠAtt": 6488,
      "éĵ¾æİ¥": 6489,
      "clus": 6490,
      "æĢĿæĥ³": 6491,
      "ÑĢ": 6492,
      "æī¬": 6493,
      "52": 6494,
      "iro": 6495,
      "'d": 6496,
      "ä¸ĭåİ»": 6497,
      "æģĭçĪ±": 6498,
      "network": 6499,
      "Ġsaw": 6500,
      "Ġreached": 6501,
      "Ġfourth": 6502,
      "ora": 6503,
      "ĠJoseph": 6504,
      "çĤ¼": 6505,
      "based": 6506,
      "ogle": 6507,
      "la": 6508,
      "ç¢°": 6509,
      "åĬ¨åĬĽ": 6510,
      "èģĺ": 6511,
      "Ġconv": 6512,
      "An": 6513,
      "åĩ¡": 6514,
      "ips": 6515,
      "ä»ģ": 6516,
      "oring": 6517,
      "Ġcal": 6518,
      "Ġinte": 6519,
      "iance": 6520,
      "èĭ¹æŀľ": 6521,
      "ĠRh": 6522,
      "äººå£«": 6523,
      "åĪ¶éĢł": 6524,
      "ä¸ĢåĪĩ": 6525,
      "ç§¯æŀģ": 6526,
      "uration": 6527,
      "å¾Īæľī": 6528,
      "Ġtravel": 6529,
      "ç½Ĺæĸ¯": 6530,
      "èµı": 6531,
      "èħ¹": 6532,
      "åĨįæ¬¡": 6533,
      "rought": 6534,
      "å¿½": 6535,
      "Ġcomput": 6536,
      "åĴ¨è¯¢": 6537,
      "Ġhusband": 6538,
      "Ġperm": 6539,
      "tes": 6540,
      "verse": 6541,
      "Ġallowed": 6542,
      "Ġplant": 6543,
      "èĦı": 6544,
      "ĠAngeles": 6545,
      "åī©": 6546,
      "è®¾ç½®": 6547,
      "adium": 6548,
      "æ¯įäº²": 6549,
      "åĨĴ": 6550,
      "åĬłä¸Ĭ": 6551,
      "éĥĳ": 6552,
      "Ġnode": 6553,
      "ä¾ĭå¦Ĥ": 6554,
      "åľ³": 6555,
      "names": 6556,
      "iger": 6557,
      "ario": 6558,
      "ĠResearch": 6559,
      "ba": 6560,
      "Ġformat": 6561,
      "Set": 6562,
      "ĠĠĠĠĠĠĠĠĠĠĠĠĠĠ": 6563,
      "ih": 6564,
      "arily": 6565,
      "oud": 6566,
      "ipl": 6567,
      "Ġminist": 6568,
      "éĢĥ": 6569,
      "æĢ§æł¼": 6570,
      "è®Ńç»ĥ": 6571,
      "Ġactor": 6572,
      "imated": 6573,
      "Ġmass": 6574,
      "ĠIS": 6575,
      "ja": 6576,
      "UL": 6577,
      "olit": 6578,
      "ĠMembers": 6579,
      "è§ĦåĪĴ": 6580,
      "bridge": 6581,
      "oral": 6582,
      "é«ĺèĢĥ": 6583,
      "é£İæł¼": 6584,
      "ç»ĵåĲĪ": 6585,
      "æ¬§æ´²": 6586,
      "çĤĴ": 6587,
      "Ġtax": 6588,
      "ĠFoundation": 6589,
      "å¹»": 6590,
      "eds": 6591,
      "åĩŃ": 6592,
      "sort": 6593,
      "éĥ½æ²¡æľī": 6594,
      "ĠUnder": 6595,
      "ĠStev": 6596,
      "Ġapprox": 6597,
      "Ġdestroy": 6598,
      "ĠAdd": 6599,
      "rad": 6600,
      "ĠSocial": 6601,
      "çĤ®": 6602,
      "åĦ¿åŃĲ": 6603,
      "èĥĥ": 6604,
      "äºĭå®ŀ": 6605,
      "Ġscored": 6606,
      "å®ĭ": 6607,
      "ĠDis": 6608,
      "äººå®¶": 6609,
      "ĠGreek": 6610,
      "Ġir": 6611,
      "Ġachie": 6612,
      "Ġpers": 6613,
      "ĠWood": 6614,
      "ç§°ä¸º": 6615,
      "Ġwhose": 6616,
      "æ·±åľ³": 6617,
      "ç¹ģ": 6618,
      "imum": 6619,
      "oration": 6620,
      "Ġspecific": 6621,
      "ulture": 6622,
      "ublican": 6623,
      "irm": 6624,
      "Ġobt": 6625,
      "output": 6626,
      "Ġcontent": 6627,
      "æĢģåº¦": 6628,
      "ui": 6629,
      "update": 6630,
      "XX": 6631,
      "åī²": 6632,
      "è¿Ļæ¬¡": 6633,
      "å¤ªå¤ļ": 6634,
      "æııè¿°": 6635,
      "å®¶éķ¿": 6636,
      "Ġnomin": 6637,
      "åį³åı¯": 6638,
      "Ġdraw": 6639,
      "TT": 6640,
      "incip": 6641,
      "ï¼ĮĊ": 6642,
      "âĹĨ": 6643,
      "utils": 6644,
      "æĸ¹ä¾¿": 6645,
      ">>>": 6646,
      "ĠBattle": 6647,
      "parse": 6648,
      "ĠSun": 6649,
      "æĳĨ": 6650,
      "è¯Ĭ": 6651,
      "ĠChief": 6652,
      "ĠCarl": 6653,
      "ĠFurther": 6654,
      "ĠHel": 6655,
      "ĠBuild": 6656,
      "æĹ¦": 6657,
      "Ġdeterm": 6658,
      "input": 6659,
      "å°±åĥı": 6660,
      "Ġhard": 6661,
      "Ġcontains": 6662,
      "çĺ¦": 6663,
      "åºĶè¯¥æĺ¯": 6664,
      "æ·»": 6665,
      "Ġsoftware": 6666,
      "è¿Ľä¸ĢæŃ¥": 6667,
      "ä¸įçŁ¥": 6668,
      "Ġnatural": 6669,
      "ĠPost": 6670,
      "Ġerror": 6671,
      "))": 6672,
      "è¿ĲèĲ¥": 6673,
      "Ġneigh": 6674,
      "åĮºåŁŁ": 6675,
      "Ġ[],": 6676,
      "ç¾Ĭ": 6677,
      "Ġleader": 6678,
      "language": 6679,
      "Ġstructure": 6680,
      "ç¦»å¼Ģ": 6681,
      "bar": 6682,
      "è¶³çĲĥ": 6683,
      "ĠReturn": 6684,
      "ä¸»åĬ¨": 6685,
      "åı¬": 6686,
      "96": 6687,
      "èļ": 6688,
      "ĠBoard": 6689,
      "Ġinstall": 6690,
      "params": 6691,
      "Ġcapital": 6692,
      "çģŃ": 6693,
      "åŃĶ": 6694,
      "å¼Ħ": 6695,
      "æķ¬": 6696,
      "çļĦæľĭåıĭ": 6697,
      "ĠTeam": 6698,
      "çĽĲ": 6699,
      "Ġdu": 6700,
      "azz": 6701,
      "Ñģ": 6702,
      "çľŁæĺ¯": 6703,
      "ĠDi": 6704,
      "ç§»åĬ¨": 6705,
      "wan": 6706,
      "Ġ/": 6707,
      "éļĨ": 6708,
      "ä¼¼ä¹İ": 6709,
      "reme": 6710,
      "Ġ&": 6711,
      "å°Ŀ": 6712,
      "æ»¡è¶³": 6713,
      "Ġurl": 6714,
      "ultural": 6715,
      "86": 6716,
      "ĠHow": 6717,
      "è¡¨è¾¾": 6718,
      "æĪĲéķ¿": 6719,
      "å¥³åĦ¿": 6720,
      "è¿ħ": 6721,
      "awa": 6722,
      "ansas": 6723,
      "ĠMos": 6724,
      "è¿Ļä¹Īå¤ļ": 6725,
      "ĠSeries": 6726,
      "escription": 6727,
      "vis": 6728,
      "Ġoperations": 6729,
      "Ġvocals": 6730,
      "MS": 6731,
      "Ġcontinue": 6732,
      "ĠGen": 6733,
      "amily": 6734,
      "å¹´åīį": 6735,
      "å·¡": 6736,
      "å¥½å¤ļ": 6737,
      "åĲĥé¥Ń": 6738,
      "ä¸ºä¸»": 6739,
      "anda": 6740,
      "Ġsay": 6741,
      "çĦ¦": 6742,
      "open": 6743,
      "äºĮåįģ": 6744,
      "åĪĳ": 6745,
      "kwargs": 6746,
      "æľ¬ç§ĳ": 6747,
      "Ġexhib": 6748,
      "ĠLu": 6749,
      "ĠMartin": 6750,
      "è¯´æĺ¯": 6751,
      "ette": 6752,
      "åħĦ": 6753,
      "Ġplaced": 6754,
      "å®¾": 6755,
      "æĢİä¹Īæł·": 6756,
      "Ġrather": 6757,
      "ĠSol": 6758,
      "ä¸Ģå®¶": 6759,
      "gs": 6760,
      "amm": 6761,
      "ĠMajor": 6762,
      "èµ¢": 6763,
      "ĠDutch": 6764,
      "èĢĲ": 6765,
      "iqu": 6766,
      "Ġcred": 6767,
      "Ġpassed": 6768,
      "Ġsequ": 6769,
      "ä¸įå¤ª": 6770,
      "ä¸ŃåĽ½çļĦ": 6771,
      "Ġsystems": 6772,
      "çĵľ": 6773,
      "è¾ħ": 6774,
      "Ġnight": 6775,
      "ills": 6776,
      "rown": 6777,
      "ÅĤ": 6778,
      "æľīå¾Īå¤ļ": 6779,
      "åıĺæĪĲ": 6780,
      "åĲįçļĦ": 6781,
      "æī§è¡Į": 6782,
      "ĠStar": 6783,
      "Ġriver": 6784,
      "Ġoccup": 6785,
      "è´¹çĶ¨": 6786,
      "api": 6787,
      "åĩºæĿ¥çļĦ": 6788,
      "ailed": 6789,
      "anced": 6790,
      "Ġenvironment": 6791,
      "å¾Ģå¾Ģ": 6792,
      "ĠMat": 6793,
      "åĬĽéĩı": 6794,
      "pes": 6795,
      "Ġreading": 6796,
      "å°ıåŃ¦": 6797,
      "è£ģ": 6798,
      "Ġdecided": 6799,
      "äººæ°ĳå¸ģ": 6800,
      "lib": 6801,
      "åĽŀå¤į": 6802,
      "çĶŁçī©": 6803,
      "Ġpage": 6804,
      "ĠVer": 6805,
      "Ġmatches": 6806,
      "Ġfall": 6807,
      "ĠEmpire": 6808,
      "stant": 6809,
      "æĪĲåĳĺ": 6810,
      "å¿«éĢŁ": 6811,
      "åĪĨæīĭ": 6812,
      "FC": 6813,
      "%ãĢĤ": 6814,
      "item": 6815,
      "è¢Ń": 6816,
      "Ġstandard": 6817,
      "ä¸įèµ·": 6818,
      "Ġscient": 6819,
      "èħ°": 6820,
      "æ²¿": 6821,
      "unch": 6822,
      "den": 6823,
      "ç¥Ŀ": 6824,
      "ĠRos": 6825,
      "...": 6826,
      "aled": 6827,
      "Ġfar": 6828,
      "Ġisinstance": 6829,
      "ç¬¦åĲĪ": 6830,
      "æ¦Ĥå¿µ": 6831,
      "æħ¢æħ¢": 6832,
      "unched": 6833,
      "æĶ»åĩ»": 6834,
      "åľ°äº§": 6835,
      "ometimes": 6836,
      "ä»Ļ": 6837,
      "å¤§éĻĨ": 6838,
      "Ġseasons": 6839,
      "Ġpreviously": 6840,
      "Ġtoo": 6841,
      "è¯´äºĨ": 6842,
      "Ġur": 6843,
      "inent": 6844,
      "elebr": 6845,
      "åĪ©äºļ": 6846,
      "èī¾": 6847,
      "éĻª": 6848,
      "âĢĺ": 6849,
      "enth": 6850,
      "Ġmovement": 6851,
      "è§Ĵèī²": 6852,
      "ML": 6853,
      "æĭ¼": 6854,
      "Ġhere": 6855,
      "alle": 6856,
      "æ¼Ķåĳĺ": 6857,
      "è¿«": 6858,
      "å½¢å¼ı": 6859,
      "æīįæĺ¯": 6860,
      "ĠWind": 6861,
      "Ġeffort": 6862,
      "Ġlower": 6863,
      "\",\"": 6864,
      "éĵģè·¯": 6865,
      "icens": 6866,
      "orse": 6867,
      "Ġtournament": 6868,
      "å®ĥçļĦ": 6869,
      "çĻĮ": 6870,
      "Ġbox": 6871,
      "ĠFollow": 6872,
      "Ġfarm": 6873,
      "ĠLove": 6874,
      "87": 6875,
      "ees": 6876,
      "ingu": 6877,
      "ĠPak": 6878,
      "Ġcomplex": 6879,
      "çĪ¸çĪ¸": 6880,
      "Ġsex": 6881,
      "ä»ĵ": 6882,
      "Ġrelated": 6883,
      "ector": 6884,
      "å°ıè¯´": 6885,
      "Ġdeal": 6886,
      "Ġargs": 6887,
      "Ġclosed": 6888,
      "ĠLine": 6889,
      "ube": 6890,
      "Ġedition": 6891,
      "Ð½": 6892,
      "Ġmur": 6893,
      "Ġrelationship": 6894,
      "Ġdensity": 6895,
      "Ġoutside": 6896,
      "ĠMem": 6897,
      "ĠIran": 6898,
      "çĶĺ": 6899,
      "ĠFred": 6900,
      "client": 6901,
      "resp": 6902,
      "ĠHaw": 6903,
      "ĠCivil": 6904,
      "ĠJud": 6905,
      "åĪ«çļĦ": 6906,
      "Ġplann": 6907,
      "irt": 6908,
      "Ġattended": 6909,
      "éĹ²": 6910,
      "acew": 6911,
      "ĠLiber": 6912,
      "Ġculture": 6913,
      "å·¥åħ·": 6914,
      "åŁ¹è®Ń": 6915,
      "ĠRel": 6916,
      "Ġraces": 6917,
      "ication": 6918,
      "178": 6919,
      "å°±è¦ģ": 6920,
      "igital": 6921,
      "Ġlik": 6922,
      "dat": 6923,
      "èľľ": 6924,
      "çĶ¨äºİ": 6925,
      "å®ŀæĸ½": 6926,
      "å®ŀéªĮ": 6927,
      "Ġtransport": 6928,
      "status": 6929,
      "æĬĳ": 6930,
      "æ¢ģ": 6931,
      "å¹¿å·ŀ": 6932,
      "æ¯Ķä¾ĭ": 6933,
      "Ġcut": 6934,
      "encies": 6935,
      "å«Į": 6936,
      "ĠCap": 6937,
      "æł¸å¿ĥ": 6938,
      "track": 6939,
      "Ġregular": 6940,
      "Ġstep": 6941,
      "ĠArab": 6942,
      "ĠHot": 6943,
      "ĠRadio": 6944,
      "ĠDemocratic": 6945,
      "Ġden": 6946,
      "Ġwid": 6947,
      "Ġpark": 6948,
      "èĸª": 6949,
      "================": 6950,
      "ĠEngine": 6951,
      "çĴ": 6952,
      "è½¦ç«Ļ": 6953,
      "Ġregard": 6954,
      "Ġbur": 6955,
      "umber": 6956,
      "çĶľ": 6957,
      "ç£¨": 6958,
      "åĩºçĶŁ": 6959,
      "Ġrow": 6960,
      "Ġplays": 6961,
      "Ġfif": 6962,
      "ä¼¤å®³": 6963,
      "æĥħç»ª": 6964,
      "Ġlet": 6965,
      "å®£ä¼ł": 6966,
      "ç¨į": 6967,
      "Ġadditional": 6968,
      "æīİ": 6969,
      "ĠLemmon": 6970,
      "åĮ»çĸĹ": 6971,
      "800": 6972,
      "Ġfrequ": 6973,
      "Ġcare": 6974,
      "Ġpurch": 6975,
      "ergy": 6976,
      "ĠBig": 6977,
      "aring": 6978,
      "ĠKitt": 6979,
      "Ġrepresented": 6980,
      "Ġmanufact": 6981,
      "Ġrunning": 6982,
      "iy": 6983,
      "ĠScottish": 6984,
      "ĠMedal": 6985,
      "inois": 6986,
      "ences": 6987,
      "ĠKe": 6988,
      "ĠWal": 6989,
      "æĺ¯æĢİä¹Ī": 6990,
      "ĠOhio": 6991,
      "ias": 6992,
      "åı¯èĥ½æĺ¯": 6993,
      "åĽŀæĿ¥": 6994,
      "lying": 6995,
      "Ġlabel": 6996,
      "éĢļå¸¸": 6997,
      "ĠValley": 6998,
      "å°±ç®Ĺ": 6999,
      "ä¸įå¤Ł": 7000,
      "bon": 7001,
      "Ġassociated": 7002,
      "æ§½": 7003,
      "éĥ½èĥ½": 7004,
      "åıĸå¾Ĺ": 7005,
      "ä¸ĭè½½": 7006,
      "Ġbehind": 7007,
      "è¡ĮåĬ¨": 7008,
      "çĵ¶": 7009,
      "Ġmanager": 7010,
      "çļĦåĽŀçŃĶ": 7011,
      "ä¼ļè®¡": 7012,
      "å²Ĺ": 7013,
      "160": 7014,
      "Ġchampionship": 7015,
      "å¾Ĵ": 7016,
      "Se": 7017,
      "ĠExp": 7018,
      "çļĦå·¥ä½ľ": 7019,
      "çĿĽ": 7020,
      "è¦": 7021,
      "æ°¸è¿ľ": 7022,
      "Ġreb": 7023,
      "éĥģ": 7024,
      "stream": 7025,
      "åºŁ": 7026,
      "ä¸°å¯Į": 7027,
      "ä¸įå¦Ĥ": 7028,
      "json": 7029,
      "çĻ¾åº¦": 7030,
      "ĠStep": 7031,
      "elopment": 7032,
      "æĢĿèĢĥ": 7033,
      "åįĬå¹´": 7034,
      "çļĦæĦŁè§ī": 7035,
      "PO": 7036,
      "Ġaccording": 7037,
      "CE": 7038,
      "het": 7039,
      "Ġitself": 7040,
      "lam": 7041,
      "åŃ¤": 7042,
      "æī£": 7043,
      "Ġruns": 7044,
      "ĠMichigan": 7045,
      "Ġprior": 7046,
      "Ġinvestig": 7047,
      "rect": 7048,
      "ĠTim": 7049,
      "Ġmeans": 7050,
      "Ġbeginning": 7051,
      "Ġorganiz": 7052,
      "UN": 7053,
      "åĩ¯": 7054,
      "Ġsouthern": 7055,
      "æĶ¾å¼ĥ": 7056,
      "Ġunit": 7057,
      "Ġnewsp": 7058,
      "ĠLin": 7059,
      "æĺİç¡®": 7060,
      "Ġnorthern": 7061,
      "ting": 7062,
      "Ġcrick": 7063,
      "iginal": 7064,
      "ä¹ı": 7065,
      "ENT": 7066,
      "æ³ī": 7067,
      "ĠSpain": 7068,
      "ĠAdm": 7069,
      "ĠJim": 7070,
      "iÄĩ": 7071,
      "è·¨": 7072,
      "éĻ·": 7073,
      "åĪ©çĽĬ": 7074,
      "åĿĳ": 7075,
      "Att": 7076,
      "ĠSouthern": 7077,
      "ĠPacific": 7078,
      "è¯´è¯Ŀ": 7079,
      "ĠBet": 7080,
      "ĠĠĠĠĠĠĠĠĠĠĠĠĠĠĠĠĠĠĠĠĠĠĠĠ": 7081,
      "iga": 7082,
      "åĬĽçļĦ": 7083,
      "Ġball": 7084,
      "Ġobserv": 7085,
      "çģ°": 7086,
      "Ġfeature": 7087,
      "ä¸ĬéĿ¢": 7088,
      "Ġcoast": 7089,
      "Ġindustry": 7090,
      "åĶ¯ä¸Ģ": 7091,
      "æīĭæľ¯": 7092,
      "ç´«": 7093,
      "Ġsus": 7094,
      "inet": 7095,
      "Ġjob": 7096,
      "æĪĳåĴĮ": 7097,
      "uan": 7098,
      "ĠBack": 7099,
      "èıĮ": 7100,
      "èĢĮè¨Ģ": 7101,
      "Ġreve": 7102,
      "ati": 7103,
      "ĠLee": 7104,
      "å¹´é¾Ħ": 7105,
      "åŀĭçļĦ": 7106,
      "ĠCross": 7107,
      "ĠRepresent": 7108,
      "ĠLong": 7109,
      "ĠJo": 7110,
      "ĠSystem": 7111,
      "loc": 7112,
      "Ġbrought": 7113,
      "çĽ¸æ¯Ķ": 7114,
      "Ġproducer": 7115,
      "åĨħçļĦ": 7116,
      "éĥ½è¦ģ": 7117,
      "åĿĽ": 7118,
      "\"]": 7119,
      "ç²Ĺ": 7120,
      "Ġimm": 7121,
      "æĶ¶çĽĬ": 7122,
      "äºĭä¸ļ": 7123,
      "aria": 7124,
      "æģ¢": 7125,
      "Ġgrand": 7126,
      "éĥ½åı¯ä»¥": 7127,
      "Ġorganization": 7128,
      "bo": 7129,
      "æĤ²": 7130,
      "ategory": 7131,
      "ä¸ĭåįĪ": 7132,
      "HO": 7133,
      "ĠLater": 7134,
      "Ġimage": 7135,
      "ĠFollowing": 7136,
      "éľ¸": 7137,
      "unior": 7138,
      "hab": 7139,
      "ĠLibrary": 7140,
      "æĺ¨å¤©": 7141,
      "çºł": 7142,
      "è°±": 7143,
      "æ®Ĭ": 7144,
      "Ġstudio": 7145,
      "ĠOx": 7146,
      "Ġdefeated": 7147,
      "èĩªèº«": 7148,
      "Ġphil": 7149,
      "ç²īä¸Ŀ": 7150,
      "Ġens": 7151,
      "ĠMilitary": 7152,
      "Ġben": 7153,
      "Ġgovern": 7154,
      "æķ´ä½ĵ": 7155,
      "æľĢå¥½çļĦ": 7156,
      "éĶģ": 7157,
      "åĽ½å¤ĸ": 7158,
      "pecially": 7159,
      "box": 7160,
      "Ġ``": 7161,
      "åģļäºĨ": 7162,
      "Ġalmost": 7163,
      "Ġmove": 7164,
      "ĠĠĠĠĠĠĠĠĠĠĠĠĠĠĠĠĠĠĠĠĠĠĠĠĠĠĠ": 7165,
      "ĠIllinois": 7166,
      "èĢģæĿ¿": 7167,
      "ĠBul": 7168,
      "åį°åº¦": 7169,
      "Ġminor": 7170,
      "ä¾ĿçĦ¶": 7171,
      "æĶ¾åľ¨": 7172,
      "Ġprison": 7173,
      "æ¨ª": 7174,
      "Ġfootballer": 7175,
      "ĠUk": 7176,
      "è¿ĩäºĨ": 7177,
      "å²¸": 7178,
      "ĠPoland": 7179,
      "house": 7180,
      "Ġking": 7181,
      "ĠTem": 7182,
      "åį¢": 7183,
      "çĶ·æĢ§": 7184,
      "èĢĹ": 7185,
      "èĥĸ": 7186,
      "è´¸": 7187,
      "Ġscreen": 7188,
      "Ġmaint": 7189,
      "ĠYoung": 7190,
      "Ġuses": 7191,
      "è¿ĺåľ¨": 7192,
      "split": 7193,
      "ĠEdward": 7194,
      "Ġfuture": 7195,
      "doc": 7196,
      "anded": 7197,
      "ĠJewish": 7198,
      "æľīæĹ¶åĢĻ": 7199,
      "250": 7200,
      "åħ¨éĿ¢": 7201,
      "åĲ¸å¼ķ": 7202,
      "è§Ī": 7203,
      "é¢Ĺ": 7204,
      "Ġbank": 7205,
      "ĠRepublican": 7206,
      "åĢ¾": 7207,
      "éĶĻè¯¯": 7208,
      "åĳĺå·¥": 7209,
      "ao": 7210,
      "Ġmultiple": 7211,
      "è¾£": 7212,
      "Ġisland": 7213,
      "åĲĪçĲĨ": 7214,
      "emic": 7215,
      "map": 7216,
      "Ġacadem": 7217,
      "ä¸¤å¹´": 7218,
      "alys": 7219,
      "å¼ĢæĶ¾": 7220,
      "Ġsat": 7221,
      "ä»¶äºĭ": 7222,
      "éĩįè¦ģçļĦ": 7223,
      "èĢģåħ¬": 7224,
      "å£°éŁ³": 7225,
      "ko": 7226,
      "oto": 7227,
      "ĠPolish": 7228,
      "ĠBank": 7229,
      "åĪĹè¡¨": 7230,
      "æĭħå¿ĥ": 7231,
      "é£Łåĵģ": 7232,
      "atriate": 7233,
      "isions": 7234,
      "èĤĿ": 7235,
      "Ġwinning": 7236,
      "Ġhit": 7237,
      "fect": 7238,
      "airman": 7239,
      "å°¤åħ¶æĺ¯": 7240,
      "ĠElect": 7241,
      "block": 7242,
      "è®¤çľŁ": 7243,
      "han": 7244,
      "ä»İæĿ¥": 7245,
      "ĠAre": 7246,
      "efe": 7247,
      "ĠRegister": 7248,
      "ĠField": 7249,
      "èĤł": 7250,
      "çľĭçĿĢ": 7251,
      "å®īè£ħ": 7252,
      "Ġmonth": 7253,
      "itors": 7254,
      "Ġkeep": 7255,
      "onom": 7256,
      "ĠSpacew": 7257,
      "çĸ¾çĹħ": 7258,
      "å¸¦æĿ¥": 7259,
      "æİª": 7260,
      "Ġchanges": 7261,
      "NA": 7262,
      "çİ©å®¶": 7263,
      "åł¡": 7264,
      "æľ±": 7265,
      "Ġended": 7266,
      "pace": 7267,
      "åĦ¿ç«¥": 7268,
      "å¥ĭ": 7269,
      "xx": 7270,
      "ancial": 7271,
      "æĪĳåĽ½": 7272,
      "Ġinitial": 7273,
      "ampion": 7274,
      "bed": 7275,
      "ĠSpacewatch": 7276,
      "èĴĤ": 7277,
      "ä»Ķ": 7278,
      "è®°å½ķ": 7279,
      "inals": 7280,
      "53": 7281,
      "è¿ŀç»Ń": 7282,
      "Ġterrit": 7283,
      "amous": 7284,
      "76": 7285,
      "Ġsupported": 7286,
      "èĦī": 7287,
      "Ġscience": 7288,
      "54": 7289,
      "overs": 7290,
      "åıĺå¾Ĺ": 7291,
      "Ġquest": 7292,
      "Ġmusical": 7293,
      "Ġrad": 7294,
      "ç»Īäºİ": 7295,
      "çľł": 7296,
      "ĠSar": 7297,
      "âĹĨâĹĨ": 7298,
      "è¯´æĪĳ": 7299,
      "éĻįä½İ": 7300,
      "åĩī": 7301,
      "Ġscore": 7302,
      "Ġload": 7303,
      "ä¹Łå¾Ī": 7304,
      "ĠHealth": 7305,
      "rice": 7306,
      "ç¯®": 7307,
      "åħ¬å¼Ģ": 7308,
      "Ġcome": 7309,
      "inated": 7310,
      "æ¦ľ": 7311,
      "ĠGra": 7312,
      "ĠPo": 7313,
      "ĠJersey": 7314,
      "é¸Ł": 7315,
      "Ġmagazine": 7316,
      "Ġstar": 7317,
      "tra": 7318,
      "æĿľ": 7319,
      "ä¸Ģä½į": 7320,
      "ĠTimes": 7321,
      "Ġstudies": 7322,
      "æ©": 7323,
      "å¥½å¥½": 7324,
      "Ġveh": 7325,
      "æµĭè¯ķ": 7326,
      "177": 7327,
      "Ġindex": 7328,
      "æŃ¤å¤ĸ": 7329,
      "éī": 7330,
      "ĠRo": 7331,
      "Ġfailed": 7332,
      "'m": 7333,
      "ĠTop": 7334,
      "ima": 7335,
      "Ġschol": 7336,
      "ĠJer": 7337,
      "åħ¬å¸ĥ": 7338,
      "Ġbound": 7339,
      "km": 7340,
      "çļĦæĸ°": 7341,
      "åıįå¯¹": 7342,
      "cient": 7343,
      "æģ¢å¤į": 7344,
      "Ġplatform": 7345,
      "itiz": 7346,
      "åıĳè¡Į": 7347,
      "å°ĸ": 7348,
      "è¿ĩæĿ¥": 7349,
      "Ġwhom": 7350,
      "pool": 7351,
      "çľ¼çĿĽ": 7352,
      "è¿ĺèĥ½": 7353,
      "Ġsaf": 7354,
      "ä¸įä¸Ĭ": 7355,
      "ĠÅ": 7356,
      "ĠRout": 7357,
      "acher": 7358,
      "File": 7359,
      "ouch": 7360,
      "å¾Ĳ": 7361,
      "ĠPortug": 7362,
      "ĠBook": 7363,
      "Ġaddress": 7364,
      "çĲĨçĶ±": 7365,
      "((": 7366,
      "èķ": 7367,
      "illa": 7368,
      "Ġhigher": 7369,
      "çİĽ": 7370,
      "Ġsingles": 7371,
      "bers": 7372,
      "asy": 7373,
      "Ġarmy": 7374,
      "ĠQueen": 7375,
      "Ġindependent": 7376,
      "åĮĸçļĦ": 7377,
      "Ġlaunched": 7378,
      "HE": 7379,
      "åıĮæĸ¹": 7380,
      "oston": 7381,
      "ĠIII": 7382,
      "bury": 7383,
      "ĠEp": 7384,
      "Ġtrain": 7385,
      "ä¸īå¹´": 7386,
      "Ġstaff": 7387,
      "å¥¹ä»¬": 7388,
      "å½»": 7389,
      "ĠGovernor": 7390,
      "uled": 7391,
      "ennis": 7392,
      "aka": 7393,
      "ç»ıçĲĨ": 7394,
      "ç½ļ": 7395,
      "Ġtaking": 7396,
      "éĤ¦": 7397,
      "åħ¬åı¸çļĦ": 7398,
      "ĠBas": 7399,
      "Ġindividuals": 7400,
      "vention": 7401,
      "pan": 7402,
      "Sc": 7403,
      "Ġtowards": 7404,
      "æĻĵ": 7405,
      "æµĵ": 7406,
      "åĳĪ": 7407,
      "çĲ´": 7408,
      "pack": 7409,
      "ĠOk": 7410,
      "æŁĶ": 7411,
      "ä¸įè¶³": 7412,
      "å®ĥä»¬": 7413,
      "èĢĮä¸įæĺ¯": 7414,
      "ĠLord": 7415,
      "ä¸ĭéĻį": 7416,
      "ĠDou": 7417,
      "åİĮ": 7418,
      "Ġgirl": 7419,
      "æĦŁåĪ°": 7420,
      "æľºåĻ¨": 7421,
      "æĪĺçķ¥": 7422,
      "çī©è´¨": 7423,
      "CL": 7424,
      "Ġever": 7425,
      "çĪ½": 7426,
      "æ³¨åĨĮ": 7427,
      "Ġelections": 7428,
      "æģĴ": 7429,
      ";\"|": 7430,
      "Ġshot": 7431,
      "CP": 7432,
      "Ġcertain": 7433,
      "Ġselected": 7434,
      "ocket": 7435,
      "åľ¨äºİ": 7436,
      "Ġpersonal": 7437,
      "etts": 7438,
      "Ġcommission": 7439,
      "ĠMah": 7440,
      "æĭĴç»Ŀ": 7441,
      "Ġyour": 7442,
      "æĺ¯æľī": 7443,
      "ĠScotland": 7444,
      "Ġfood": 7445,
      "Ġhighest": 7446,
      "xy": 7447,
      "79": 7448,
      "Ġissues": 7449,
      "ä¸»ä»»": 7450,
      "å¥ı": 7451,
      "va": 7452,
      "å¼Ģå¿ĥ": 7453,
      "æĴĳ": 7454,
      "ĠTro": 7455,
      "zh": 7456,
      "Ġlittle": 7457,
      "aya": 7458,
      "éĥ½æ²¡": 7459,
      "ĠBritain": 7460,
      "ocol": 7461,
      "ç½ĳåıĭ": 7462,
      "Ġapproximately": 7463,
      "pose": 7464,
      "Ġroute": 7465,
      "EX": 7466,
      "Ġowned": 7467,
      "flow": 7468,
      "åįĩçº§": 7469,
      "Ġconcern": 7470,
      "ä¹ĭç±»çļĦ": 7471,
      "Ġofficer": 7472,
      "èĭ±éĽĦ": 7473,
      "ĠDirector": 7474,
      "Ġpromot": 7475,
      "éī´": 7476,
      "ttps": 7477,
      "åıĤè§ģ": 7478,
      "icated": 7479,
      "Ġword": 7480,
      "çĽ¾": 7481,
      "},Ċ": 7482,
      "top": 7483,
      "åĬŀåħ¬": 7484,
      "ocks": 7485,
      "åıĳåĬ¨": 7486,
      "Ġsecret": 7487,
      "Ġstudent": 7488,
      "ĠTw": 7489,
      "arc": 7490,
      "Ġespecially": 7491,
      "å¡«": 7492,
      "Ġwoman": 7493,
      "è¿½æ±Ĥ": 7494,
      "æ³Ľ": 7495,
      "çĽĹ": 7496,
      "çº¹": 7497,
      "orporated": 7498,
      "è¯»ä¹¦": 7499,
      "å§Ķåĳĺä¼ļ": 7500,
      "zy": 7501,
      "itation": 7502,
      "çıį": 7503,
      "ĠStation": 7504,
      "åĲ¹": 7505,
      "achus": 7506,
      "AF": 7507,
      "Ġcommercial": 7508,
      "é£ŀæľº": 7509,
      "å¹´åº¦": 7510,
      "Ġprob": 7511,
      "ĠHead": 7512,
      "ĠInf": 7513,
      "ä¿Ħç½Ĺæĸ¯": 7514,
      "perty": 7515,
      "æī°": 7516,
      "Ġstre": 7517,
      "89": 7518,
      "Ġsoon": 7519,
      "ĠNews": 7520,
      "åĲĪåĲĮ": 7521,
      "æī«": 7522,
      "'):Ċ": 7523,
      "isher": 7524,
      "msg": 7525,
      "èĥĨ": 7526,
      "å¤Ħäºİ": 7527,
      "ĠBow": 7528,
      "yan": 7529,
      "Ġimplement": 7530,
      "ĠKent": 7531,
      "Ġgoals": 7532,
      "ä½©": 7533,
      "rich": 7534,
      "èĩªæĪĳ": 7535,
      "lood": 7536,
      "Ġtraditional": 7537,
      "ä¼°è®¡": 7538,
      "result": 7539,
      "èĲ¥åħ»": 7540,
      "Ġsummer": 7541,
      "Ġalways": 7542,
      "åĲĪéĢĤ": 7543,
      "åłĨ": 7544,
      "æ°§": 7545,
      "Ġdisplay": 7546,
      "response": 7547,
      "ä¸ĭè¾ĸ": 7548,
      "è¿Ĳè¡Į": 7549,
      "ĠBelg": 7550,
      "Ġchief": 7551,
      "ï¼ģ<": 7552,
      "èĸĦ": 7553,
      "Ġwood": 7554,
      "æĹ¶çļĦ": 7555,
      "ĠUnivers": 7556,
      "ĠThat": 7557,
      "Ġdistributed": 7558,
      "ira": 7559,
      "æĪĳå¾Ī": 7560,
      "åĿ¡": 7561,
      "æį·": 7562,
      "ĠPrem": 7563,
      "ĠTime": 7564,
      "ĠBob": 7565,
      "åİŁæĿ¥": 7566,
      "éħĴåºĹ": 7567,
      "ä¸ºä½ķ": 7568,
      "Ġerr": 7569,
      "çĶ·åŃĲ": 7570,
      "rupt": 7571,
      "weight": 7572,
      "bin": 7573,
      "åĪ©æ¶¦": 7574,
      "NU": 7575,
      "OP": 7576,
      "Ġcelebr": 7577,
      "ums": 7578,
      "ĠGal": 7579,
      "ä½ĵç³»": 7580,
      "æĮĩå¯¼": 7581,
      "mm": 7582,
      "Ġgenus": 7583,
      "æİĴåĲį": 7584,
      "å¦Ĥä¸ĭ": 7585,
      "Ġlived": 7586,
      "burgh": 7587,
      "ä¼ļä¸įä¼ļ": 7588,
      "Ġcell": 7589,
      "agement": 7590,
      "Is": 7591,
      "rid": 7592,
      "åĬ¨ä½ľ": 7593,
      "inct": 7594,
      "Ġcustom": 7595,
      "èº«ä¸Ĭ": 7596,
      "ĠHung": 7597,
      "æ³ª": 7598,
      "ĠOffice": 7599,
      "å¤º": 7600,
      "ĠMot": 7601,
      "curity": 7602,
      "uid": 7603,
      "'],": 7604,
      "åİī": 7605,
      "ĠMany": 7606,
      "venue": 7607,
      "ï¼īĊ": 7608,
      "å¥Ī": 7609,
      "çī©çĲĨ": 7610,
      "åģļåĪ°": 7611,
      "ds": 7612,
      "110": 7613,
      "flict": 7614,
      "Ġpolicy": 7615,
      "éĵº": 7616,
      "è¾ŀ": 7617,
      "æ£Ĵ": 7618,
      "å¤±è´¥": 7619,
      "ç»ıåħ¸": 7620,
      "æľĢä½³": 7621,
      "Ġfocus": 7622,
      "Ġconvert": 7623,
      "Ġoptions": 7624,
      "Ġships": 7625,
      "éħįç½®": 7626,
      "ĠTelevision": 7627,
      "process": 7628,
      "ĠArgent": 7629,
      "Ġissue": 7630,
      "å½ĵå¹´": 7631,
      "èĲĮ": 7632,
      ")*": 7633,
      "è£ħå¤ĩ": 7634,
      "Ġbattle": 7635,
      "Ġ\\Ċ": 7636,
      "åįĹäº¬": 7637,
      "å¦Ļ": 7638,
      "ĠDet": 7639,
      "å°º": 7640,
      "resh": 7641,
      "bug": 7642,
      "æĨ": 7643,
      "ĠDevelopment": 7644,
      "ĠIN": 7645,
      "æĸ¤": 7646,
      "çĥĤ": 7647,
      "åģ¥èº«": 7648,
      "ä¸»è¦ģæĺ¯": 7649,
      "arden": 7650,
      "åĤ»": 7651,
      "ĠOrgan": 7652,
      "Ġconditions": 7653,
      "Ġhum": 7654,
      "Ġmission": 7655,
      "Ġdrama": 7656,
      "ç»Łè®¡": 7657,
      "åŃ¦çļĦ": 7658,
      "ĠBoston": 7659,
      "çĽ´åĪ°": 7660,
      "ĠPlaces": 7661,
      "çīĪæľ¬": 7662,
      "è¶ħçº§": 7663,
      "Ġstri": 7664,
      "mond": 7665,
      "uten": 7666,
      "ä¸ĢåĲį": 7667,
      "çľĭçļĦ": 7668,
      "çĶŁçļĦ": 7669,
      "åį°è±¡": 7670,
      "Ġoperation": 7671,
      "standing": 7672,
      "achusetts": 7673,
      "Ġfiles": 7674,
      "ç»ĨèĬĤ": 7675,
      "oir": 7676,
      "Ġsom": 7677,
      "ĠSoc": 7678,
      "çĶ·åıĭ": 7679,
      "å¨±ä¹Ĳ": 7680,
      "Ġrule": 7681,
      "})Ċ": 7682,
      "ila": 7683,
      "ĠMiddle": 7684,
      "æľĪä»½": 7685,
      "Ġsurround": 7686,
      "achine": 7687,
      "Ġgenerally": 7688,
      "dr": 7689,
      "è¿ģ": 7690,
      "èµĦæł¼": 7691,
      "åĪ¤æĸŃ": 7692,
      "è¯¦ç»Ĩ": 7693,
      "ĠAsia": 7694,
      "æł·åŃĲ": 7695,
      "Ġearlier": 7696,
      "Ġthus": 7697,
      "Int": 7698,
      "çĩĥ": 7699,
      "Ġrac": 7700,
      "Ġsn": 7701,
      "åĪļåĪļ": 7702,
      "Ġeditor": 7703,
      "Ġpie": 7704,
      "ĠLuc": 7705,
      "è°¢éĤĢ": 7706,
      "equal": 7707,
      "content": 7708,
      "èĻ«": 7709,
      "stitu": 7710,
      "Ġunion": 7711,
      "Ġraised": 7712,
      "èĢĮå·²": 7713,
      "style": 7714,
      "Ġadapt": 7715,
      "////": 7716,
      "ä¸įæĩĤ": 7717,
      "èĤ¿": 7718,
      "æ»´": 7719,
      "Ġelement": 7720,
      "ĠPolice": 7721,
      "Ġvalid": 7722,
      "Ġnoted": 7723,
      "ĠEconom": 7724,
      "Ġcomplete": 7725,
      "ĠMore": 7726,
      "ANT": 7727,
      "å§ĳå¨ĺ": 7728,
      "ĠConference": 7729,
      "å£ģ": 7730,
      ";?": 7731,
      "çŃ¹": 7732,
      "Ġbetter": 7733,
      "Col": 7734,
      "Ġspent": 7735,
      "èį·": 7736,
      "Ġseat": 7737,
      "ĠâĹ": 7738,
      "Ġcomment": 7739,
      "å¼Ģå±ķ": 7740,
      "Ġmoney": 7741,
      "å®ħ": 7742,
      "åĨłåĨĽ": 7743,
      "108": 7744,
      "message": 7745,
      "Ġopening": 7746,
      "æĪĳè¦ģ": 7747,
      "ĠBang": 7748,
      "ä¿®æĶ¹": 7749,
      "Ġadministr": 7750,
      "æŁĲäºĽ": 7751,
      "CD": 7752,
      "RA": 7753,
      "Ġpoliticians": 7754,
      "åħģ": 7755,
      "ares": 7756,
      "ĠJournal": 7757,
      "bject": 7758,
      "Ġmanagement": 7759,
      "åį«çĶŁ": 7760,
      "types": 7761,
      "åķĨåĵģ": 7762,
      "ĠInt": 7763,
      "ĠSat": 7764,
      "ĠMassachusetts": 7765,
      "éĢĴ": 7766,
      "Ġforms": 7767,
      "'))Ċ": 7768,
      "ĠJul": 7769,
      "gn": 7770,
      "é©¾é©¶": 7771,
      "æ¶Ĥ": 7772,
      "ä¹Łå°±": 7773,
      "åĬ¨çĶ»": 7774,
      "ims": 7775,
      "çľĭæĿ¥": 7776,
      "ĠColumbia": 7777,
      "ĠEastern": 7778,
      "ä½łåı¯ä»¥": 7779,
      "---": 7780,
      "Ġcaused": 7781,
      "ĠCy": 7782,
      "reater": 7783,
      "Ġsometimes": 7784,
      "å±ħæ°ĳ": 7785,
      "ador": 7786,
      "æĳ¸": 7787,
      "tx": 7788,
      "ĠGeorgia": 7789,
      "æĴŀ": 7790,
      "å®¶äºº": 7791,
      "ĠPrince": 7792,
      "Ġpercent": 7793,
      "Ġitem": 7794,
      "][": 7795,
      "ucle": 7796,
      "è¯¾ç¨ĭ": 7797,
      "æ¯ģ": 7798,
      "ç¼ĸè¾ĳ": 7799,
      "å®īæİĴ": 7800,
      "çĪ±çļĦ": 7801,
      "æ²ĥ": 7802,
      "Ġelev": 7803,
      "ç¬¬åĽĽ": 7804,
      "æĥľ": 7805,
      "Ġsquad": 7806,
      "PC": 7807,
      "ech": 7808,
      "ç©Ĩ": 7809,
      "æĺĮ": 7810,
      "ĠFree": 7811,
      "Ġpractice": 7812,
      "æ¡ĥ": 7813,
      "Ġemer": 7814,
      "Ġinterview": 7815,
      "ĠMax": 7816,
      "ä¸ľåĮĹ": 7817,
      "170": 7818,
      "Ġbig": 7819,
      "background": 7820,
      "Ġcop": 7821,
      "å¾Īå°ĳ": 7822,
      "ç¢İ": 7823,
      "åľ¨ä¸ŃåĽ½": 7824,
      "å¦¹åŃĲ": 7825,
      "Ġstructures": 7826,
      "éļ¾éģĵ": 7827,
      "Ġcentre": 7828,
      "present": 7829,
      "æ²¡ä»Ģä¹Ī": 7830,
      "ä¸ĳ": 7831,
      "å¯¹æĪĳ": 7832,
      "ĠMatt": 7833,
      "DI": 7834,
      "çĽĪ": 7835,
      "Key": 7836,
      "éĥŃ": 7837,
      "anks": 7838,
      "po": 7839,
      "Ġtypes": 7840,
      "Ġincreased": 7841,
      "Å¡": 7842,
      "ä»įçĦ¶": 7843,
      "Ġbelong": 7844,
      "ĠWilliams": 7845,
      "ĠPhilipp": 7846,
      "isk": 7847,
      "thon": 7848,
      "Ðº": 7849,
      "çī¹çĤ¹": 7850,
      "éĢ»": 7851,
      "Ġentered": 7852,
      "å¤§ç¥ŀ": 7853,
      ",(": 7854,
      "Ġgot": 7855,
      "åľ¨è¿Ļ": 7856,
      "uty": 7857,
      "emporary": 7858,
      "Ġtrade": 7859,
      "alysis": 7860,
      "span": 7861,
      "ĠBre": 7862,
      "Ġlegisl": 7863,
      "ĠCreek": 7864,
      "iant": 7865,
      "æ¼Ĥäº®": 7866,
      "è£¤": 7867,
      "cr": 7868,
      "æı´": 7869,
      "å¦Ĥä»Ĭ": 7870,
      "ĠAthlet": 7871,
      "ĠStan": 7872,
      "å¼Ĺ": 7873,
      "è´·æ¬¾": 7874,
      "å®ļä½į": 7875,
      "æķĻæİĪ": 7876,
      "Ġsenior": 7877,
      "target": 7878,
      "æµĻ": 7879,
      "ĠGame": 7880,
      "....": 7881,
      "æĹ¥å¸¸": 7882,
      "è¯´æ³ķ": 7883,
      "åĩºçīĪ": 7884,
      "ĠJones": 7885,
      "éħ·": 7886,
      "Ġhot": 7887,
      "Ġstudied": 7888,
      "æĢĿç»´": 7889,
      "arriage": 7890,
      "å¯¹è±¡": 7891,
      "Ġactivities": 7892,
      "éĢĲæ¸Ĳ": 7893,
      "uer": 7894,
      "èħĲ": 7895,
      "Ġstream": 7896,
      "Ġdecision": 7897,
      "ĠVan": 7898,
      "åħ¬åħ±": 7899,
      "æĸ¹éĿ¢çļĦ": 7900,
      ":#": 7901,
      "Ġequip": 7902,
      "Ġcolon": 7903,
      "èģĬå¤©": 7904,
      "Ġpen": 7905,
      "Ġregist": 7906,
      "è½¦è¾Ĩ": 7907,
      "æŃ»äº¡": 7908,
      "æħ§": 7909,
      "çĨĬ": 7910,
      "structor": 7911,
      "################################": 7912,
      "ĠWrit": 7913,
      "è£Ĥ": 7914,
      "gypt": 7915,
      "Ġlack": 7916,
      "ĠSpecial": 7917,
      "orough": 7918,
      "ÑĤ": 7919,
      "fef": 7920,
      "ova": 7921,
      "ä¸Ńæĸĩ": 7922,
      "ä½łè¦ģ": 7923,
      "dist": 7924,
      "Par": 7925,
      "èĳ£äºĭ": 7926,
      "Ġrequire": 7927,
      "åĲµ": 7928,
      "ç½²": 7929,
      "ĠUr": 7930,
      "èĥ¶": 7931,
      "ä¹ĭå¤ĸ": 7932,
      "sw": 7933,
      "çķª": 7934,
      "Ġadopt": 7935,
      "äºķ": 7936,
      "éĤĢè¯·": 7937,
      "ji": 7938,
      "Ġlegal": 7939,
      "Ġmales": 7940,
      "Ġcolor": 7941,
      "Ġsched": 7942,
      "è¿Ķ": 7943,
      "ç®Ĺæĺ¯": 7944,
      "ĠTre": 7945,
      "é©»": 7946,
      "çļĦåīį": 7947,
      "æĽ´å¥½": 7948,
      "ĠJac": 7949,
      "ç»ķ": 7950,
      "Ġoperated": 7951,
      "ãĢĭï¼Ī": 7952,
      "å¯º": 7953,
      "åıĬæĹ¶": 7954,
      "ĠKong": 7955,
      "Ġappearance": 7956,
      "isation": 7957,
      "å¯¿": 7958,
      "ç¡ķ": 7959,
      "Ġcounty": 7960,
      "èµĸ": 7961,
      "Ġlove": 7962,
      "ĠCre": 7963,
      "Ġannual": 7964,
      "å¸ķ": 7965,
      "ĠAff": 7966,
      "ĠForm": 7967,
      "ĠAirport": 7968,
      "ĠMP": 7969,
      "å®£å¸ĥ": 7970,
      "ĠTransport": 7971,
      "page": 7972,
      "çľĭæ³ķ": 7973,
      "izer": 7974,
      "ç»Ĩèĥŀ": 7975,
      "å²ģçļĦ": 7976,
      "ĠKey": 7977,
      "ĠWater": 7978,
      "Ġrecords": 7979,
      "130": 7980,
      "related": 7981,
      "var": 7982,
      "onic": 7983,
      "çŁ¿": 7984,
      "Ġ.": 7985,
      "ĠRam": 7986,
      "ĠGeography": 7987,
      "åħ¬ä¼Ĺåı·": 7988,
      "çļĦä¸»": 7989,
      "ĠDisc": 7990,
      "æĸĩåŃ¦": 7991,
      "çļĦæĥħåĨµä¸ĭ": 7992,
      "{'": 7993,
      "shape": 7994,
      "ildren": 7995,
      "ifying": 7996,
      "Ġparticular": 7997,
      "ternet": 7998,
      "Ġtim": 7999,
      "light": 8000,
      "Ġwestern": 8001,
      "éķ¿çļĦ": 8002,
      "real": 8003,
      "ĠCentre": 8004,
      "Time": 8005,
      "ä¸ĢæĿ¡": 8006,
      "ĠTheatre": 8007,
      "Ġour": 8008,
      "options": 8009,
      "åĨħéĥ¨": 8010,
      "Ä±": 8011,
      "è¿ĺæ²¡": 8012,
      "æľīæĹ¶": 8013,
      "ĠOR": 8014,
      "orage": 8015,
      "ĠHong": 8016,
      "åĬ²": 8017,
      "72": 8018,
      "æ¢°": 8019,
      "To": 8020,
      "Ġamount": 8021,
      "è¶ĭåĬ¿": 8022,
      "ä¸įä½ı": 8023,
      "Ã±": 8024,
      "nam": 8025,
      "ĠTrack": 8026,
      "Ġdrop": 8027,
      "Ġextra": 8028,
      "ä¸¢": 8029,
      "å¥³åıĭ": 8030,
      "Ġsea": 8031,
      "fefefe": 8032,
      "Ġdiffic": 8033,
      "Ġbass": 8034,
      "IA": 8035,
      "can": 8036,
      "bec": 8037,
      "åħ±åĴĮ": 8038,
      "æĮĩæķ°": 8039,
      "é³": 8040,
      "å¦Ĥæŀľæĺ¯": 8041,
      "aters": 8042,
      "Ġbecoming": 8043,
      "éĥ½å¾Ī": 8044,
      "ä¾ĭåŃĲ": 8045,
      "ĠHam": 8046,
      "ĠSand": 8047,
      "ĠJean": 8048,
      "Ġnews": 8049,
      "td": 8050,
      "Ġhapp": 8051,
      "åĬłå¼º": 8052,
      "Ġ\"\\": 8053,
      "æĬķèµĦèĢħ": 8054,
      "ĠJohnson": 8055,
      "ç»Łä¸Ģ": 8056,
      "abeth": 8057,
      "éĶĭ": 8058,
      "çĹĩçĬ¶": 8059,
      "Ġimmedi": 8060,
      "Ġreligious": 8061,
      "æĭĸ": 8062,
      "pri": 8063,
      "Ġaltern": 8064,
      "adel": 8065,
      "Ġmajority": 8066,
      "åĸľæ¬¢çļĦ": 8067,
      "æ¯ıå¹´": 8068,
      "éĤ£æł·": 8069,
      "ĠBib": 8070,
      "uy": 8071,
      "ĉif": 8072,
      "æĵ¦": 8073,
      "èªī": 8074,
      "rief": 8075,
      "æĥĳ": 8076,
      "Ġhousing": 8077,
      "war": 8078,
      "é«ĺåº¦": 8079,
      "åľ°åĿĢ": 8080,
      "ĠEnd": 8081,
      "äººåľ¨": 8082,
      "Ġanti": 8083,
      "æĪĲçĨŁ": 8084,
      "table": 8085,
      "åģļå¥½": 8086,
      "Ġinstr": 8087,
      "lean": 8088,
      "Ġelements": 8089,
      "æĺİæĺŁ": 8090,
      "æĬ¥åĲį": 8091,
      "éĽĨä¸Ń": 8092,
      "Ġeconomic": 8093,
      "Ġinitially": 8094,
      "eks": 8095,
      "å¤įæĿĤ": 8096,
      "GB": 8097,
      "åıĶ": 8098,
      "Ġhours": 8099,
      "Ġfinally": 8100,
      "éĻĲåĪ¶": 8101,
      "Ġtrue": 8102,
      "ĠMcC": 8103,
      "SP": 8104,
      "Ġtakes": 8105,
      "pat": 8106,
      "å°ıçļĦ": 8107,
      "Ġnumerous": 8108,
      "ç¾İçļĦ": 8109,
      "åŁºæľ¬ä¸Ĭ": 8110,
      "äºĨæĪĳ": 8111,
      "ä¿Ŀéļľ": 8112,
      "åŁ¹åħ»": 8113,
      "Ġhockey": 8114,
      "åĴĸ": 8115,
      "ĠWis": 8116,
      "auth": 8117,
      "175": 8118,
      "Ġmedical": 8119,
      "ĠFrancisco": 8120,
      "ĠKar": 8121,
      "è¢ĭ": 8122,
      "ä»ĸåľ¨": 8123,
      "fit": 8124,
      "ĠCorps": 8125,
      "ä¹ĭéĹ´çļĦ": 8126,
      "abled": 8127,
      "ä¼¸": 8128,
      "éĤ£ä¹Īå¤ļ": 8129,
      "Ġdone": 8130,
      "Ġserving": 8131,
      "Char": 8132,
      "pid": 8133,
      "Ġquarter": 8134,
      "çī¹æ®Ĭ": 8135,
      "åĽ°éļ¾": 8136,
      "çľĭè§ģ": 8137,
      "æ¬£": 8138,
      "åĨľæĿĳ": 8139,
      "è§Ĥå¯Ł": 8140,
      "æıĲéĹ®": 8141,
      "irection": 8142,
      "irit": 8143,
      "ä¹Ķ": 8144,
      "åģ¿": 8145,
      "DO": 8146,
      "Ġtheory": 8147,
      "åı¯èĥ½ä¼ļ": 8148,
      "ulf": 8149,
      "èĲ¥éĶĢ": 8150,
      "adata": 8151,
      "æĪĳçİ°åľ¨": 8152,
      "Ġdouble": 8153,
      "Ġrate": 8154,
      "tag": 8155,
      "fix": 8156,
      "Ġconnection": 8157,
      "æĪĴ": 8158,
      "Ġshown": 8159,
      "åľ°ä½į": 8160,
      "Ġretired": 8161,
      "åĴĮæĪĳ": 8162,
      "Ġlimited": 8163,
      "123": 8164,
      "abase": 8165,
      "izing": 8166,
      "Ġprograms": 8167,
      "101": 8168,
      "ĠOxford": 8169,
      "Address": 8170,
      "arters": 8171,
      "ĠAlbert": 8172,
      "ä»¿": 8173,
      "Ġthought": 8174,
      "çħ®": 8175,
      "Ġvictory": 8176,
      "æķĻå¸Ī": 8177,
      "mann": 8178,
      "Ġgive": 8179,
      "ĠCoast": 8180,
      "èĢ¶": 8181,
      "ĠEll": 8182,
      "Ġentry": 8183,
      "æ±Ĺ": 8184,
      "address": 8185,
      "ï¼ŁâĢĿ": 8186,
      "å¿«ä¹Ĳ": 8187,
      "å¥Ķ": 8188,
      "æĸĩåŃĹ": 8189,
      "ĠBlue": 8190,
      "ograp": 8191,
      "anguages": 8192,
      "ä¸įåĨį": 8193,
      "ĠSecretary": 8194,
      "å°ıç±³": 8195,
      "ãĢģãĢĬ": 8196,
      "é¢ľèī²": 8197,
      "rics": 8198,
      "ĠDeath": 8199,
      "ĠAk": 8200,
      "Ġcouncil": 8201,
      "ç¬¬ä¸Ģä¸ª": 8202,
      "Ġforced": 8203,
      "å¢¨": 8204,
      "à¤": 8205,
      "itage": 8206,
      "ĠMinn": 8207,
      "Ġcontest": 8208,
      "ĠSenate": 8209,
      "åĪĽéĢł": 8210,
      "ĠEgypt": 8211,
      "ĠLy": 8212,
      "aily": 8213,
      "Ġpil": 8214,
      "Ġwide": 8215,
      "å¯¸": 8216,
      "è·¯ä¸Ĭ": 8217,
      "ski": 8218,
      "Ġded": 8219,
      "Ġclubs": 8220,
      "Ġtownship": 8221,
      "const": 8222,
      "Ġlonger": 8223,
      "ĠDie": 8224,
      "æĢĴ": 8225,
      "ä¸ŃåĮ»": 8226,
      "å¹¿ä¸ľ": 8227,
      "ĠWork": 8228,
      "Ġdiscuss": 8229,
      "åħ½": 8230,
      "stone": 8231,
      "PP": 8232,
      "éģĵçĲĨ": 8233,
      "aging": 8234,
      "erved": 8235,
      "ela": 8236,
      "Man": 8237,
      "ĉself": 8238,
      "äºı": 8239,
      "è°ĭ": 8240,
      "ĠMr": 8241,
      "Ġforeign": 8242,
      "ĠCorpor": 8243,
      "writer": 8244,
      "outheast": 8245,
      "igen": 8246,
      "å¾ª": 8247,
      "ĠBh": 8248,
      "wide": 8249,
      "ieuten": 8250,
      "event": 8251,
      "å¿ł": 8252,
      "entry": 8253,
      "Ġmiddle": 8254,
      "Ġuniversity": 8255,
      "å½¹": 8256,
      "ĠFour": 8257,
      "Ġfederal": 8258,
      "è®¡ç®Ĺæľº": 8259,
      "Ġactors": 8260,
      "62": 8261,
      "ĠPres": 8262,
      "éĿ¢è¯ķ": 8263,
      "Ġarrest": 8264,
      "çŀ¬": 8265,
      "Ġmunicipality": 8266,
      "osoph": 8267,
      "ervation": 8268,
      "ä»İå°ı": 8269,
      ")ï¼Į": 8270,
      "ä¸Ģæł·çļĦ": 8271,
      "Ġbatt": 8272,
      "ĠRoute": 8273,
      "hire": 8274,
      "åŃ¦ä¼ļ": 8275,
      "éĥİ": 8276,
      "çľĭè¿ĩ": 8277,
      "Ġwhether": 8278,
      "ĠIslam": 8279,
      "sm": 8280,
      "Ġroot": 8281,
      "ĠBroad": 8282,
      "æĻĴ": 8283,
      "ĠHa": 8284,
      "åĭ¤": 8285,
      "åĲĮäºĭ": 8286,
      "Ġnative": 8287,
      "äº«åıĹ": 8288,
      "ĠBern": 8289,
      "å°±åľ¨": 8290,
      "èĤ¡ä¸ľ": 8291,
      "Ġminutes": 8292,
      "urt": 8293,
      "ĠGood": 8294,
      "unn": 8295,
      "çļĦæĸ¹å¼ı": 8296,
      "Ġmile": 8297,
      "En": 8298,
      "æ¶Īè´¹èĢħ": 8299,
      "inem": 8300,
      "Ġoption": 8301,
      "ä¸¤ç§į": 8302,
      "ributes": 8303,
      "onia": 8304,
      "lers": 8305,
      "ried": 8306,
      "Ġcollab": 8307,
      "Ġspread": 8308,
      "ä½ľä¸ºä¸Ģä¸ª": 8309,
      "æµ®": 8310,
      "åĳ¨åĽ´": 8311,
      "ĠWild": 8312,
      "æĭħä»»": 8313,
      "ĠBal": 8314,
      "æµħ": 8315,
      "function": 8316,
      "æĪĺæĸĹ": 8317,
      "ĠBir": 8318,
      "ulpt": 8319,
      "Ġofficers": 8320,
      "Ġconcept": 8321,
      "ĠIslands": 8322,
      "ä»Ģä¹Īæł·çļĦ": 8323,
      "ĠEnter": 8324,
      "uge": 8325,
      "icode": 8326,
      "æīĢæľīçļĦ": 8327,
      "Ġcommunities": 8328,
      "å®ļçļĦ": 8329,
      "çģ¾": 8330,
      "kins": 8331,
      "ustr": 8332,
      "Ġenergy": 8333,
      "Ġagre": 8334,
      "ĠLittle": 8335,
      "éĤ£éĩĮ": 8336,
      "Ġvote": 8337,
      "ĠSwedish": 8338,
      "phy": 8339,
      "Ġsearch": 8340,
      "uple": 8341,
      "æľīæīĢ": 8342,
      "Ġautom": 8343,
      "æĭĨ": 8344,
      "å°ĳå¹´": 8345,
      "ĠMunicip": 8346,
      "ĠBiography": 8347,
      "ĠMid": 8348,
      "respond": 8349,
      "IV": 8350,
      "å¤ªéĺ³": 8351,
      "Ġpick": 8352,
      "å®ŀéĻħä¸Ĭ": 8353,
      "è¿ĺåı¯ä»¥": 8354,
      "obile": 8355,
      "Ġresidents": 8356,
      "antry": 8357,
      "eb": 8358,
      "çļĦå¿ĥ": 8359,
      "ĠHarr": 8360,
      "Ġgoing": 8361,
      "ĠJackson": 8362,
      "Ġremaining": 8363,
      "ledge": 8364,
      "Bl": 8365,
      "Ġcollect": 8366,
      "lease": 8367,
      "ĠLatin": 8368,
      "æĲľç´¢": 8369,
      "elled": 8370,
      "è¦Ĩ": 8371,
      "Ġscript": 8372,
      "çī¹åĪ«æĺ¯": 8373,
      "èµĶ": 8374,
      "ä¾¿å®ľ": 8375,
      "Che": 8376,
      "å¤ĸåĽ½": 8377,
      "åĲ¯åĬ¨": 8378,
      "urb": 8379,
      "åĵ²": 8380,
      "ä¸Ģå¼ł": 8381,
      "ĠCard": 8382,
      "Ġarray": 8383,
      "åįģå¹´": 8384,
      "dec": 8385,
      "Ġremains": 8386,
      "æĸĩæĺİ": 8387,
      "ä¿©": 8388,
      "Pl": 8389,
      "greg": 8390,
      "ĠOf": 8391,
      "ĠHospital": 8392,
      "å°½éĩı": 8393,
      "ĠSpe": 8394,
      "more": 8395,
      "æĿŃ": 8396,
      "ç©ºæ°Ķ": 8397,
      "æłı": 8398,
      "Ġmuseum": 8399,
      "ĠCorn": 8400,
      "cul": 8401,
      "èĭ±æĸĩ": 8402,
      "çļĦæĸ¹æ³ķ": 8403,
      "çļĦçĶŁæ´»": 8404,
      "source": 8405,
      "nes": 8406,
      "åĩĮ": 8407,
      "ĠMu": 8408,
      "yo": 8409,
      "Not": 8410,
      "rang": 8411,
      "è¿ĺä¼ļ": 8412,
      "çº½": 8413,
      "æĲŃéħį": 8414,
      "Ġevidence": 8415,
      "ä½łä¼ļ": 8416,
      "çĬ¶åĨµ": 8417,
      "ä¸ŃåĽ½äºº": 8418,
      "ĠFer": 8419,
      "SM": 8420,
      "abs": 8421,
      "ĠJr": 8422,
      "TR": 8423,
      "ĠShow": 8424,
      "Ġdise": 8425,
      "éļ¾ä»¥": 8426,
      "èĢģå©Ĩ": 8427,
      "å½¼": 8428,
      "é»Ħéĩĳ": 8429,
      "Ġchall": 8430,
      "wa": 8431,
      "ĠSund": 8432,
      "Ġcontain": 8433,
      "ĠLim": 8434,
      "ĠEarth": 8435,
      "items": 8436,
      "Ġclaimed": 8437,
      "Ġmeeting": 8438,
      "VID": 8439,
      "Ġremain": 8440,
      "inger": 8441,
      "sen": 8442,
      "New": 8443,
      "åİŁåĪĻ": 8444,
      "èį¡": 8445,
      "ĠSea": 8446,
      "ĠAlexander": 8447,
      "ĠOF": 8448,
      "ĠUl": 8449,
      "String": 8450,
      "æīĵç®Ĺ": 8451,
      "ä¹°äºĨ": 8452,
      "ĠSurvey": 8453,
      "Ġstarting": 8454,
      "æĪĸè®¸": 8455,
      "Ġarm": 8456,
      "Ġmostly": 8457,
      "Ġlarger": 8458,
      "63": 8459,
      "python": 8460,
      "ĠPrime": 8461,
      "ç»ĦåĲĪ": 8462,
      "Ġsymb": 8463,
      "Ġfamous": 8464,
      "=[": 8465,
      "bass": 8466,
      "Ã¡n": 8467,
      "Ġhistorical": 8468,
      "Ġconsider": 8469,
      "ederation": 8470,
      "Ġwrite": 8471,
      "Ġfle": 8472,
      "åħ¬åĽŃ": 8473,
      "æī¶": 8474,
      "copy": 8475,
      "SU": 8476,
      "Ġprovides": 8477,
      "Ġparticularly": 8478,
      "ä¹Łè¦ģ": 8479,
      "iring": 8480,
      "Ġshoot": 8481,
      "Ġax": 8482,
      "æĬķåħ¥": 8483,
      "çĹĽèĭ¦": 8484,
      "è®°å¿Ĩ": 8485,
      "èĪªç©º": 8486,
      "Ip": 8487,
      "Ġpain": 8488,
      "åĪĨä¸º": 8489,
      "Ġmsg": 8490,
      "Ġchannel": 8491,
      "unct": 8492,
      "Ġincrease": 8493,
      "link": 8494,
      "ĠAut": 8495,
      "func": 8496,
      "ĠCat": 8497,
      "ĠHome": 8498,
      "æĳĦå½±": 8499,
      "mas": 8500,
      "apers": 8501,
      "ĠRay": 8502,
      "And": 8503,
      "åľ°çĲĨ": 8504,
      "Ġinstitut": 8505,
      "èµ«": 8506,
      "åħ¹": 8507,
      "ĠSyd": 8508,
      "å®ł": 8509,
      "ga": 8510,
      "å¤©å¤©": 8511,
      "ä¿ĥè¿Ľ": 8512,
      "ieutenant": 8513,
      "ä¸įåľ¨": 8514,
      "ambda": 8515,
      "riz": 8516,
      "æĹħè¡Į": 8517,
      "'re": 8518,
      "ä»İäºĭ": 8519,
      "ĠBerlin": 8520,
      "æĻ¶": 8521,
      "(_": 8522,
      "enge": 8523,
      "ĠAsh": 8524,
      "Ġquick": 8525,
      "Ġmight": 8526,
      "ä»İèĢĮ": 8527,
      "Ġprofessor": 8528,
      "Ġsister": 8529,
      "ĠCapt": 8530,
      "ç»ĦæĪĲ": 8531,
      "Ġpresented": 8532,
      "éĢ»è¾ĳ": 8533,
      "Ġappears": 8534,
      "æŃ¦åĻ¨": 8535,
      "icks": 8536,
      "æĹ¢çĦ¶": 8537,
      "ĠMov": 8538,
      "sky": 8539,
      "çĽ¸åĲĮ": 8540,
      "åĲ¬è¯´": 8541,
      "Ġvon": 8542,
      "Âº": 8543,
      "ä¹Ļ": 8544,
      "176": 8545,
      "main": 8546,
      "å¤§ä¼ļ": 8547,
      "enger": 8548,
      "Ġborder": 8549,
      "ĠAndrew": 8550,
      "Ġcoll": 8551,
      "åıĳè¡¨": 8552,
      "æ´ª": 8553,
      "chen": 8554,
      "objects": 8555,
      "ouri": 8556,
      "parent": 8557,
      "ãĢģâĢľ": 8558,
      "Ġobjects": 8559,
      "olitan": 8560,
      "Ġnet": 8561,
      "è§ģè¿ĩ": 8562,
      "find": 8563,
      "ï¼ī<": 8564,
      "cean": 8565,
      "flo": 8566,
      "wise": 8567,
      "ä¸Ģä¸ªæľĪ": 8568,
      "çĲĥéĺŁ": 8569,
      "Ġparents": 8570,
      "Data": 8571,
      "Ġtechnology": 8572,
      "61": 8573,
      "æ³¥": 8574,
      "ĠKen": 8575,
      "åįĥä¸ĩ": 8576,
      "efore": 8577,
      "Ġice": 8578,
      "Ġrecording": 8579,
      "Ġnine": 8580,
      "itter": 8581,
      "å§»": 8582,
      "Ġtoday": 8583,
      "çŃĶä¸»": 8584,
      "èĩ³ä»Ĭ": 8585,
      "92": 8586,
      "é«ĺéĢŁ": 8587,
      "Ġroom": 8588,
      "ç»Ļä»ĸ": 8589,
      "acc": 8590,
      "å¸¸è§ģ": 8591,
      "åľ°çļĦ": 8592,
      "Ġpsych": 8593,
      "values": 8594,
      "Ġcities": 8595,
      "æľŁçļĦ": 8596,
      "æ¶īåıĬ": 8597,
      "ĠGirl": 8598,
      "Ġsubsequently": 8599,
      "Ġoccas": 8600,
      "kin": 8601,
      "æĶ¹åĸĦ": 8602,
      "ä½ĨæĪĳ": 8603,
      "ais": 8604,
      "All": 8605,
      "Ġprincip": 8606,
      "vest": 8607,
      "ental": 8608,
      "Ind": 8609,
      "åĬŀçĲĨ": 8610,
      "æİĮæı¡": 8611,
      "Ġsec": 8612,
      "æĳĩ": 8613,
      "includ": 8614,
      "Ġreferred": 8615,
      "ĠRem": 8616,
      "Ġnecess": 8617,
      "å¡ĳ": 8618,
      "éĢĨ": 8619,
      "èŃ¦å¯Ł": 8620,
      "åĪºæ¿Ģ": 8621,
      "æ»ļ": 8622,
      "thur": 8623,
      "ä¹Łä¸įæĺ¯": 8624,
      "ricts": 8625,
      "æķ°åŃĹ": 8626,
      "ç¢į": 8627,
      "å±ħçĦ¶": 8628,
      "çļĦå½±åĵį": 8629,
      "ĠCensus": 8630,
      "ker": 8631,
      "Ġshape": 8632,
      "åľ¨æŃ¤": 8633,
      "ĠEliz": 8634,
      "Ġdirectly": 8635,
      "éĢļçŁ¥": 8636,
      "Ġmap": 8637,
      "å°±ä¸ļ": 8638,
      "Ġpy": 8639,
      "filter": 8640,
      "æĻ®éģį": 8641,
      "èģĶçĽŁ": 8642,
      "çĸ¯": 8643,
      "Ġmention": 8644,
      "Ġcomedy": 8645,
      "Ġthreat": 8646,
      "Base": 8647,
      "ï¼ģâĢĿ": 8648,
      "vement": 8649,
      "chang": 8650,
      "esota": 8651,
      "æīĢåľ¨": 8652,
      "eful": 8653,
      "ĠJes": 8654,
      "Ġstore": 8655,
      "Ġspeed": 8656,
      "ĠTheir": 8657,
      "ĠBBC": 8658,
      "æĢ»ç»Ł": 8659,
      "ĠPersonal": 8660,
      "éĹª": 8661,
      "æģ°": 8662,
      "åįıè®®": 8663,
      "å¨ľ": 8664,
      "å°ıç»Ħ": 8665,
      "åĽŀåĪ°": 8666,
      "Ġbring": 8667,
      "Ġmock": 8668,
      "å¥³åŃĲ": 8669,
      "ĠâĹı": 8670,
      "vol": 8671,
      "Ġanim": 8672,
      "ĠCommon": 8673,
      "åĪĨå¸ĥ": 8674,
      "çĸ«": 8675,
      "åĩ¤": 8676,
      "enty": 8677,
      "Ġtemper": 8678,
      "å°±æľī": 8679,
      "exp": 8680,
      "ä»£çłģ": 8681,
      "uint": 8682,
      "å®ı": 8683,
      "ĠWall": 8684,
      "ĠVictoria": 8685,
      "CA": 8686,
      "Ġhouses": 8687,
      "Ġeastern": 8688,
      "Ġinsp": 8689,
      "å®ŀåĬĽ": 8690,
      "%)": 8691,
      "çĮľ": 8692,
      "ĠTri": 8693,
      "eta": 8694,
      "filename": 8695,
      "Ġdjango": 8696,
      "åĩıèĤ¥": 8697,
      "102": 8698,
      "current": 8699,
      "Ġoverall": 8700,
      "ĠNight": 8701,
      "ynam": 8702,
      "ĠColor": 8703,
      "works": 8704,
      "æ·ĺå®Ŀ": 8705,
      "Ġchem": 8706,
      "thing": 8707,
      "Case": 8708,
      "Ġcandidate": 8709,
      "åĨħå¿ĥ": 8710,
      "Ġcrew": 8711,
      "å±±ä¸ľ": 8712,
      "umer": 8713,
      "çķħ": 8714,
      "ĠSte": 8715,
      "Ġprotest": 8716,
      "æĹĭ": 8717,
      "[:": 8718,
      "ourse": 8719,
      "onto": 8720,
      "Ġobj": 8721,
      "ä¸įåĸľæ¬¢": 8722,
      "Ġkind": 8723,
      "ĠOs": 8724,
      "Ġseparate": 8725,
      "actory": 8726,
      "ĠMinistry": 8727,
      "sible": 8728,
      "çľģä»½": 8729,
      "selves": 8730,
      "ESS": 8731,
      "Ġthemselves": 8732,
      "acity": 8733,
      "ä¸¾è¡Į": 8734,
      "ĠKenn": 8735,
      "Ġprevent": 8736,
      "ä»¤äºº": 8737,
      "è§Ĥä¼Ĺ": 8738,
      "itting": 8739,
      "æ³ķéĻ¢": 8740,
      "eline": 8741,
      "éĿĴå¹´": 8742,
      "ç±»åŀĭ": 8743,
      "server": 8744,
      "Ġparties": 8745,
      "çľŁçļĦæĺ¯": 8746,
      "æģ¨": 8747,
      "Ġsurface": 8748,
      "ologist": 8749,
      "ĠKorea": 8750,
      "æ¤įçī©": 8751,
      "82": 8752,
      "foo": 8753,
      "Ġcompil": 8754,
      "ivity": 8755,
      "ç§¦": 8756,
      "è¶³å¤Ł": 8757,
      ")čĊ": 8758,
      "ĠOtt": 8759,
      "ĠBoy": 8760,
      "ĠViet": 8761,
      "ĠSydney": 8762,
      "Ġdepartment": 8763,
      "Ġforest": 8764,
      "Ġnumbers": 8765,
      "Ġwant": 8766,
      "Ġweeks": 8767,
      "std": 8768,
      "å¤§ä¼Ĺ": 8769,
      "Ġstay": 8770,
      "ellig": 8771,
      "Ġgra": 8772,
      "atively": 8773,
      "å½¢è±¡": 8774,
      "ĠWay": 8775,
      "ï¼ģï¼ģ": 8776,
      "ounds": 8777,
      "ql": 8778,
      "ç¼ĸçłģ": 8779,
      "Attribute": 8780,
      "çļĦåıĳå±ķ": 8781,
      "SI": 8782,
      "å®ļä¹ī": 8783,
      "ç¥ŀç»ı": 8784,
      "Ġ{}Ċ": 8785,
      "ä¸ĬçıŃ": 8786,
      "emet": 8787,
      "Ġremoved": 8788,
      "Ġequal": 8789,
      "ĠBol": 8790,
      "å®ŀä¹ł": 8791,
      "ĠBusiness": 8792,
      "peror": 8793,
      "èĢĥçłĶ": 8794,
      "ĠRog": 8795,
      "found": 8796,
      "ĠDaniel": 8797,
      "ĠMinnesota": 8798,
      "æĮĩåĩº": 8799,
      "Ġlos": 8800,
      "Ġpersonnel": 8801,
      "inity": 8802,
      "åįļå£«": 8803,
      "Ġcompeted": 8804,
      "uster": 8805,
      "æĮ¯": 8806,
      "åľ°éĵģ": 8807,
      "body": 8808,
      "å°Ŀè¯ķ": 8809,
      "ancy": 8810,
      "âĳ": 8811,
      "93": 8812,
      "DP": 8813,
      "Ġproposed": 8814,
      "Ġeth": 8815,
      "Ġdead": 8816,
      "ĠGallery": 8817,
      "Ġwords": 8818,
      "æİ¨è¿Ľ": 8819,
      "chester": 8820,
      "ru": 8821,
      "éĩįåºĨ": 8822,
      "ĠPoint": 8823,
      "active": 8824,
      "Ġcat": 8825,
      "çĲĨæĥ³": 8826,
      "miss": 8827,
      "ĠNotable": 8828,
      "close": 8829,
      "Ġbelieved": 8830,
      "Ġalone": 8831,
      "Ġmakes": 8832,
      "files": 8833,
      "çĿ¡è§ī": 8834,
      "äººä½ĵ": 8835,
      "ĠUs": 8836,
      "ĠRegiment": 8837,
      "èĤ¾": 8838,
      "ĠTok": 8839,
      "ä¸ŃåŃ¦": 8840,
      "å¯Ĩåº¦": 8841,
      "Ġmechan": 8842,
      "æĬĢå·§": 8843,
      "Ġdetails": 8844,
      "post": 8845,
      "ç®ĢçĽ´": 8846,
      "Ġcarried": 8847,
      "uri": 8848,
      "ras": 8849,
      "bro": 8850,
      "Le": 8851,
      "çĶµè§Ĩåī§": 8852,
      "No": 8853,
      "ĠNations": 8854,
      "ĠThree": 8855,
      "umed": 8856,
      "This": 8857,
      "éĩįå¤§": 8858,
      "è·ĥ": 8859,
      "ãĥ¼": 8860,
      "ĠWorks": 8861,
      "æĪĸæĺ¯": 8862,
      "æľºåħ³": 8863,
      "æĲ¬": 8864,
      "Ġexc": 8865,
      "ä¸Ĭæ¶¨": 8866,
      "Ġreason": 8867,
      "73": 8868,
      "Ġcomposed": 8869,
      "Ġsyn": 8870,
      "INE": 8871,
      "Ġorganizations": 8872,
      "ç¨¿": 8873,
      "éº»çĥ¦": 8874,
      "ĠTurk": 8875,
      "éŃĤ": 8876,
      "çŁĽ": 8877,
      "æ²ŁéĢļ": 8878,
      "Ġbaseball": 8879,
      "una": 8880,
      "âĺ": 8881,
      "ĠTod": 8882,
      "ifier": 8883,
      "Ġpattern": 8884,
      "Ġunivers": 8885,
      "è¿Ł": 8886,
      "hew": 8887,
      "ä¸ŃéĹ´": 8888,
      "æĻĭ": 8889,
      "Ġmeaning": 8890,
      "Ġchart": 8891,
      "Ġearned": 8892,
      "ç¿»è¯ĳ": 8893,
      "Ġdiss": 8894,
      "81": 8895,
      "ione": 8896,
      "ĠGh": 8897,
      "ä¸Ģåı¥": 8898,
      "'}),Ċ": 8899,
      "Ġlatter": 8900,
      "ez": 8901,
      "uts": 8902,
      "è§ĦåĪĻ": 8903,
      "Ġlibrary": 8904,
      "ĠBand": 8905,
      "ĠWeek": 8906,
      "cp": 8907,
      "Ġdescent": 8908,
      "Ġ[Ċ": 8909,
      "illy": 8910,
      "ä¸įåĩº": 8911,
      "icient": 8912,
      "[-": 8913,
      "Ġinn": 8914,
      "éĹ®é¢ĺçļĦ": 8915,
      "å¤´åıĳ": 8916,
      "Ġfoot": 8917,
      "äºĮç»´": 8918,
      "actions": 8919,
      "çĹĺ": 8920,
      "akh": 8921,
      "ä½łæĺ¯": 8922,
      "title": 8923,
      "åĮĸåŃ¦": 8924,
      "lav": 8925,
      "åį§": 8926,
      "æĹ¥åŃĲ": 8927,
      "Ġtroops": 8928,
      "Ġess": 8929,
      "Ġawards": 8930,
      "Ġserve": 8931,
      "ĠSom": 8932,
      "é¥®é£Ł": 8933,
      "å£¤": 8934,
      "Ġadj": 8935,
      "Ġcontribut": 8936,
      "çłĶç©¶çĶŁ": 8937,
      "å§¿": 8938,
      "Ġdistribution": 8939,
      "å·®ä¸įå¤ļ": 8940,
      "fe": 8941,
      "ĠProject": 8942,
      "pha": 8943,
      "ĠArm": 8944,
      "PE": 8945,
      "Ġgraph": 8946,
      "Ġlay": 8947,
      "å¸¦çĿĢ": 8948,
      "Ġproducts": 8949,
      "Ġhelped": 8950,
      "Ġarticle": 8951,
      "Ġfinancial": 8952,
      "ĠProduction": 8953,
      "ä»°": 8954,
      "Ġpow": 8955,
      "Ġcause": 8956,
      "èĢĢ": 8957,
      "illed": 8958,
      "Ġheavy": 8959,
      "Ġfort": 8960,
      "ĠKorean": 8961,
      "é©¬ä¸Ĭ": 8962,
      "Ġfaculty": 8963,
      "ĠBoth": 8964,
      "ĠDespite": 8965,
      "yer": 8966,
      "has": 8967,
      "Ġacquired": 8968,
      "ĠSquad": 8969,
      "*-": 8970,
      "uated": 8971,
      "Ġmovie": 8972,
      "ariable": 8973,
      "åŃ©åŃĲçļĦ": 8974,
      "84": 8975,
      "Ġsecurity": 8976,
      "Ġcitiz": 8977,
      "çĬ¹": 8978,
      "Ġyouth": 8979,
      "ĠSa": 8980,
      "Ġconcert": 8981,
      "image": 8982,
      "æĪ¿åľ°äº§": 8983,
      "ĠValue": 8984,
      "çļĦæķħäºĭ": 8985,
      "esh": 8986,
      "Up": 8987,
      "ç¾¤ä¼Ĺ": 8988,
      "éļıä¾¿": 8989,
      "ĠMir": 8990,
      "ĠOnt": 8991,
      "Ġsources": 8992,
      "Ġleaving": 8993,
      "aven": 8994,
      "å°½ç®¡": 8995,
      "Ġoffered": 8996,
      "71": 8997,
      "çŀ¬éĹ´": 8998,
      "äºĨå¾Īå¤ļ": 8999,
      "Ġprop": 9000,
      "imb": 9001,
      "æī¿è®¤": 9002,
      "91": 9003,
      "èį¯çī©": 9004,
      "Ġregional": 9005,
      "ĠWIT": 9006,
      "æĭįæĳĦ": 9007,
      "Ġsucceed": 9008,
      "çľĭèµ·æĿ¥": 9009,
      "ä¸ĢæĹ¦": 9010,
      "èµ¤": 9011,
      "ĠAlso": 9012,
      "ç»ĺ": 9013,
      "Ġagreed": 9014,
      "teen": 9015,
      "ĠProgram": 9016,
      "Ġsociety": 9017,
      "ĠEst": 9018,
      "æĢ»ç»ĵ": 9019,
      "uries": 9020,
      "è´¢åĬ¡": 9021,
      "è¿ĳæĹ¥": 9022,
      "ç«¹": 9023,
      "Ġnewspaper": 9024,
      "ously": 9025,
      "ç³Ĭ": 9026,
      "Ġsu": 9027,
      "Ġtask": 9028,
      "èĳ¡": 9029,
      "buf": 9030,
      "360": 9031,
      "é»İ": 9032,
      "æĦĪ": 9033,
      "æĽ´æĺ¯": 9034,
      "ĠRod": 9035,
      "çªģçł´": 9036,
      "andon": 9037,
      "ä¸Ģè¾¹": 9038,
      "èĽĭçĻ½": 9039,
      "ĠDer": 9040,
      "Ġrecent": 9041,
      "empty": 9042,
      "ĠBab": 9043,
      "å©ļå§»": 9044,
      "è¯´è¯´": 9045,
      "ensions": 9046,
      "\"),": 9047,
      "æľºåľº": 9048,
      "Ġdemon": 9049,
      "Ġsession": 9050,
      "éĶ»": 9051,
      "UTC": 9052,
      "Ġyield": 9053,
      "Ġonline": 9054,
      "Model": 9055,
      "izes": 9056,
      "ĠNether": 9057,
      "æıĲç¤º": 9058,
      "zech": 9059,
      "Ġvan": 9060,
      "ĠHy": 9061,
      "ĠFamily": 9062,
      "æľĢæĸ°": 9063,
      "uccess": 9064,
      "å¤§å®¶éĥ½": 9065,
      "èģª": 9066,
      "Ġextended": 9067,
      "ĠAnother": 9068,
      "Ġproblems": 9069,
      "Ġglobal": 9070,
      "åįµ": 9071,
      "æĪĳçŁ¥éģĵ": 9072,
      "ĠQueens": 9073,
      "keys": 9074,
      "Ġbre": 9075,
      "Ġmode": 9076,
      "ĠCommunity": 9077,
      "Ġpromoted": 9078,
      "ĠJeff": 9079,
      "Ġlimit": 9080,
      "Ġcultural": 9081,
      "å¤©æ´¥": 9082,
      "æĹ¶å°ļ": 9083,
      "æ»¨": 9084,
      "Ġtracks": 9085,
      "è½¦åŀĭ": 9086,
      "ĠSerb": 9087,
      "å¹´æĿ¥": 9088,
      "ä¼į": 9089,
      "lem": 9090,
      "cs": 9091,
      "eld": 9092,
      "Ġappearances": 9093,
      "ĠLET": 9094,
      "ĠLight": 9095,
      "ĠPrize": 9096,
      "Ġmarriage": 9097,
      "å¸®å¿Ļ": 9098,
      "Ġalleg": 9099,
      "äºļæ´²": 9100,
      "Ġorigin": 9101,
      "èŁ": 9102,
      "å¯¼æ¼Ķ": 9103,
      "refix": 9104,
      "Ġhospital": 9105,
      "ĠBooks": 9106,
      "éĶ¦": 9107,
      "fail": 9108,
      "Ġly": 9109,
      "np": 9110,
      "Ġvariety": 9111,
      "åįıä¼ļ": 9112,
      "åħ¬å®ī": 9113,
      "èĩªè¡Į": 9114,
      "å¤ªç©º": 9115,
      "ä¼Ļä¼´": 9116,
      "æĬĽ": 9117,
      "icine": 9118,
      "ucky": 9119,
      "èĥ½éĩı": 9120,
      "æ±ģ": 9121,
      "ĠCON": 9122,
      "ĠHuman": 9123,
      "åħħåĪĨ": 9124,
      "éĿ©åĳ½": 9125,
      "æĸĳ": 9126,
      "Ġmix": 9127,
      "ĠFederal": 9128,
      "ç¾½": 9129,
      "Â¸": 9130,
      "åĽ½æ°ĳ": 9131,
      "èĥ½æºĲ": 9132,
      "df": 9133,
      "é¦ĸæ¬¡": 9134,
      "åľ¨è¿ĻéĩĮ": 9135,
      "FI": 9136,
      "è´¡": 9137,
      "Ġbehav": 9138,
      "ĠGNU": 9139,
      "ä¹Łèĥ½": 9140,
      "icted": 9141,
      "ennes": 9142,
      "æķĻåŃ¦": 9143,
      "Ġbranch": 9144,
      "Ġcorrespond": 9145,
      "ĠPrim": 9146,
      "çļĨ": 9147,
      "ĠJustice": 9148,
      "ortheast": 9149,
      "Ġrules": 9150,
      "æıĲåīį": 9151,
      "åıĳåĬ¨æľº": 9152,
      "å¾¡": 9153,
      "Ġflag": 9154,
      "EST": 9155,
      "Ġpeak": 9156,
      "Ġenough": 9157,
      "ĠPen": 9158,
      "74": 9159,
      "Ġip": 9160,
      "æĿĨ": 9161,
      "ĠFire": 9162,
      "Ġlink": 9163,
      "Ġpositive": 9164,
      "Ġcorn": 9165,
      "Ġvs": 9166,
      "label": 9167,
      "ĠLev": 9168,
      "ĠAlbum": 9169,
      "ĠJon": 9170,
      "Ġepisodes": 9171,
      "ffic": 9172,
      "Ġinfluence": 9173,
      "ĠBell": 9174,
      "Ġneeded": 9175,
      "è®©ä»ĸ": 9176,
      "ĠRevolution": 9177,
      "Ġtag": 9178,
      "ĠLew": 9179,
      "åıĳæĮ¥": 9180,
      "Ġtree": 9181,
      "ronic": 9182,
      "Ad": 9183,
      "é¼ł": 9184,
      "åľŁåľ°": 9185,
      "ĠLETTER": 9186,
      "Ra": 9187,
      "Wh": 9188,
      "æĥ³è±¡": 9189,
      "virt": 9190,
      "ĠCharl": 9191,
      "owa": 9192,
      "å£®": 9193,
      "è¯ĨåĪ«": 9194,
      "ĠPubl": 9195,
      "ä¾ł": 9196,
      "Ġunknown": 9197,
      "rovers": 9198,
      "ambig": 9199,
      "æĹ©ä¸Ĭ": 9200,
      "anth": 9201,
      "ropolitan": 9202,
      "osa": 9203,
      "Ġface": 9204,
      "agn": 9205,
      "Ġcharg": 9206,
      "Ġcer": 9207,
      "Ġmethods": 9208,
      "æŃĮæĽ²": 9209,
      "94": 9210,
      "åİīå®³": 9211,
      "utt": 9212,
      "æĦıåĳ³": 9213,
      "çļĦä¸Ģç§į": 9214,
      "Ġletter": 9215,
      "consin": 9216,
      "ĠBaseball": 9217,
      "åħ¬åĳĬ": 9218,
      "urity": 9219,
      "uing": 9220,
      "Ġaccepted": 9221,
      "éŃħ": 9222,
      "Ġserver": 9223,
      "idents": 9224,
      "Ġpan": 9225,
      "ĠFar": 9226,
      "é¢ĺçĽ®": 9227,
      "ãĢĭãĢģãĢĬ": 9228,
      "ĠSab": 9229,
      "è¡Įæĥħ": 9230,
      "åħĦå¼Ł": 9231,
      "æĢ§èĥ½": 9232,
      "æĪĲéĥ½": 9233,
      "83": 9234,
      "edia": 9235,
      "å¤¹": 9236,
      "é½¿": 9237,
      "èµļéĴ±": 9238,
      "ĠSem": 9239,
      "ARR": 9240,
      "åĲĮæĦı": 9241,
      "éĤ»": 9242,
      "ĠMedia": 9243,
      "168": 9244,
      "Ġconsists": 9245,
      "amin": 9246,
      "akers": 9247,
      "ader": 9248,
      "ĠTechnology": 9249,
      "ĠVen": 9250,
      "Ġwinner": 9251,
      "amber": 9252,
      "ĠNative": 9253,
      "æĪĳä¼ļ": 9254,
      "Ġresponsible": 9255,
      "Ġnearby": 9256,
      "erial": 9257,
      "Ġq": 9258,
      "phia": 9259,
      "ption": 9260,
      "VD": 9261,
      "ĠTay": 9262,
      "~~": 9263,
      "pty": 9264,
      "ĠOntario": 9265,
      "Ġbridge": 9266,
      "ĠDuke": 9267,
      "Ġbomb": 9268,
      "nic": 9269,
      "Ġpp": 9270,
      "SC": 9271,
      "irmed": 9272,
      "Ġmainly": 9273,
      "ĠChap": 9274,
      "Ġpoor": 9275,
      "Ġframe": 9276,
      "ĠElizabeth": 9277,
      "Ġexperience": 9278,
      "Ġhar": 9279,
      "ĠRome": 9280,
      "Ġbrief": 9281,
      "äºĮç»´çłģ": 9282,
      "match": 9283,
      "æĪĳèĩªå·±": 9284,
      "æ¸ł": 9285,
      "æ¼ı": 9286,
      "Ġcard": 9287,
      "ĠBon": 9288,
      "Ġbackground": 9289,
      "Ġjoin": 9290,
      "æıĲéĨĴ": 9291,
      "ĠPers": 9292,
      "è¾©": 9293,
      "ĠCommand": 9294,
      "ictionary": 9295,
      "Ġsort": 9296,
      "æİ¨åĩº": 9297,
      "aped": 9298,
      "æ¢¯": 9299,
      "Ġgraduated": 9300,
      "ä¸įæķ¢": 9301,
      "çļĦä¸Ģä¸ªå¸Ĥéķĩ": 9302,
      "æĴ¤": 9303,
      "Ġdefined": 9304,
      "ĠBrig": 9305,
      "Ipv": 9306,
      "rolled": 9307,
      "æ·»åĬł": 9308,
      "ĠTai": 9309,
      "ĠRaj": 9310,
      "ĠAnton": 9311,
      "åĨĻçļĦ": 9312,
      "çľŁæŃ£çļĦ": 9313,
      "ĠJoe": 9314,
      "ĠSupreme": 9315,
      "Ġconstitu": 9316,
      "Ġpaper": 9317,
      "Object": 9318,
      "æĮ¡": 9319,
      "ĠPakistan": 9320,
      "åįģäºĮ": 9321,
      "åĪĿä¸Ń": 9322,
      "ureau": 9323,
      "å¤§åŃ¦çĶŁ": 9324,
      "æĢĢåŃķ": 9325,
      "Ġdiscovered": 9326,
      "åķ¡": 9327,
      "é«ĺçº§": 9328,
      "Ġcontaining": 9329,
      "åĮĸå¦Ĩ": 9330,
      "Ġweight": 9331,
      "é¢Ħè®¡": 9332,
      "orter": 9333,
      "ighter": 9334,
      "ä¸ĵéĹ¨": 9335,
      "å¢ĵ": 9336,
      "ĠPremier": 9337,
      "ĠNorw": 9338,
      "èĢģäºº": 9339,
      "è£ħä¿®": 9340,
      "Ġprovince": 9341,
      "ething": 9342,
      "åĲİéĿ¢": 9343,
      "ĠWisconsin": 9344,
      "Ġexisting": 9345,
      "çŁ¥åıĭ": 9346,
      "Ġexpress": 9347,
      "ĠWilson": 9348,
      "Ð»": 9349,
      "Ġlikely": 9350,
      "QQ": 9351,
      "ĠPopulated": 9352,
      "éģĵè·¯": 9353,
      "äººæīį": 9354,
      "ĠBatt": 9355,
      "æĤĶ": 9356,
      "Ġrural": 9357,
      "gu": 9358,
      "ĠStephen": 9359,
      "Ġtrib": 9360,
      "ĠCorporation": 9361,
      "hu": 9362,
      "ä»ĸæĺ¯": 9363,
      "ĠSher": 9364,
      "ami": 9365,
      "project": 9366,
      "ĠProfessor": 9367,
      "Ġdevice": 9368,
      "\\\\": 9369,
      "des": 9370,
      "åĽĽå·Ŀ": 9371,
      "ĠBad": 9372,
      "åıįæŃ£": 9373,
      "een": 9374,
      "è®¾æĸ½": 9375,
      "Ġdifficult": 9376,
      "Ġconflict": 9377,
      "ĠCambridge": 9378,
      "åŀĥ": 9379,
      "æŁľ": 9380,
      "Ġissued": 9381,
      "çĪ±å¥½": 9382,
      "éĥ¨éĺŁ": 9383,
      "Ġoil": 9384,
      "ĠStat": 9385,
      "gor": 9386,
      "adelphia": 9387,
      "Â°": 9388,
      "ĠBa": 9389,
      "option": 9390,
      "Ġ',": 9391,
      "åĨľä¸ļ": 9392,
      "ä½Ĩæĺ¯æĪĳ": 9393,
      "Ġturned": 9394,
      "long": 9395,
      "last": 9396,
      "å¿§": 9397,
      "Ġarrived": 9398,
      "ications": 9399,
      "å¼ºè°ĥ": 9400,
      "Ġwhole": 9401,
      "åģļæ³ķ": 9402,
      "ĠStadium": 9403,
      "ĠMarg": 9404,
      "åĲ¬åĪ°": 9405,
      "Ġconstructed": 9406,
      "yes": 9407,
      "Ġ|": 9408,
      "èĲĦ": 9409,
      "ä¸Ģå¼Ģå§ĭ": 9410,
      "Ġhonor": 9411,
      "ogue": 9412,
      "Ġvotes": 9413,
      "ĠNetherlands": 9414,
      "Ġfre": 9415,
      "ependence": 9416,
      "Ġdespite": 9417,
      "ä¸¤äºº": 9418,
      "æĽ´å¤ļçļĦ": 9419,
      "Ġdepart": 9420,
      "wick": 9421,
      "æ¸£": 9422,
      "Ġauth": 9423,
      "undred": 9424,
      "æīĵéĢł": 9425,
      "Ġthr": 9426,
      "è·ŁæĪĳ": 9427,
      "çİ»": 9428,
      "ä¸¥æł¼": 9429,
      "ç©¶ç«Ł": 9430,
      "ĠGer": 9431,
      "ĠEs": 9432,
      "ĠGuard": 9433,
      "æ®ĸ": 9434,
      "mission": 9435,
      "åĬ³åĬ¨": 9436,
      "Ġproblem": 9437,
      "ĠCzech": 9438,
      "Ġlanguages": 9439,
      "ç¿¼": 9440,
      "Ġneighbor": 9441,
      "æ¡Ĩ": 9442,
      "ĠAlb": 9443,
      "ĠBC": 9444,
      "éĩĩåıĸ": 9445,
      "æİ¨åĬ¨": 9446,
      "è¿ĺæ²¡æľī": 9447,
      "Ġdefeat": 9448,
      "])": 9449,
      "Ġleave": 9450,
      "å´ĩ": 9451,
      "èĳ¡èĲĦ": 9452,
      "ĠBibli": 9453,
      "Ġpartn": 9454,
      "ĠRun": 9455,
      "Ġcarry": 9456,
      "Ġsculpt": 9457,
      "ä¸įå¯¹": 9458,
      "Ġcho": 9459,
      "ĠCopy": 9460,
      "ading": 9461,
      "Ã¸": 9462,
      "äºĨä¸ª": 9463,
      "ĠLes": 9464,
      "Ġbenef": 9465,
      "åľ¾": 9466,
      "éħ±": 9467,
      "Ġpra": 9468,
      "Ġdraft": 9469,
      "Ġnature": 9470,
      "åĳĬè¯īæĪĳ": 9471,
      "ĠFre": 9472,
      "Ġmaster": 9473,
      "çĶŁæĢģ": 9474,
      "ä¹¦è®°": 9475,
      "åĲĦä¸ª": 9476,
      "Ġincreasing": 9477,
      "ç«ŁçĦ¶": 9478,
      "Ġstories": 9479,
      "ĠKansas": 9480,
      "ori": 9481,
      "ä¸Ĭåİ»": 9482,
      "è¿ŀæİ¥": 9483,
      "ç¼ºä¹ı": 9484,
      "åŀĥåľ¾": 9485,
      "ä¸ĵä¸ļçļĦ": 9486,
      "mat": 9487,
      "Ġplans": 9488,
      "ĠToronto": 9489,
      "ä¸»å¸Ń": 9490,
      "ambiguation": 9491,
      "Ġmunicipal": 9492,
      "æ¡ĳ": 9493,
      "Ġyet": 9494,
      "åĳµåĳµ": 9495,
      "secut": 9496,
      "Ġcompon": 9497,
      "ĠUSA": 9498,
      "ĠIndust": 9499,
      "Ġnearly": 9500,
      "ully": 9501,
      "Ġclient": 9502,
      "ĠBaron": 9503,
      "rim": 9504,
      "Ġcycl": 9505,
      "pret": 9506,
      "çŁĽçĽ¾": 9507,
      "Ġmanaged": 9508,
      "OL": 9509,
      "çĶ¨äºĨ": 9510,
      "ĠCas": 9511,
      "è¿ŀç»ĵ": 9512,
      "lan": 9513,
      "uilt": 9514,
      "Ġweb": 9515,
      "åĴĸåķ¡": 9516,
      "token": 9517,
      "Ġclear": 9518,
      "Ġexecutive": 9519,
      "åħ±åĴĮåĽ½": 9520,
      "pton": 9521,
      "env": 9522,
      "Ġsimple": 9523,
      "ĠRegion": 9524,
      "æ¯ıä¸ªäºº": 9525,
      "åħ¶å®ĥ": 9526,
      "140": 9527,
      "'''Ċ": 9528,
      "æĹº": 9529,
      "Ġlevels": 9530,
      "roid": 9531,
      "çĬ¯ç½ª": 9532,
      "adesh": 9533,
      "ĠHind": 9534,
      "HT": 9535,
      "web": 9536,
      "pa": 9537,
      "Ġ-*-": 9538,
      "å²©": 9539,
      "Ġfifth": 9540,
      "Ġtransferred": 9541,
      "otal": 9542,
      "ls": 9543,
      "ĠMexican": 9544,
      "çļĦéĤ£": 9545,
      "sys": 9546,
      "session": 9547,
      "Ġrenamed": 9548,
      "ä¹Łä¸įä¼ļ": 9549,
      "Ġang": 9550,
      "çī¹èī²": 9551,
      "æĺĨ": 9552,
      "æľºåĪ¶": 9553,
      "itzer": 9554,
      "å°ıæĹ¶åĢĻ": 9555,
      "ĠSanta": 9556,
      "æµĻæ±Ł": 9557,
      "aska": 9558,
      "æĺŁæľŁ": 9559,
      "åİ¦": 9560,
      "æ°ĳä¸»": 9561,
      "ĠMuslim": 9562,
      "æ²Ī": 9563,
      "æĥħåĨµä¸ĭ": 9564,
      "ĉĉĉĉ": 9565,
      "è½»æĿ¾": 9566,
      "å¯¹æ¯Ķ": 9567,
      "stein": 9568,
      "Ġsoldiers": 9569,
      "xml": 9570,
      "ĠAvenue": 9571,
      "ĠGar": 9572,
      "éĶ»çĤ¼": 9573,
      "ĠPower": 9574,
      "çĶ¨æĿ¥": 9575,
      "çĸĨ": 9576,
      "Ġcannot": 9577,
      "ordin": 9578,
      "Ġdeep": 9579,
      "å¤§åĪ©": 9580,
      "æĭ³": 9581,
      "Ġtests": 9582,
      "å°Ĭéĩį": 9583,
      "æĤŁ": 9584,
      "ĠAdminist": 9585,
      "ĠAh": 9586,
      "Ġmiles": 9587,
      "\":Ċ": 9588,
      "ALL": 9589,
      "èİī": 9590,
      "è¯Ŀé¢ĺ": 9591,
      "è¡°": 9592,
      "ĠServ": 9593,
      "quarters": 9594,
      "rical": 9595,
      "æİªæĸ½": 9596,
      "ä½łåľ¨": 9597,
      "ĠSus": 9598,
      "åĮ»åŃ¦": 9599,
      "Ġprogress": 9600,
      "åıįèĢĮ": 9601,
      "è§ĦèĮĥ": 9602,
      "åıĳçļĦ": 9603,
      "ĠRen": 9604,
      "ä¸»é¢ĺ": 9605,
      "uv": 9606,
      "cache": 9607,
      "å°ıåŃ©": 9608,
      "Ġinside": 9609,
      "width": 9610,
      "èŀįèµĦ": 9611,
      "åħ¬åĬ¡": 9612,
      "chestra": 9613,
      "èħĶ": 9614,
      "Ġvolume": 9615,
      "ĠNC": 9616,
      "æĢ¨": 9617,
      "åİŁæ²¹": 9618,
      "700": 9619,
      "çľĭå®Į": 9620,
      "Ġworkers": 9621,
      "iform": 9622,
      "fort": 9623,
      "ĠVo": 9624,
      "äºĨåĲĹ": 9625,
      "çĽ´æĴŃ": 9626,
      "æľŁå¾ħ": 9627,
      "Ġuns": 9628,
      "åľ°çĲĥ": 9629,
      "è¿Ļä¸¤": 9630,
      "apping": 9631,
      "Ġvoice": 9632,
      "Ġordered": 9633,
      "bi": 9634,
      "Ġsport": 9635,
      "ĠLegisl": 9636,
      "Ġgun": 9637,
      "hemat": 9638,
      "aver": 9639,
      "ĠAnth": 9640,
      "åĨĽäºĭ": 9641,
      "Ġcomputer": 9642,
      "Ġcounter": 9643,
      "Ġimpact": 9644,
      "ĠId": 9645,
      "åĬĿ": 9646,
      "è¿ħéĢŁ": 9647,
      "Ġprojects": 9648,
      "Ġassistant": 9649,
      "åĳĨ": 9650,
      "ä¼ª": 9651,
      "emetery": 9652,
      "çĶŁç´ł": 9653,
      "è·µ": 9654,
      "'],Ċ": 9655,
      "ä¼ļåľ¨": 9656,
      "çĹħæ¯Ĵ": 9657,
      "Ġult": 9658,
      "achel": 9659,
      "Ġshare": 9660,
      "åŁİåĮº": 9661,
      "255": 9662,
      "çºµ": 9663,
      "Ġbad": 9664,
      "ĠRepresentatives": 9665,
      "å¿ĥæĥħ": 9666,
      "æĭĽèģĺ": 9667,
      "ĠSweden": 9668,
      "ĠPhiladelphia": 9669,
      "rance": 9670,
      "Ġasked": 9671,
      "Ġbasis": 9672,
      "ĠFair": 9673,
      "aki": 9674,
      "Ġwanted": 9675,
      "tain": 9676,
      "æħİ": 9677,
      "rence": 9678,
      "è´§å¸ģ": 9679,
      "æĿŃå·ŀ": 9680,
      "åİ¨": 9681,
      "å¾Īå¿«": 9682,
      "Ġrepe": 9683,
      "æķĪçİĩ": 9684,
      "ydro": 9685,
      "è´¨çļĦ": 9686,
      "æīĭæ®µ": 9687,
      "bourne": 9688,
      "èĤ©": 9689,
      "essages": 9690,
      "Ġdemonstr": 9691,
      "ĠColon": 9692,
      "ä¸įè¡Į": 9693,
      "è¾ĵåħ¥": 9694,
      "Ġfeaturing": 9695,
      "sex": 9696,
      "æĮĸ": 9697,
      "æĢİæł·çļĦä½ĵéªĮ": 9698,
      "Ġforward": 9699,
      "igration": 9700,
      "Ġsplit": 9701,
      "Ã©e": 9702,
      "Ġexception": 9703,
[...]
